{"version":"1.0","truncation":null,"padding":null,"added_tokens":[{"id":0,"content":"[PAD]","single_word":false,"lstrip":false,"rstrip":false,"normalized":false,"special":true},{"id":1,"content":"[BOS]","single_word":false,"lstrip":false,"rstrip":false,"normalized":false,"special":true},{"id":2,"content":"[EOS]","single_word":false,"lstrip":false,"rstrip":false,"normalized":false,"special":true}],"normalizer":null,"pre_tokenizer":{"type":"ByteLevel","add_prefix_space":false,"trim_offsets":true,"use_regex":true},"post_processor":null,"decoder":null,"model":{"type":"BPE","dropout":null,"unk_token":null,"continuing_subword_prefix":null,"end_of_word_suffix":null,"fuse_unk":false,"vocab":{"[PAD]":0,"[BOS]":1,"[EOS]":2,"!":3,"%":4,"'":5,"(":6,")":7,"*":8,"+":9,",":10,"-":11,".":12,"/":13,"0":14,"1":15,"2":16,"3":17,"4":18,"5":19,"6":20,"7":21,"8":22,"9":23,":":24,";":25,"<":26,"=":27,">":28,"?":29,"@":30,"A":31,"B":32,"C":33,"D":34,"E":35,"F":36,"G":37,"H":38,"I":39,"J":40,"K":41,"L":42,"M":43,"N":44,"O":45,"P":46,"Q":47,"R":48,"S":49,"T":50,"U":51,"V":52,"W":53,"X":54,"Y":55,"Z":56,"[":57,"\\":58,"]":59,"^":60,"_":61,"a":62,"b":63,"c":64,"d":65,"e":66,"f":67,"g":68,"h":69,"i":70,"j":71,"k":72,"l":73,"m":74,"n":75,"o":76,"p":77,"q":78,"r":79,"s":80,"t":81,"u":82,"v":83,"w":84,"x":85,"y":86,"z":87,"{":88,"|":89,"}":90,"«":91,"¬":92,"²":93,"¼":94,"Â":95,"â":96,"ï":97,"Ċ":98,"č":99,"Ġ":100,"Ģ":101,"Ĥ":102,"Ī":103,"ī":104,"Ĭ":105,"ı":106,"Ĳ":107,"Ķ":108,"ĸ":109,"ĺ":110,"Ļ":111,"Ġ+":112,"Ġ\\":113,"Ġ=":114,"^{":115,"čĊ":116,"Ġ-":117,"ac":118,"rac":119,"}{":120,"frac":121,"rr":122,"ig":123,"ht":124,"ight":125,"Ġ1":126,"_{":127,"ow":128,"arr":129,"arrow":130,"ightarrow":131,"Ġ2":132,"rt":133,"qrt":134,"sqrt":135,"}}":136,"Ġ3":137,"ve":138,"ove":139,"Ġ(":140,"rrightarrow":141,"overrightarrow":142,"Ġx":143,"Ġ0":144,"rightarrow":145,"})":146,"ha":147,"Ġ4":148,"ft":149,"eft":150,"de":151,"hat":152,"ide":153,"wide":154,"widehat":155,"eq":156,"Rightarrow":157,"Ġb":158,")^{":159,"Ġy":160,"eftrightarrow":161,"Leftrightarrow":162,"Ġc":163,"in":164,"}}{":165,"Ġa":166,"..":167,"Ġ5":168,"Ġ>":169,")(":170,"Ġm":171,"}(":172,"AB":173,"os":174,"geq":175,")_{":176,"sin":177,"{\\":178,"10":179,"20":180,"Ġ6":181,"brac":182,"brack":183,"}\\":184,"CH":185,"Ġ<":186,"Ġ9":187,"}.":188,"leq":189,"(\\":190,"AC":191,"left":192,"right":193,"CO":194,"}{\\":195,"im":196,"OH":197,"ot":198,"ime":199,"Ġ8":200,"cos":201,"pr":202,"ta":203,"Ġ7":204,"Ġn":205,"prime":206,"}^{":207,"ab":208,"})^{":209,"ol":210,"{(":211,"BC":212,"dot":213,"pi":214,"},":215,"Ġ10":216,"Ġ(\\":217,"lbrack":218,"ĠA":219,"rbrack":220,"Ġz":221,"12":222,"xy":223,"Ġ20":224,")}":225,"...":226,"Ġcos":227,"})_{":228,"{-":229,"ĠC":230,"el":231,"Fe":232,"mol":233,"15":234,"Del":235,"Delta":236,"16":237,";\\":238,"Cl":239,"ĠH":240,"Ġsin":241,"SO":242,"rc":243,"^{\\":244,"Ġ...":245,"ci":246,"Ġt":247,"circ":248,"NO":249,"Ġ12":250,"]{":251,"11":252,"100":253,"Na":254,"ĠB":255,"AD":256,".\\":257,")\\":258,"al":259,"18":260,"dots":261,"ng":262,"}.\\":263,"25":264,"00":265,"13":266,"vdots":267,"ĠCH":268,"Ġ90":269,")}{":270,"Ġ18":271,"Ġ16":272,"over":273,"19":274,".(":275,"ĠM":276,"AM":277,"},\\":278,"NH":279,"Ġk":280,"sinx":281,"200":282,"AH":283,"};":284,"Ġab":285,"cdot":286,"cosx":287,",\\":288,"14":289,"17":290,"pha":291,"^{+":292,"tan":293,"alpha":294,"}|":295,"}{(":296,"Ġd":297,"99":298,"}}}":299,"Ġxy":300,"et":301,"Ġ|":302,"BD":303,"AE":304,"ĠO":305,"Al":306,"ĠAB":307,"....":308,"}}{\\":309,"set":310,"^{-":311,"};\\":312,"22":313,"}(\\":314,"Ġ15":315,"})(":316,"ngl":317,"Ġ11":318,"angl":319,"Ġbc":320,"angle":321,"Ġf":322,"CD":323,"Cu":324,"neq":325,"Ġ14":326,"COO":327,"abc":328,"_{(":329,"overset":330,"24":331,"DC":332,"Ġ180":333,").":334,"ĠAC":335,"COOH":336,"Ġ25":337,"Ġcosx":338,"30":339,"MB":340,"Ġmol":341,"CB":342,"bc":343,"Ġ13":344,"ABC":345,"60":346,")(\\":347,"cm":348,"Ġ+}":349,"21":350,"ma":351,":\\":352,"MA":353,"lin":354,"overlin":355,"overline":356,"Ġ24":357,"75":358,"OC":359,"MC":360,"Ġsinx":361,"ar":362,"OB":363,"ĠD":364,"Ġ60":365,"|\\":366,"su":367,"23":368,"27":369,"ĠS":370,"}})":371,"BA":372,"BH":373,"Ca":374,"ĠčĊ":375,"ĠBC":376,"Ġ30":377,"ĠN":378,"NaOH":379,"sum":380,"Ġp":381,"05":382,"all":383,"CA":384,"MN":385,"{(\\":386,"ĠP":387,"50":388,"36":389,"Ġtan":390,"Ġca":391,"Ġg":392,"ong":393,"Mg":394,"th":395,"pt":396,"up":397,"ĠFe":398,"35":399,"40":400,"Ba":401,"tr":402,"32":403,"ĠE":404,"OA":405,"ĠI":406,"Ag":407,"Ġ100":408,"HCl":409,"mx":410,"Long":411,"Longrightarrow":412,"\\}":413,"BE":414,"BM":415,"ĠK":416,"iv":417,"})}":418,"AN":419,"45":420,"}{.":421,"33":422,"AI":423,"28":424,"Ġ17":425,"HC":426,"big":427,"lo":428,"tri":429,"angleup":430,"bigtri":431,"bigtriangleup":432,"Ġ36":433,"Ġ|\\":434,"math":435,"bb":436,"pm":437,"ĠAH":438,"time":439,"times":440,"^{+}":441,"2018":442,"Ġ40":443,");":444,"Ġ19":445,"or":446,"mathbb":447,"02":448,"\\{":449,"uiv":450,"equiv":451,"Ġ27":452,"}}{(":453,"Zn":454,"}.(":455,"2019":456,"DE":457,"bar":458,"Ġ45":459,"ax":460,"Ġ....":461,"HCO":462,"}}}{":463,"AK":464,"64":465,"56":466,"}^{-":467,",(":468,"Ġac":469,"})\\":470,"Ġ{":471,"ĠCO":472,"Ġyz":473,"fty":474,"infty":475,"2017":476,"}}\\":477,"101":478,"Ġ200":479,"un":480,"Ġ-}":481,"AF":482,"44":483,").(":484,"((":485,"29":486,"DB":487,"IB":488,"sim":489,"IA":490,"ĠV":491,"bot":492,"od":493,"26":494,"yz":495,"//":496,"Br":497,"80":498,"AO":499,"ĠR":500,"_{\\":501,"for":502,"BAC":503,"ĠAD":504,"forall":505,"},(":506,"der":507,"under":508,"Ġ32":509,"180":510,"),\\":511,"Ġ28":512,"49":513,"Ġmx":514,"):":515,"IC":516,"}:":517,"Cr":518,"Ġ21":519,"PO":520,"Ġ50":521,"MI":522,"ĠOH":523,"Ġax":524,"^{-}":525,"ca":526,"CM":527,"ilo":528,"ps":529,"ilon":530,"03":531,"98":532,"eps":533,"epsilon":534,"ĠCu":535,"CE":536,"am":537,"ox":538,"04":539,"01":540,"ACB":541,"EC":542,"xyz":543,"2016":544,"})}{":545,"48":546,")}{(":547,"MD":548,"\\%":549,"65":550,"EF":551,"ĠAl":552,"31":553,"OM":554,"}}(":555,"ĠBH":556,"90":557,"DA":558,"mod":559,"ĠF":560,"2013":561,"par":562,"allel":563,"parallel":564,"ĠNH":565,"HNO":566,")^{-":567,"Ġcot":568,")}{\\":569,"nO":570,"2015":571,"OD":572,"ĠNa":573,"ex":574,"Ġ35":575,"HB":576,"ap":577,"ĠBD":578,"Ġabc":579,"06":580,"2020":581,"96":582,"})(\\":583,"CN":584,"ho":585,"COOCH":586,"BK":587,"2012":588,"prox":589,"approx":590,"08":591,"Ġ..":592,"72":593,"ĠCOOH":594,"Ġ64":595,"}^{-}":596,"Ġ120":597,"Ġ2018":598,"ĠCa":599,"}}.\\":600,"}},\\":601,"ĠAM":602,"BI":603,"leftrightarrow":604,"ĠZ":605,"37":606,"Ġ23":607,".(\\":608,"}:\\":609,"Ġzx":610,"2010":611,"CF":612,"}{-":613,"tanx":614,"120":615,"underset":616,"EB":617,"}}^{":618,"ED":619,"GA":620,"cot":621,")}}":622,"]{\\":623,"2014":624,"FeCl":625,"Ġ26":626,"125":627,"MH":628,"ĠCD":629,").\\":630,"]{(":631,"ĠG":632,"dd":633,"CHO":634,"ĠBa":635,"ĠABC":636,"}/":637,"))":638,"Ġv":639,"2011":640,"}.(\\":641,"IM":642,"55":643,"ad":644,"2000":645,"Ġtex":646,"BN":647,"ĠAE":648,"()_{":649,"Ġ49":650,"Ġ22":651,"34":652,"}})^{":653,"39":654,"AG":655,"an":656,"Ġ2020":657,"BF":658,"ch":659,"COONa":660,"2009":661,"MnO":662,"Oy":663,"Ġq":664,"Ġ80":665,"*\\":666,"DH":667,"Ġ2017":668,");\\":669,"ON":670,"ĠNO":671,"))^{":672,"GC":673,"Ġbx":674,"........":675,"000":676,"),":677,"ĠX":678,"Ġ2019":679,"70":680,"pcm":681,"}^{+":682,"*)":683,"42":684,"Ġ2015":685,"2005":686,"ID":687,"COOC":688,"NC":689,"VT":690,"2004":691,"51":692,"}{(\\":693,"GB":694,"54":695,"HO":696,"Ġ2016":697,"81":698,"1000":699,"CaCO":700,"hoc":701,"{+":702,"DM":703,"EA":704,"AgNO":705,"xz":706,"ABD":707,"|}":708,"46":709,"95":710,"MK":711,")^{\\":712,"97":713,"BAD":714,"Ġe":715,"85":716,"min":717,"brace":718,"qu":719,"Ġxz":720,"Ġ48":721,"quad":722,"it":723,"vee":724,"ĠHC":725,"NaCl":726,");(":727,"43":728,"BT":729,"2008":730,"41":731,"OI":732,"Ġ31":733,"Ġ2014":734,"88":735,"ĠCl":736,"ĠBE":737,"^{+}\\":738,"77":739,"ms":740,"KOH":741,"ĠNaOH":742,"Ġ29":743,"52":744,"}-":745,"^{+}}":746,"MP":747,"Sin":748,"zx":749,"111":750,"84":751,"MO":752,"CK":753,"Ġ2013":754,"2003":755,"ME":756,"ĠDC":757,"}}}}":758,"Ġ75":759,"CI":760,"HE":761,"{.":762,"Ġ33":763,"HD":764,"Ġ42":765,"ADB":766,"Ġtanx":767,"78":768,"Ġ72":769,"ĠOA":770,"),(":771,"66":772,"ĠQ":773,"2007":774,"ĠHCl":775,"AOB":776,"OE":777,"CuO":778,"underbrace":779,"DN":780,"}}.":781,"}).":782,"Ġ56":783,"ĠDE":784,"KH":785,"^{{":786,"}):":787,"Ġ70":788,"Ġ2012":789,"sinxcosx":790,"HF":791,"PT":792,"{}":793,"ĠSO":794,"Ġ+},":795,"160":796,"2006":797,"71":798,"KMnO":799,"Ġ+}}":800,"ĠMN":801,"Ġgam":802,"63":803,"76":804,"DK":805,"Ġ((":806,"}}}{\\":807,"}};\\":808,"}).(":809,"ĠAN":810,"CuSO":811,"Ġ}":812,"HA":813,".....":814,"025":815,"BO":816,"2021":817,"ĠAI":818,"1999":819,"2001":820,"AP":821,"eta":822,"gam":823,"Ġ\\{":824,"102":825,"AlO":826,"DF":827,"Ot":828,"ĠAg":829,"ĠBM":830,"!}":831,"Ġ81":832,"log":833,"09":834,"57":835,"ldots":836,"Ġ2010":837,"ĠMg":838,"Ġ.....":839,"}))^{":840,"ADC":841,"PQ":842,"en":843,"Ġ)":844,"Ġ37":845,"Ġ2011":846,"SA":847,"Ġ34":848,"^{-}}":849,"BOC":850,"KCl":851,"xcos":852,"ĠAK":853,"AMB":854,"Ġxyz":855,"nH":856,"Ġ39":857,"ĠMC":858,";(":859,"Pi":860,"}).\\":861,"ĠAF":862,"2002":863,"}|.":864,"AlCl":865,"MF":866,"Ġr":867,"Ġ1000":868,"38":869,"79":870,"IE":871,"gt":872,"Ġ54":873,"DAC":874,"Si":875,"ĠHB":876,"ĠOB":877,"61":878,"IK":879,"Pb":880,"hocx":881,"''":882,"400":883,"BAM":884,"ln":885,"ĠZn":886,"ADE":887,"hi":888,"ung":889,"ABM":890,"ĠCK":891,"075":892,"AA":893,"GD":894,"xOy":895,"}*":896,"})^{-":897,"IN":898,"}((":899,"ĠCE":900,"/(":901,"92":902,"HSO":903,"KC":904,"mn":905,"Ġu":906,"}}_{":907,"doteq":908,"FeO":909,"FeS":910,"333":911,"59":912,"IH":913,"bd":914,"tht":915,"matht":916,"BaCO":917,"mathtt":918,"300":919,"58":920,"62":921,"DAB":922,"beta":923,"hh":924,"{|":925,"NaHCO":926,"07":927,"68":928,"ACD":929,"OF":930,"Ġ44":931,"FeSO":932,"150":933,"Ġ150":934,"BAH":935,"Ġs":936,"Ġ55":937,"DAE":938,"MAB":939,"}{|":940,"Ġ199":941,")^{+":942,"ABCD":943,"^{+},":944,"^{-}\\":945,"MG":946,"NCH":947,"lim":948,"}}{(\\":949,"Ġ99":950,"(|":951,"AOC":952,"SC":953,"dpcm":954,"ly":955,"ĠT":956,"Ġ360":957,"BCA":958,"ĠHNO":959,"ĠMB":960,"FE":961,"Oz":962,"Ġ-}}":963,"cmt":964,"CrO":965,"015":966,"74":967,"91":968,"SB":969,"nh":970,"FC":971,"cup":972,"}};":973,"sinA":974,"prod":975,"360":976,"53":977,"67":978,"89":979,"OOC":980,"[]{":981,"ĠCOO":982,"9999":983,"AED":984,":(":985,"Cos":986,"Mn":987,"NB":988,"NP":989,"xt":990,"108":991,"GM":992,"HK":993,"HCOOCH":994,"Ġh":995,"Ġ160":996,"BaSO":997,"Ġcotx":998,"86":999,"cdots":1000,"Ġ96":1001,"Ġ2021":1002,"ĠOC":1003,"MgO":1004,"}|.|\\":1005,"MAC":1006,"NA":1007,"pu":1008,"_{-":1009,"sinB":1010,"sina":1011,"max":1012,"AQ":1013,"...\\":1014,")}{(\\":1015,"CaO":1016,"69":1017,"73":1018,"BG":1019,"NM":1020,"Ġ+},(":1021,"Ġby":1022,"},(\\":1023,"ĠOM":1024,"SiO":1025,"KB":1026,"ABH":1027,"Ġ98":1028,"ĠMA":1029,"375":1030,"EH":1031,"IJ":1032,"int":1033,"Ġ125":1034,"AMN":1035,"225":1036,"DO":1037,"}^{{":1038,"Ġ105":1039,"...(":1040,"ĠCM":1041,"NaNO":1042,"HOOC":1043,"EM":1044,"Ġ65":1045,"Ġ78":1046,"ĠCA":1047,"999":1048,"abcd":1049,"Ġ2009":1050,"ĠVP":1051,"):\\":1052,"CAD":1053,"KL":1054,"Ġ:\\":1055,"Ġcx":1056,"ĠDH":1057,"(*)":1058,")|":1059,"CAB":1060,"MBC":1061,"NT":1062,"cd":1063,"ml":1064,"Ġ)_{":1065,"Ġ+},\\":1066,"Ġ144":1067,"DI":1068,"HM":1069,"ra":1070,"Ġ{\\":1071,"Ġ38":1072,"})}{\\":1073,"leftarrow":1074,"cosa":1075,"ĠME":1076,"ĠEF":1077,"}^{+}":1078,"DBC":1079,"OAB":1080,"cn":1081,"col":1082,"Ġ47":1083,"ĠCF":1084,"0000":1085,"ĠEC":1086,"ĠIA":1087,"ĠCaCO":1088,"500":1089,"ct":1090,"div":1091,"|^{":1092,"}}(\\":1093,"ABE":1094,"Ġ84":1095,"ĠnH":1096,"Ġ108":1097,"};(":1098,"AEF":1099,"ĠNaCl":1100,"HAB":1101,"VP":1102,"nCO":1103,"|}{":1104,"ĠY":1105,"Ġ58":1106,"144":1107,"ĠIM":1108,")}.\\":1109,"BAE":1110,"KI":1111,"Ox":1112,"km":1113,"}})(":1114,"Ġ43":1115,"Ġ46":1116,"Ġ52":1117,"ĠHD":1118,")^{-}":1119,"HCOO":1120,"hng":1121,"Ġ((\\":1122,"}):\\":1123,"Ġ63":1124,"ĠCos":1125,"ĠMH":1126,"AMC":1127,"83":1128,"94":1129,"MQ":1130,"PC":1131,"bx":1132,"bac":1133,"dx":1134,"pH":1135,"sinC":1136,"103":1137,"Ġ2005":1138,"})_{(":1139,"BDC":1140,")*\\":1141,"112":1142,"HAC":1143,"ba":1144,"{|\\":1145,"|)":1146,"|}{\\":1147,"}^{*":1148,"Ġ2000":1149,"AEB":1150,"Ġ140":1151,"MgCl":1152,"ancol":1153,"})^{-}":1154,"((\\":1155,"47":1156,"93":1157,"OP":1158,"as":1159,"Ġ66":1160,"cosB":1161,"ĠnCO":1162,"NaAlO":1163,"AHC":1164,").(\\":1165,"AgCl":1166,"ti":1167,"Ġl":1168,"ACE":1169,"ĠAr":1170,"ĠBK":1171,"273":1172,"ĠVT":1173,"ACH":1174,"EAB":1175,"FB":1176,"KA":1177,"sl":1178,"Ġma":1179,"Ġ62":1180,"121":1181,"128":1182,"ĠCr":1183,"ĠMD":1184,"ĠABD":1185,"Ġ2007":1186,"LN":1187,"Ni":1188,"OK":1189,"PD":1190,"ic":1191,"Ġ300":1192,"CuCl":1193,"Ġ135":1194,"cotx":1195,"}/(":1196,"FD":1197,"HCOOH":1198,"PA":1199,"kg":1200,"Ġ+}\\":1201,"}))":1202,"Ġ41":1203,"ACM":1204,"Ġ101":1205,"}|}":1206,"ĠDB":1207,"ĠNC":1208,"Ġgn":1209,"EI":1210,"pq":1211,"sa":1212,"})}{(":1213,")/":1214,"110":1215,"BB":1216,"CAM":1217,"HPO":1218,"KD":1219,"PB":1220,"PM":1221,"tex":1222,"Ġ\\%":1223,"}).(\\":1224,"ĠCHO":1225,"^{-},":1226,"Ġ......":1227,"Ġ2004":1228,")^{-}}":1229,"back":1230,")}\\":1231,"}}{-":1232,"Ġad":1233,"ĠBI":1234,"197":1235,"^{+},\\":1236,"}|\\":1237,")})":1238,"045":1239,"EG":1240,"KNO":1241,"cx":1242,"ed":1243,"tg":1244,"{_{":1245,"});":1246,"Ġ51":1247,"Ġ76":1248,"ĠCI":1249,"ĠHM":1250,"ĠHCO":1251,"ĠCHCl":1252,"1998":1253,"Ġsinxcosx":1254,"ĠDF":1255,"AOD":1256,"ash":1257,"slash":1258,"backslash":1259,"CC":1260,"HI":1261,"OG":1262,"cho":1263,"te":1264,"Ġlog":1265,"Ġ112":1266,"ĠCN":1267,"ĠFeCl":1268,"ĠIB":1269,"ĠIC":1270,"AIB":1271,"DEC":1272,"82":1273,"CBD":1274,"DG":1275,"HCOOC":1276,"SI":1277,"du":1278,"Ġ-},":1279,"Ġ110":1280,"Ġ(*)":1281,"hay":1282,"105":1283,"})^{+":1284,"ĠBA":1285,"ĠMn":1286,"ĠDM":1287,"CaCl":1288,"):(":1289,"())^{":1290,";(\\":1291,"HCHO":1292,"Om":1293,"ay":1294,"}*\\":1295,"Ġ71":1296,"162":1297,"130":1298,"175":1299,"BDA":1300,"AEC":1301,"_{(}":1302,"ĠKC":1303,"................":1304,"CG":1305,"EAC":1306,"Gly":1307,"Hg":1308,"igma":1309,"Ġ400":1310,")((":1311,"Ġmax":1312,"}())^{":1313,"CHCH":1314,"Ġ74":1315,"BCD":1316,"1009":1317,"AHB":1318,"ĠOy":1319,"DCB":1320,"cap":1321,"KClO":1322,"AS":1323,"QC":1324,"mi":1325,"uy":1326,"}...\\":1327,"Ġ-}\\":1328,"Ġmin":1329,"cosA":1330,"}^{\\":1331,"123":1332,"ĠBF":1333,"ĠMI":1334,"ĠOD":1335,"CBA":1336,"BaCl":1337,"Ġ2003":1338,"Ġ2008":1339,"amin":1340,"ĠGly":1341,"ank":1342,"}^{+}\\":1343,")}}{":1344,"BP":1345,"CT":1346,"EN":1347,"HN":1348,"ONa":1349,"ia":1350,"khi":1351,"me":1352,"ĠU":1353,"ĠCOONa":1354,"}}:\\":1355,"Ġ68":1356,"ĠHE":1357,"ĠHK":1358,"ADM":1359,"1996":1360,"ĠOI":1361,"AIC":1362,"ĠBaSO":1363,"}^{+}}":1364,"gamma":1365,"965":1366,"CP":1367,"EBC":1368,"KN":1369,"cb":1370,"cg":1371,"{{":1372,"Ġ,\\":1373,"^{(":1374,"Ġ88":1375,"Ġ2022":1376,"ĠCB":1377,"ĠBN":1378,"135":1379,"240":1380,"ĠSin":1381,"ĠED":1382,"Ġ2001":1383,"AFE":1384,"AOM":1385,"BTNT":1386,")^{+}":1387,"**)":1388,"625":1389,"DBA":1390,"FA":1391,"GE":1392,"OBC":1393,"Sigma":1394,"lu":1395,"yOt":1396,"ĠL":1397,"Ġ59":1398,"...)":1399,"ĠMK":1400,"ĠABM":1401,"COONH":1402,"BEC":1403,"ĠKOH":1404,"ZnO":1405,"ĠCuO":1406,"*(":1407,"/\\":1408,"87":1409,"BIC":1410,"CLN":1411,"HBC":1412,"IBC":1413,"KM":1414,"MAD":1415,"OAC":1416,"QP":1417,"tu":1418,"vi":1419,"Ġ?":1420,"^{*":1421,"Ġ67":1422,"})^{\\":1423,"Ġcosa":1424,"AMH":1425,"ĠABH":1426,"MAN":1427,"ĠDA":1428,"BHC":1429,"axit":1430,"}^{-},":1431,"Ġ2006":1432,"oxit":1433,"BTKL":1434,"mid":1435,"96500":1436,")}(\\":1437,")...(":1438,":(\\":1439,"DAH":1440,"EAD":1441,"}...":1442,"}}}}}":1443,"})}}":1444,"Ġ57":1445,"ABO":1446,"cosC":1447,"126":1448,"127":1449,"nguy":1450,"NHCH":1451,"Ġkx":1452,"ĠON":1453,"DCA":1454,"Ġpt":1455,"ĠPb":1456,"MgCO":1457,"ĠEB":1458,"ZnCl":1459,"Ġ.......":1460,"Ġ........":1461,"}^{-}}":1462,"CrCl":1463,"800":1464,"DAM":1465,"EK":1466,"OQ":1467,"mu":1468,"Ġ111":1469,"Ġ225":1470,"}},":1471,"Ġ53":1472,"ABN":1473,"2022":1474,"Ġ61":1475,"Ġ82":1476,"Ġ85":1477,"{((":1478,"ĠAP":1479,"Ġ121":1480,"ĠBr":1481,"140":1482,"abcde":1483,"ĠACB":1484,"Ġpcm":1485,"loi":1486,"ĠBaCO":1487,"ĠAgNO":1488,"035":1489,"216":1490,"EBD":1491,"EDC":1492,"II":1493,"NI":1494,"On":1495,"RT":1496,"TM":1497,"kx":1498,"Ġ(|":1499,"}),\\":1500,"Ġbd":1501,"Ġcm":1502,"Ġcn":1503,"Ġarc":1504,"COD":1505,"ĠHN":1506,"134":1507,"ĠMnO":1508,"222":1509,"ĠIK":1510,"BED":1511,"ĠAHB":1512,"BFC":1513,"}):(\\":1514,"700":1515,"CAH":1516,"ECB":1517,"FH":1518,"HS":1519,"KE":1520,"KAC":1521,"Min":1522,"MAH":1523,"oi":1524,"ph":1525,"Ġ130":1526,"}}})":1527,"}}.(\\":1528,"Ġcd":1529,"Ġay":1530,"ACK":1531,"ĠADE":1532,"NaHSO":1533,"Ġ162":1534,"overbrace":1535,"199":1536,"ĠOK":1537,"MBA":1538,"ĠpH":1539,"ĠEH":1540,"BMD":1541,"ĠKB":1542,"ANM":1543,"}^{-}\\":1544,"115":1545,";^{":1546,"BQ":1547,"HAD":1548,"ND":1549,"PN":1550,"asu":1551,"earrow":1552,"kt":1553,"mt":1554,"nC":1555,"red":1556,"Ġ+};":1557,"^{^{":1558,"ĠxCO":1559,"}),":1560,"1010":1561,"201":1562,"Ġ95":1563,"Ġ2002":1564,"FeCO":1565,"1006":1566,"256":1567,"133":1568,"ĠMF":1569,"};(\\":1570,"143":1571,"}|)^{":1572,"Ala":1573,"ĠDK":1574,"BAI":1575,"ĠIE":1576,"BEF":1577,"ĠAla":1578,"Ġvc":1579,"KHSO":1580,"_{-}^{+}\\":1581,"}^{*}":1582,"sau":1583,"measu":1584,"redangle":1585,"measuredangle":1586,"BMA":1587,"BMC":1588,"BOD":1589,"CAE":1590,"GH":1591,"IF":1592,"IO":1593,"SM":1594,"^\\":1595,"sd":1596,"vx":1597,"xsin":1598,"xOt":1599,"{^\\":1600,"|.":1601,"ĠCOOCH":1602,"Ġmn":1603,"}()_{":1604,"106":1605,"CHOH":1606,"Ġ97":1607,"Ġ999":1608,"ACI":1609,"Ġ106":1610,"Ġ123":1611,"005":1612,"Ġ169":1613,"1990":1614,"ĠMO":1615,"BDE":1616,"CDA":1617,"MCA":1618,"ĠDI":1619,"CAN":1620,"MgSO":1621,"}:(":1622,"ĠFC":1623,"miny":1624,"875":1625,"DP":1626,"QM":1627,"TN":1628,"aa":1629,"he":1630,"ka":1631,"sta":1632,"tb":1633,"yOz":1634,"Ġ}\\":1635,"}{|\\":1636,"Ġ3333":1637,"ABK":1638,"104":1639,"202":1640,"Ġ600":1641,"Ġ79":1642,"Ġ102":1643,"ĠHA":1644,"ĠHO":1645,"1007":1646,"008":1647,"136":1648,"1991":1649,"149":1650,"BDM":1651,"ĠOE":1652,"CBF":1653,"ĠSi":1654,"}}):\\":1655,"trong":1656,"ANB":1657,"AKB":1658,"ĠCuSO":1659,"star":1660,")!":1661,")}(":1662,"HBr":1663,"IG":1664,"IP":1665,"ICB":1666,"Li":1667,"MCB":1668,"MOC":1669,"NK":1670,"cu":1671,"es":1672,"fra":1673,"gi":1674,"kh":1675,"kk":1676,"ns":1677,"nCH":1678,"{...":1679,"}....":1680,"Ġ+}}{":1681,"}})}":1682,"Ġcb":1683,"Ġ89":1684,"Ġ77":1685,"{(}":1686,"BCE":1687,"BCN":1688,"})_{\\":1689,"Ġ128":1690,"]{(\\":1691,"1008":1692,"ADH":1693,"192":1694,"AHM":1695,"AEH":1696,"224":1697,"CDE":1698,"Ġ240":1699,"ĠDN":1700,"BAK":1701,"BAO":1702,"CaSO":1703,"ĠPQ":1704,"mathfra":1705,"Ġ273":1706,"DEF":1707,"ddH":1708,"BNM":1709,"|}{|\\":1710,"mathfrak":1711,")/(":1712,"CQ":1713,"EO":1714,"EBA":1715,"GI":1716,"GK":1717,"IAB":1718,"OAM":1719,"il":1720,"np":1721,"nt":1722,"tm":1723,"xcosx":1724,"|)^{":1725,"Ġ117":1726,"}}}\\":1727,"}}.(":1728,"Ġba":1729,"Ġ625":1730,"ACO":1731,"ĠCP":1732,"10000":1733,"ĠBAC":1734,"250":1735,"196":1736,"ĠMP":1737,"AMO":1738,"AHE":1739,"243":1740,"ĠNQ":1741,"ĠNe":1742,"ĠEG":1743,"444":1744,"Ġcotg":1745,"023":1746,"299":1747,"600":1748,"BOA":1749,"ECD":1750,"KF":1751,"OCB":1752,"Pt":1753,"RCOOH":1754,"TH":1755,"ZE":1756,"bk":1757,"dm":1758,"gra":1759,"kb":1760,"lun":1761,"nx":1762,"not":1763,"phi":1764,"xOz":1765,"zOt":1766,"}})(\\":1767,"Ġch":1768,"}}{{":1769,"Ġ512":1770,"Ġml":1771,"ACN":1772,"COCH":1773,"ĠHF":1774,"Ġsina":1775,"Ġ126":1776,"ngh":1777,"142":1778,"Ġdpcm":1779,"ĠOP":1780,"CDB":1781,"ĠACM":1782,"maxy":1783,"ĠNA":1784,"Ġpq":1785,"ĠFeO":1786,"ĠEI":1787,"ĠIH":1788,"ĠIN":1789,"BME":1790,"Ġ270":1791,"Ġ............":1792,")^{-}\\":1793,"Ġabcd":1794,"ĠGM":1795,"chung":1796,"BTE":1797,"}):(":1798,"OOCCH":1799,"grave":1800,"(**)":1801,",(\\":1802,"3000":1803,"4000":1804,"676":1805,"Ch":1806,"EAM":1807,"HAE":1808,"JC":1809,"KAB":1810,"MCD":1811,"MDC":1812,"MOB":1813,"Max":1814,"MHB":1815,"PH":1816,"SD":1817,"aO":1818,"cung":1819,"gc":1820,"nFe":1821,"nNO":1822,"uv":1823,"xC":1824,"}.....":1825,"});\\":1826,"Ġcz":1827,"}\\}":1828,"abx":1829,"ĠAMB":1830,"ĠcosC":1831,"ClO":1832,"NaBr":1833,"ĠCHCH":1834,"AHD":1835,"tanC":1836,"2222":1837,"Ġ256":1838,"CBH":1839,"AIK":1840,"\\%}{":1841,"BKC":1842,"082":1843,"ĠCaO":1844,"EBF":1845,"BOK":1846,"enz":1847,"lnx":1848,"MnSO":1849,"}^{*})":1850,"anken":1851,"cgv":1852,"este":1853,")//":1854,"260":1855,"AL":1856,"EMC":1857,"GF":1858,"GX":1859,"HAM":1860,"HCA":1861,"IBA":1862,"KHCO":1863,"NQ":1864,"NAC":1865,"OO":1866,"]{-":1867,"co":1868,"cy":1869,"dh":1870,"dt":1871,"dng":1872,"nn":1873,"on":1874,"uch":1875,"va":1876,"xA":1877,"Ġi":1878,"acos":1879,"Ġ116":1880,"});(":1881,"Ġbn":1882,"{((\\":1883,"BCF":1884,"BCK":1885,"ĠAO":1886,"169":1887,"Ġ...\\":1888,"1111":1889,"1005":1890,"ADO":1891,"2500":1892,"001":1893,"phan":1894,"tanB":1895,"ĠOx":1896,"ĠOz":1897,".......":1898,"Ġ1577":1899,"DCE":1900,"Ġ136":1901,"Ġ+}/":1902,"MAO":1903,"BAx":1904,"BHA":1905,"501":1906,"ĠEK":1907,"ĠKH":1908,"456":1909,"ĠFB":1910,"chia":1911,"mst":1912,"tgpu":1913,"nguyen":1914,"muoi":1915,")*":1916,"315":1917,"729":1918,"AT":1919,"DMB":1920,"GN":1921,"He":1922,"JA":1923,"KBC":1924,"KCB":1925,"MS":1926,"NE":1927,"SN":1928,"au":1929,"by":1930,"glu":1931,"lt":1932,"uc":1933,"var":1934,"xFe":1935,"zOy":1936,"|;":1937,"ĠJ":1938,"}}{|\\":1939,"Ġ500":1940,"Ġmt":1941,"Ġmy":1942,"Ġmsin":1943,"sint":1944,"Ġ92":1945,"ACF":1946,"},...":1947,"ĠAEF":1948,"ĠCC":1949,"1001":1950,"AMD":1951,"}|}{|\\":1952,"BDF":1953,"AEM":1954,"^{-}}}{":1955,"CBM":1956,"Ġ132":1957,"}}).\\":1958,"ĠFeSO":1959,"ĠEA":1960,"ĠEM":1961,"ĠID":1962,"BEA":1963,"ĠKM":1964,"AIE":1965,"DEA":1966,"296":1967,"AOE":1968,"0375":1969,"CED":1970,"ĠcotC":1971,"666":1972,"''(":1973,"''_{":1974,"Ġ1995":1975,"uchy":1976,"chiaht":1977,")}.":1978,".}":1979,"210":1980,"499":1981,"900":1982,"BCH":1983,"BOI":1984,"CMA":1985,"DOC":1986,"DBE":1987,"DAK":1988,"GO":1989,"IMC":1990,"MON":1991,"NBC":1992,"OCD":1993,"PE":1994,"\\};\\":1995,"arc":1996,"nearrow":1997,"oc":1998,"so":1999,"ute":2000,"xa":2001,"xAB":2002,"yx":2003,"zo":2004,"acute":2005,"Ġ216":2006,"}}}}{":2007,"Ġ(...":2008,"Ġmsinx":2009,"107":2010,"Ġ69":2011,"BCM":2012,"Ġ1010":2013,"ĠAMC":2014,"...}":2015,"ĠHBr":2016,"Ġ124":2017,"185":2018,"Ġ189":2019,"1995":2020,"AHF":2021,"Ġdx":2022,"BDH":2023,"......":2024,"245":2025,"ĠACD":2026,"Ġ250":2027,"MBN":2028,"605":2029,"Ġ243":2030,"}}):(\\":2031,"Cauchy":2032,"ĠNB":2033,"CAK":2034,"BEM":2035,"ĠKN":2036,"AKD":2037,"\\%}":2038,"modp":2039,"ĠCaCl":2040,"ĠBaCl":2041,"BFE":2042,"minu":2043,"NaClO":2044,"ĠMgCl":2045,"NTK":2046,"\\};\\{":2047,"!}{":2048,")...":2049,"344":2050,"436":2051,"525":2052,"675":2053,"Ax":2054,"BMN":2055,"DQ":2056,"DAN":2057,"DHC":2058,"EAN":2059,"EAF":2060,"FI":2061,"FM":2062,"GG":2063,"HBA":2064,"HAK":2065,"HCOONa":2066,"KAE":2067,"MCO":2068,"OS":2069,"RCOO":2070,"bi":2071,"bn":2072,"dk":2073,"mg":2074,"sm":2075,"sp":2076,"tOy":2077,"tOt":2078,"tOz":2079,"vung":2080,"xx":2081,"xsinx":2082,"ys":2083,"Ġ+^{":2084,"}}:":2085,"}}|":2086,"}}}.\\":2087,"Ġ320":2088,"Ġxt":2089,"})...(":2090,"ABF":2091,"ABI":2092,"Ġ91":2093,"OHC":2094,"Ġ800":2095,"Ġ73":2096,"Ġ750":2097,"Ġne":2098,"Ġnx":2099,"BCI":2100,"ĠAA":2101,"ĠAG":2102,")}:\\":2103,"})_{(\\":2104,"ĠCAB":2105,"155":2106,"ĠBB":2107,"ĠBAD":2108,"ADF":2109,"187":2110,"003":2111,"ĠCHOH":2112,"ĠCHBr":2113,"195":2114,"1980":2115,"1986":2116,"147":2117,"ĠOOC":2118,"Ġbcx":2119,"CuS":2120,"Ġ143":2121,"Ġ147":2122,"COOK":2123,"DCM":2124,"ĠACE":2125,"301":2126,"ĠDO":2127,"BAF":2128,"ĠNi":2129,"CAF":2130,"MNP":2131,"ĠPT":2132,"theta":2133,"BaO":2134,"ĠKD":2135,"ĠKCl":2136,"DEB":2137,"AFD":2138,"CMD":2139,"xyzt":2140,"BID":2141,"cotB":2142,"DHA":2143,"9797":2144,"Ġ1992":2145,"9999999":2146,"3759":2147,"HCOONH":2148,"notin":2149,"nguyentu":2150,"){.":2151,"**":2152,"065":2153,"399":2154,"672":2155,"BS":2156,"BOM":2157,"EAH":2158,"EBM":2159,"FBC":2160,"GT":2161,"HQ":2162,"IAC":2163,"IAD":2164,"IDC":2165,"JB":2166,"MBD":2167,"ODC":2168,"QA":2169,"box":2170,"bit":2171,"cng":2172,"dp":2173,"flo":2174,"msin":2175,"mdd":2176,"nAl":2177,"phng":2178,"vy":2179,"yOx":2180,"yOm":2181,"|(":2182,"Ġ{(":2183,"Ġln":2184,"^{_{":2185,"}{}":2186,"Ġ399":2187,"Ġ3000":2188,"Ġ({":2189,"})}\\":2190,"Ġcy":2191,"ABP":2192,"CHA":2193,"Ġ94":2194,"Ġ104":2195,"Ġ10000":2196,"ĠAQ":2197,"ĠADC":2198,"ĠCAD":2199,"158":2200,"ClH":2201,"ĠsinB":2202,"ĠBO":2203,"ĠBQ":2204,"ĠBIC":2205,"255":2206,"132":2207,")}{-":2208,"198":2209,"1975":2210,"1985":2211,"ĠMin":2212,"AME":2213,"AMI":2214,"AMK":2215,"NHC":2216,"};...":2217,"145":2218,"ĠOF":2219,"ĠABE":2220,"setminu":2221,"^{-},\\":2222,"CDM":2223,"307":2224,"308":2225,"MAI":2226,"MCN":2227,"OBA":2228,"233":2229,"ĠSI":2230,"BAN":2231,"allsetminu":2232,"CAI":2233,"CAx":2234,"ĠKA":2235,"ĠKI":2236,"ANC":2237,"AID":2238,"289":2239,"Ġ4036":2240,"Ġ192":2241,"ZnSO":2242,"AKC":2243,"AKM":2244,"////":2245,"ĠADM":2246,"CEA":2247,"MDA":2248,"EFD":2249,"ĠGn":2250,"BNC":2251,"and":2252,"ĠZnCl":2253,"AQP":2254,"})^{+}":2255,"^{*}":2256,"chiahtcho":2257,"4362":2258,"smallsetminu":2259,"boxed":2260,"floor":2261,"smallsetminus":2262,")}^{":2263,")...\\":2264,",...":2265,"012":2266,"016":2267,"024":2268,"1200":2269,"420":2270,"450":2271,"435":2272,"512":2273,"513":2274,"6605":2275,"896":2276,";...":2277,"AJ":2278,"CMN":2279,"DCH":2280,"DOB":2281,"ECA":2282,"FAE":2283,"HG":2284,"HP":2285,"IS":2286,"IAM":2287,"MX":2288,"MOA":2289,"NAB":2290,"OCH":2291,"PF":2292,"Pd":2293,"[]{\\":2294,"bng":2295,"is":2296,"khng":2297,"lit":2298,"nSO":2299,"tin":2300,"xH":2301,"xi":2302,"xOB":2303,"xOm":2304,"yl":2305,"|}{|":2306,"Ġo":2307,"Ġ}(":2308,"Ġor":2309,"Ġ=^{":2310,"acb":2311,"Ġ175":2312,"ĠxH":2313,"Ġxx":2314,"Ġak":2315,"..{.":2316,")(...)":2317,"109":2318,"CHK":2319,"Ġ900":2320,"COB":2321,"Ġ87":2322,"ĠnC":2323,"Ġ107":2324,"ĠAHC":2325,"ĠADB":2326,"ĠCCl":2327,"1500":2328,"119":2329,"NaH":2330,"ĠBP":2331,"1875":2332,"002":2333,"006":2334,"0075":2335,"138":2336,"Ġ188":2337,"AHN":2338,"170":2339,"ete":2340,"ĠOt":2341,"ĠABI":2342,"242":2343,"302":2344,"CBN":2345,"OCA":2346,"BHD":2347,"BHE":2348,"050":2349,"MNB":2350,"MNC":2351,"ĠEN":2352,"ĠIF":2353,"ĠIO":2354,"BEH":2355,"BMI":2356,"ĠKP":2357,"Ġ198":2358,"441":2359,"ĠVal":2360,"808":2361,"AON":2362,"}:(\\":2363,"MDI":2364,"\\%.":2365,"\\%\\":2366,"CNM":2367,"ĠAMH":2368,"ĠGB":2369,"Sinx":2370,"Ġ1997":2371,"til":2372,"ĠMnSO":2373,"Ġarcsin":2374,"BCNN":2375,"lunng":2376,"nghim":2377,"enzen":2378,")//(":2379,"cyc":2380,"%)":2381,"()":2382,")!}":2383,"0125":2384,"324":2385,"384":2386,"425":2387,"??":2388,"An":2389,"BGC":2390,"CCl":2391,"DIC":2392,"DIM":2393,"EOB":2394,"EAI":2395,"EDA":2396,"FG":2397,"HCB":2398,"HOC":2399,"HAN":2400,"IQ":2401,"KDC":2402,"MM":2403,"MOH":2404,"MCl":2405,"PG":2406,"QN":2407,"QR":2408,"SK":2409,"TB":2410,"TE":2411,"bO":2412,"cc":2413,"cba":2414,"dO":2415,"eil":2416,"nN":2417,"nc":2418,"ny":2419,"nHCl":2420,"opt":2421,"rong":2422,"tx":2423,"tac":2424,"tha":2425,"xf":2426,"xOn":2427,"{}\\":2428,"|.\\":2429,"Ġ.":2430,"Ġ\\{\\":2431,"}{{\\":2432,"hthe":2433,"Ġ118":2434,"_{(\\":2435,"}}})^{":2436,"}})\\":2437,"Ġ375":2438,"Ġ(|\\":2439,"ĠxFe":2440,"})}.\\":2441,"})}(\\":2442,"Ġ450":2443,"widetil":2444,"Ġmg":2445,"}(*)":2446,"203":2447,"CHB":2448,"CHCl":2449,"COA":2450,"COM":2451,"OHB":2452,"Ġ83":2453,"Ġ103":2454,"Ġ1024":2455,"ĠAED":2456,"ĠcosB":2457,"{-}{":2458,"ĠCMK":2459,"159":2460,"ĠHCOOH":2461,"ĠHBA":2462,"ĠsinA":2463,"1004":2464,"ĠBG":2465,"ĠBEC":2466,"ngdng":2467,"257":2468,"Ġ182":2469,"1997":2470,"ĠMAB":2471,"AHI":2472,"^{+};":2473,"9926":2474,"Ġ156":2475,"Ġ145":2476,"DCI":2477,"309":2478,"Ġ137":2479,"MCK":2480,"OBM":2481,"suy":2482,"}}).(":2483,"CAO":2484,"504":2485,"404":2486,"Ġ1008":2487,"BMO":2488,"ĠKE":2489,"AIO":2490,"280":2491,"ĠAHD":2492,"Ġ196":2493,"Ġ1983":2494,"Ġacy":2495,"Ġacos":2496,"ICK":2497,"ĠCuCl":2498,"ECF":2499,"})}{(\\":2500,"EFH":2501,"ĠAlCl":2502,"ĠFH":2503,"ĠcotB":2504,"ĠNaNO":2505,"BIK":2506,"BIM":2507,"MHN":2508,"ĠGD":2509,"}^{+},":2510,"HOCH":2511,"777":2512,"ĠMgO":2513,"}*(":2514,"})^{-}\\":2515,"Ġ1998":2516,"Cosx":2517,"cgc":2518,"^{(}":2519,"CHOHCH":2520,"}.....\\":2521,"widetilde":2522,"(.":2523,")}}{\\":2524,")*(":2525,"*...":2526,".^{":2527,"/(\\":2528,"022":2529,"215":2530,"336":2531,"412":2532,"475":2533,"710":2534,"765":2535,"Ar":2536,"Au":2537,"BL":2538,"BON":2539,"CS":2540,"CID":2541,"DMA":2542,"DBH":2543,"EDB":2544,"EIB":2545,"GQ":2546,"HBE":2547,"HKC":2548,"IDA":2549,"JD":2550,"KP":2551,"KAD":2552,"MCH":2553,"MHC":2554,"MEC":2555,"MEF":2556,"MEB":2557,"MED":2558,"ODB":2559,"PI":2560,"PS":2561,"PV":2562,"RCl":2563,"Sn":2564,"TS":2565,"UCLN":2566,"XD":2567,"XY":2568,"ai":2569,"bset":2570,"do":2571,"ga":2572,"hit":2573,"lm":2574,"mH":2575,"mO":2576,"mOy":2577,"nha":2578,"nNa":2579,"pV":2580,"px":2581,"searrow":2582,"xAC":2583,"Ġ/":2584,"Ġsqrt":2585,"Ġ}}":2586,"Ġpi":2587,"Ġlim":2588,"Ġ\\{(":2589,"Ġ=_{-}^{+}\\":2590,"Ġ-},\\":2591,"}{{":2592,"}}}{(":2593,"Ġ324":2594,"})|":2595,"})}}{":2596,"}),(":2597,"})//":2598,"ĠyH":2599,"Ġcp":2600,"inh":2601,"}}{.":2602,"Ġaz":2603,"Ġ5050":2604,"ABG":2605,")_{(":2606,"sinb":2607,"Ġ650":2608,"}.|":2609,"ACx":2610,"CONHCH":2611,"OHD":2612,"Ġ86":2613,"}^{}\\":2614,"ĠAMN":2615,"ĠAEC":2616,"ĠAOD":2617,"122":2618,"1212":2619,"ĠcosA":2620,"152":2621,"161":2622,"168":2623,"ĠHe":2624,"ĠHAB":2625,"Ġ122":2626,"114":2627,"1003":2628,"ĠBOC":2629,"ĠBMC":2630,"ADN":2631,")\\}":2632,"alph":2633,"1800":2634,"193":2635,"ĠMQ":2636,"ĠMT":2637,"Ġkm":2638,"sinxcos":2639,"146":2640,"tana":2641,"Ġdk":2642,"994":2643,"995":2644,"AEI":2645,"ĠOQ":2646,"ĠABO":2647,"CDO":2648,"Ġ149":2649,"ĠACI":2650,"MBI":2651,"Ġmoln":2652,"ĠDP":2653,"subset":2654,"272":2655,"ĠNF":2656,"ĠNK":2657,"ĠPB":2658,"ĠPC":2659,"ĠPD":2660,"503":2661,"ĠtanB":2662,"thc":2663,"trn":2664,"ĠEBD":2665,"Ġ1007":2666,"Ġ1009":2667,"ĠKMnO":2668,"288":2669,"HCI":2670,"HCM":2671,"Ġ4033":2672,"Ġ4026":2673,");(\\":2674,"Ġ272":2675,"AKE":2676,"297":2677,"DBI":2678,"Ġ288":2679,"EFM":2680,"modm":2681,"ĠFD":2682,"ĠNaAlO":2683,"hoca":2684,"1201":2685,"cotA":2686,"cotg":2687,"MHD":2688,"ĠGC":2689,"343":2690,"DME":2691,"SinA":2692,"MOQ":2693,"ĠHClO":2694,"HFE":2695,"INM":2696,"999999":2697,"Ġ)_{(":2698,"cnti":2699,"ctu":2700,"SIZE":2701,"ankan":2702,"khix":2703,"^{*})":2704,"|.|\\":2705,"}....\\":2706,"ĠSIZE":2707,"tinhthe":2708,"Ġacosx":2709,"alphacos":2710,"275":2711,"320":2712,"316":2713,"350":2714,";|":2715,"BCO":2716,"Cd":2717,"DT":2718,"DAF":2719,"DMH":2720,"EOD":2721,"EHB":2722,"EOF":2723,"FN":2724,"FEC":2725,"HBD":2726,"HMB":2727,"HDE":2728,"HMK":2729,"IBD":2730,"IBH":2731,"IBM":2732,"IAK":2733,"KCA":2734,"LT":2735,"Left":2736,"MT":2737,"MSO":2738,"MAE":2739,"NMC":2740,"OBD":2741,"ODA":2742,"OCOCH":2743,"QK":2744,"QAC":2745,"RA":2746,"SE":2747,"Tac":2748,"Tnh":2749,"Vy":2750,"at":2751,"benzen":2752,"chat":2753,"go":2754,"ket":2755,"li":2756,"nht":2757,"nBa":2758,"pA":2759,"ts":2760,"tnh":2761,"vb":2762,"vs":2763,"xb":2764,"Ġ,":2765,"Ġ.\\":2766,"Ġ-}.":2767,"Ġ1102":2768,"Ġ210":2769,"Ġ232":2770,"Ġ265":2771,"Ġ297":2772,"}}...":2773,"}})}{":2774,"dehit":2775,"ĠyB":2776,"Ġyx":2777,"ĠyCO":2778,"}}{|":2779,"Ġmcosx":2780,"ABx":2781,"1024":2782,"204":2783,"207":2784,"CHI":2785,"Ġ700":2786,"ĠnSO":2787,"ĠAIB":2788,"ĠAOM":2789,"Ġ202":2790,"ĠCBD":2791,"ĠCMD":2792,"ClCH":2793,"ĠHI":2794,"ĠHAC":2795,"Ġth":2796,"NaI":2797,"ĠBDC":2798,"ngng":2799,"Ġ1600":2800,"1945":2801,"1992":2802,"1989":2803,"ĠMax":2804,"AHO":2805,"Ġaby":2806,"^{+}(":2807,"^{+}}\\":2808,"^{+},(":2809,"tanA":2810,"Ġda":2811,"Ġdb":2812,"Ġ|(\\":2813,"BDN":2814,"....(":2815,"^{-}}{":2816,"})((":2817,"CuFeS":2818,"COOR":2819,"241":2820,"2499":2821,"MBO":2822,"CBI":2823,"Ġ133":2824,"MAK":2825,"Ġ242":2826,"750":2827,"OCM":2828,"}})...(":2829,"ĠBCN":2830,"Ġ3021":2831,"ĠND":2832,"055":2833,"MNPQ":2834,"ĠPR":2835,"3600":2836,"Ġgc":2837,"ĠEAB":2838,"OAI":2839,"ĠIG":2840,"Ġ1006":2841,"AND":2842,"331":2843,"Ġ170":2844,"ĠAHE":2845,"Ġ193":2846,"orx":2847,"DEH":2848,"Ġacx":2849,"AFH":2850,"448":2851,"AOI":2852,"496":2853,"4901":2854,"):(\\":2855,"Ġ504":2856,"CMR":2857,"CEM":2858,"048":2859,"})}{-":2860,"ĠAlO":2861,"ĠFE":2862,"ĠFM":2863,")^{-}}}{":2864,"ĠNaHCO":2865,"BIH":2866,"BIO":2867,"376":2868,"EDF":2869,"EDH":2870,"ĠGN":2871,"chs":2872,"minf":2873,"mino":2874,"ĠQI":2875,"DKA":2876,".....(":2877,"DFE":2878,"hiu":2879,"_{-}^{+}":2880,"Ġlg":2881,")/\\":2882,"hayx":2883,"........................":2884,"khc":2885,"arcsin":2886,"bOc":2887,"Leftarrow":2888,"(*":2889,"))}{":2890,")}}(":2891,"116":2892,"440":2893,"575":2894,"505":2895,"670":2896,"720":2897,"775":2898,"864":2899,"8000":2900,";|\\":2901,"AOH":2902,"Be":2903,"BOy":2904,"BOE":2905,"Cot":2906,"CMB":2907,"DAI":2908,"DOE":2909,"EQ":2910,"EMA":2911,"EIA":2912,"EPD":2913,"FAB":2914,"GS":2915,"HBM":2916,"HED":2917,"IAE":2918,"ICA":2919,"JK":2920,"KBD":2921,"KHC":2922,"KCE":2923,"KEC":2924,"Lys":2925,"MNH":2926,"MIB":2927,"NG":2928,"NMB":2929,"NMA":2930,"NCA":2931,"NBM":2932,"OCO":2933,"ONO":2934,"OAD":2935,"OAE":2936,"PK":2937,"PR":2938,"PCB":2939,"ROH":2940,"XE":2941,"XO":2942,"YZ":2943,"ah":2944,"bu":2945,"bz":2946,"cac":2947,"dv":2948,"em":2949,"gv":2950,"hb":2951,"lc":2952,"lta":2953,"my":2954,"nOH":2955,"nCa":2956,"nNaOH":2957,"oH":2958,"ok":2959,"vl":2960,"xCO":2961,"xBA":2962,"yy":2963,"yOn":2964,"{{\\":2965,"|}}":2966,"âĢ":2967,"Ġ;\\":2968,"Ġ/\\":2969,"Ġ+}.":2970,"Ġ+};\\":2971,"Ġ220":2972,"Ġ226":2973,"Ġ290":2974,"}}})}":2975,"Ġ350":2976,"Ġ(....":2977,"ĠxA":2978,"})})":2979,"Ġ441":2980,"delta":2981,"Ġbsinx":2982,"Ġbcosx":2983,"Ġcung":2984,"Ġcgv":2985,"Ġ540":2986,"ĠmH":2987,"Ġmcos":2988,"}()":2989,"}({\\":2990,"ABAC":2991,"sinAOB":2992,"208":2993,"CHM":2994,"Ġ93":2995,"(\\%)":2996,"ACP":2997,"OHCH":2998,"cost":2999,"Ġ729":3000,"Ġnt":3001,"Ġny":3002,"ĠnNO":3003,"abz":3004,"BCy":3005,"ĠACH":3006,"129":3007,"Ġ201":3008,"ĠCBA":3009,"ĠCLN":3010,"FeBr":3011,"151":3012,"153":3013,"156":3014,"163":3015,"165":3016,"16289":3017,"ĠHSO":3018,"Ġtrong":3019,"Ġ127":3020,"113":3021,"117":3022,"NaCrO":3023,"ĠBL":3024,"137":3025,"Ġ168":3026,"Ġkb":3027,"Ġkg":3028,"Ġkhi":3029,"AHK":3030,"171":3031,"177":3032,"^{+}}{":3033,"Ġdu":3034,"BDK":3035,"AEO":3036,"CDN":3037,"Ġ146":3038,"DCF":3039,"ĠACN":3040,"Ġ252":3041,"Ġ259":3042,"MBE":3043,"CBO":3044,"bca":3045,"bcx":3046,"Ġ+}:\\":3047,"MCE":3048,"ĠDQ":3049,"232":3050,"ĠSC":3051,"ĠNP":3052,"Ġpx":3053,"052":3054,"ĠPI":3055,"ĠPO":3056,"ĠtanA":3057,"ĠtanC":3058,"thuc":3059,"ptm":3060,"ĠIJ":3061,"ĠIP":3062,"HClO":3063,"ĠKNO":3064,"})}_{":3065,"AIM":3066,"287":3067,"HCE":3068,"Ġ.........":3069,"5625":3070,"ĠCONH":3071,"DBK":3072,"265":3073,"ĠADH":3074,"POQ":3075,"MIN":3076,"Ġaxit":3077,"can":3078,"CME":3079,"CMK":3080,"984":3081,"CEB":3082,"CEF":3083,"CEH":3084,"MDK":3085,"6517":3086,"EFC":3087,"ĠBHA":3088,"ĠFA":3089,"ĠFI":3090,"nOm":3091,"ODH":3092,"exis":3093,"HBK":3094,"CNI":3095,"hocm":3096,"ĠCaSO":3097,"BIE":3098,")))":3099,"342":3100,"anin":3101,"BFD":3102,"Ġ8072":3103,"hoct":3104,"4375":3105,"BTDT":3106,"msn":3107,"SinB":3108,"MOx":3109,"CKE":3110,"ĠDCM":3111,"CIN":3112,"ĠQC":3113,"ĠQK":3114,"ĠQM":3115,"HFC":3116,"DKB":3117,".....\\":3118,"ĠAIE":3119,"ĠAIN":3120,"MFC":3121,"PbCO":3122,"Ġsd":3123,"Ġ1999":3124,")^{+}}":3125,")^{+},(":3126,"FEH":3127,"nhn":3128,"ĠCOONH":3129,"Ġmaxy":3130,"ĠCrO":3131,"123456":3132,"tua":3133,"nguyn":3134,"III":3135,"Ġarccos":3136,"phen":3137,"aOb":3138,")...(\\":3139,"979798":3140,"Ank":3141,"suyra":3142,"*...*":3143,"kettua":3144,"exists":3145,"!!":3146,"!.(":3147,"({":3148,"(...)":3149,"))\\":3150,")}}\\":3151,")}).\\":3152,").....(":3153,"013":3154,"095":3155,"220":3156,"335":3157,"540":3158,"688":3159,"671":3160,"825":3161,"As":3162,"BOH":3163,"BIA":3164,"CL":3165,"DMC":3166,"DOA":3167,"DBM":3168,"DIB":3169,"DAO":3170,"EBH":3171,"EMN":3172,"EAO":3173,"EIC":3174,"EHF":3175,"FK":3176,"FO":3177,"FCH":3178,"FAD":3179,"FDC":3180,"FCB":3181,"FBA":3182,"FDE":3183,"FAK":3184,"FDA":3185,"GP":3186,"Glu":3187,"HDC":3188,"HAF":3189,"HNM":3190,"ICH":3191,"IOB":3192,"IMN":3193,"IEC":3194,"IEA":3195,"KBM":3196,"KCM":3197,"LB":3198,"MJ":3199,"MIA":3200,"MOI":3201,"NF":3202,"NCO":3203,"NOH":3204,"NAH":3205,"NAE":3206,"NBH":3207,"NMI":3208,"NCM":3209,"NMH":3210,"OT":3211,"OMN":3212,"OIA":3213,"OID":3214,"PAC":3215,"PCl":3216,"QI":3217,"RO":3218,"RCO":3219,"RCOONa":3220,"SAB":3221,"SABC":3222,"TL":3223,"Ti":3224,"The":3225,"Xt":3226,"[{":3227,"asinx":3228,"atm":3229,"cO":3230,"cctu":3231,"etan":3232,"ept":3233,"hc":3234,"ii":3235,"iu":3236,"kc":3237,"ky":3238,"lam":3239,"lfloor":3240,"mm":3241,"msinx":3242,"na":3243,"nHNO":3244,"ocho":3245,"pept":3246,"qt":3247,"ru":3248,"rfloor":3249,"tng":3250,"vim":3251,"vnghim":3252,"xB":3253,"xM":3254,"xm":3255,"xin":3256,"xOA":3257,"xON":3258,"yta":3259,"yOB":3260,"zOm":3261,"{..":3262,"{^{\\":3263,"|(\\":3264,"}?":3265,"}^":3266,"}//":3267,"}........":3268,"«}":3269,"âĸ":3270,"Ġw":3271,"Ġha":3272,"ĠGA":3273,"ĠCOOC":3274,"Ġ+}(":3275,"^{âĸ":3276,"Ġ-^{":3277,"Ġ115":3278,"Ġ119":3279,"own":3280,"Ġ275":3281,"Ġ280":3282,"}}};":3283,"}}}}{\\":3284,"}}}(\\":3285,"}}*\\":3286,"}}|}{|\\":3287,"Ġ342":3288,"})}}^{":3289,"})/(\\":3290,"Ġ4224":3291,"Ġbk":3292,"Ġcho":3293,"ing":3294,"Ġan":3295,"Ġmb":3296,"}(**)":3297,"ABt":3298,"Ġ661":3299,"CHN":3300,"COI":3301,"CONH":3302,"propt":3303,"ĠnO":3304,"})^{{":3305,"ole":3306,"ĠAx":3307,"ĠAOB":3308,"Ġzy":3309,"Ġ205":3310,"Ġ208":3311,"Ġ2030":3312,"ĠCG":3313,"ĠCQ":3314,"FeI":3315,"166":3316,"ĠHG":3317,"ĠHQ":3318,"ĠsinC":3319,"Ġ...(":3320,"Ġ...}}}":3321,"Ġtx":3322,"NOy":3323,"118":3324,"11111":3325,"1002":3326,"100000":3327,"ĠBDE":3328,"ĠBMH":3329,"ADI":3330,"alanin":3331,"184":3332,"009":3333,"1313":3334,"ĠCHA":3335,"Ġ18162":3336,"Ġ167":3337,"190":3338,"1983":3339,"ĠMy":3340,"ĠMCl":3341,"ĠMON":3342,"ĠMBO":3343,"Ġkmol":3344,"sinxsin":3345,"AHQ":3346,"Ġabx":3347,"148":3348,"1400":3349,"176":3350,"Ġdc":3351,"Ġdd":3352,"Ġdt":3353,"993":3354,"}}};\\":3355,"etil":3356,"AEP":3357,"ĠOAB":3358,"ĠABK":3359,".........":3360,"^{-}.":3361,"CDF":3362,"CDK":3363,"MBF":3364,"CBE":3365,"Ġ138":3366,"OBH":3367,"ĠDAB":3368,"ĠDHB":3369,"ĠDOQ":3370,"231":3371,"235":3372,"2341":3373,"BHK":3374,"BHM":3375,"BHN":3376,"BHO":3377,"CaC":3378,"ĠNI":3379,"ĠNM":3380,"Ġpb":3381,"056":3382,"ĠPH":3383,"ĠPM":3384,"ĠPt":3385,"ĠPx":3386,"365":3387,"Ġgt":3388,"ĠFeS":3389,"408":3390,"4026":3391,"trnh":3392,"ĠECB":3393,"OAN":3394,"Ġ1001":3395,"Ġ1002":3396,"Ġ1003":3397,"ĠKF":3398,"ĠKHSO":3399,"loai":3400,"Ġ364":3401,"^{+}/":3402,"Ġ4043":3403,"Ġ1985":3404,"AKI":3405,"ĠCOB":3406,"ĠCOD":3407,"4444":3408,"263":3409,"ĠADN":3410,"497":3411,"MIK":3412,"MIO":3413,"985":3414,"CEN":3415,"MDH":3416,"EFA":3417,"modn":3418,"ĠFG":3419,"ĠNHCH":3420,"ĠNaHSO":3421,"ĠBDH":3422,"BKE":3423,"0875":3424,"ĠAME":3425,"CFD":3426,"Ġ269":3427,"ĠGE":3428,"ĠGK":3429,"ddHCl":3430,"ddHNO":3431,"Ġvung":3432,"anpha":3433,"andehit":3434,"chn":3435,"hocb":3436,"hocy":3437,"DMG":3438,"MKH":3439,"ĠClO":3440,"SinC":3441,"MEO":3442,"MEP":3443,"}}}}}{\\":3444,"789":3445,"667":3446,"OEH":3447,"PTK":3448,"DKC":3449,"DFA":3450,"DFC":3451,"ĠAgCl":3452,"5731":3453,"ĠZnO":3454,"bda":3455,"Ġsau":3456,"673":3457,"OOCC":3458,"MnCl":3459,"HOOCCH":3460,"tia":3461,"slt":3462,"19981998":3463,"ankin":3464,"Ġ..........":3465,"Ġ...........":3466,"Ġarctan":3467,"aOc":3468,"xAy":3469,"varepsilon":3470,"varphi":3471,"vunggc":3472,"dpnc":3473,"Ġoo":3474,"SER":3475,"lceil":3476,"âĢĻ":3477,"phenol":3478,"lambda":3479,"peptit":3480,"^{âĸ«}":3481,"propto":3482,"etilen":3483,"!.":3484,")-":3485,"))}":3486,")}}{(":3487,")}.(\\":3488,",|\\":3489,".|":3490,".|\\":3491,"011":3492,"044":3493,"096":3494,"0175":3495,"1125":3496,"217":3497,"2999":3498,"4242":3499,"588":3500,"640":3501,"760":3502,"912":3503,"919":3504,"975":3505,"Aa":3506,"BJ":3507,"BNH":3508,"BJC":3509,"CJ":3510,"CIB":3511,"CPQ":3512,"DL":3513,"DIA":3514,"DOM":3515,"DHB":3516,"ECH":3517,"EMB":3518,"EHC":3519,"EAK":3520,"ECM":3521,"EMF":3522,"EKB":3523,"FCD":3524,"FBH":3525,"FED":3526,"GMN":3527,"HMA":3528,"HMC":3529,"HMN":3530,"HIE":3531,"IL":3532,"IHC":3533,"IMD":3534,"IHB":3535,"IED":3536,"IDH":3537,"INC":3538,"KX":3539,"Ka":3540,"KCD":3541,"KMB":3542,"KOC":3543,"KMC":3544,"KBA":3545,"KAlO":3546,"Ma":3547,"Me":3548,"MDE":3549,"MHCO":3550,"MDB":3551,"MOD":3552,"MOy":3553,"MEA":3554,"NDC":3555,"NCB":3556,"NEC":3557,"NDM":3558,"OMA":3559,"OIC":3560,"OKC":3561,"PAM":3562,"PMQ":3563,"QB":3564,"QE":3565,"QF":3566,"QO":3567,"QS":3568,"QOC":3569,"RQ":3570,"Rx":3571,"RCH":3572,"RNH":3573,"SG":3574,"SH":3575,"SLT":3576,"TC":3577,"Th":3578,"Val":3579,"XCl":3580,"YON":3581,"\\}(":3582,"ang":3583,"cde":3584,"dA":3585,"dC":3586,"fr":3587,"gg":3588,"gct":3589,"hn":3590,"ip":3591,"kim":3592,"kmol":3593,"ls":3594,"mA":3595,"mCO":3596,"nX":3597,"nb":3598,"nm":3599,"nu":3600,"nCl":3601,"nCu":3602,"nchs":3603,"og":3604,"om":3605,"ome":3606,"pB":3607,"pg":3608,"tn":3609,"tt":3610,"tOx":3611,"uthc":3612,"xO":3613,"xn":3614,"xo":3615,"xBC":3616,"xmol":3617,"xCD":3618,"yA":3619,"yH":3620,"||":3621,"}]{\\":3622,"Ġ;":3623,"Ġ)\\":3624,"^{|":3625,"^{.}":3626,"Ġ-}(":3627,"Ġ-};":3628,"Ġ-},(":3629,"Ġ-},(\\":3630,"}{...}":3631,"igi":3632,"Ġ114":3633,"Ġ1111":3634,"Ġ212":3635,"Ġ224":3636,"}}}}}{":3637,"}}|}":3638,"}}...\\":3639,"}}).(\\":3640,"}}..{.":3641,"Ġ319":3642,"Ġ345":3643,"Ġ({\\":3644,"ĠxB":3645,"ĠxOy":3646,"Ġ02":3647,"deg":3648,"Ġyt":3649,"Ġcxy":3650,"Ġam":3651,"Ġat":3652,"Ġasinx":3653,")((\\":3654,"ĠmNaOH":3655,"}((\\":3656,"ABQ":3657,"{\\%":3658,"209":3659,"2025":3660,"Ġ671":3661,"Ġ676":3662,"CHD":3663,"CHBr":3664,"Ġ980":3665,"Ġ99999":3666,"Ġ9999":3667,"ACy":3668,"COE":3669,"COF":3670,"Ġ8000":3671,"cosb":3672,"cose":3673,"cosy":3674,"Ġ720":3675,"Ġ780":3676,"ĠnN":3677,"}^{.}":3678,"abxy":3679,"oli":3680,"},((":3681,"Ġ1080":3682,"ĠAEB":3683,"12343":3684,"Ġ20412":3685,"ĠCAM":3686,"ĠCAH":3687,"ĠCMN":3688,"ĠCDA":3689,"moln":3690,"164":3691,"ĠHP":3692,"ĠHg":3693,"ĠHAD":3694,"ĠHCOOCH":3695,"ĠHCOONa":3696,"ĠHOOC":3697,"Ġsint":3698,"Ġtg":3699,"Ġty":3700,"1120":3701,"ĠBHC":3702,"ĠBMI":3703,"ĠBOM":3704,"ADK":3705,"181":3706,"182":3707,"186":3708,"189":3709,"ngt":3710,"004":3711,"007":3712,"00000":3713,"131":3714,")}{|":3715,"Ġ181":3716,"1930":3717,"1993":3718,"ĠMBD":3719,"ĠMCB":3720,"ĠMIC":3721,"NHB":3722,"Ġka":3723,"AHBC":3724,"Ġabz":3725,"^{+}}}{":3726,"}|(":3727,"}|}{":3728,"etyl":3729,"Ġ||":3730,"AEK":3731,"AEN":3732,"ĠOAC":3733,"ĠOOCH":3734,"....\\":3735,"226":3736,"227":3737,"Ġ152":3738,"Ġ154":3739,"Ġbcy":3740,"Ġ141":3741,"DCK":3742,"ĠACK":3743,"Ġ2500":3744,"306":3745,"3030":3746,"MBH":3747,"CBr":3748,"602":3749,"Ġ2450":3750,"OCI":3751,"Ġsinxcos":3752,"OBI":3753,"ĠDG":3754,"ĠDAC":3755,"ĠDEC":3756,"238":3757,"ĠSn":3758,"}})}{\\":3759,"BAP":3760,"BAy":3761,"BHF":3762,"Ġpu":3763,"05000":3764,"ĠPE":3765,"ĠPN":3766,"502":3767,"the":3768,"thi":3769,"thng":3770,"ptC":3771,"4025":3772,"ĠEO":3773,"ĠEAH":3774,"ĠEIB":3775,"ĠEBI":3776,"ĠII":3777,"BEK":3778,"BMK":3779,"ĠKQ":3780,"ĠKHCO":3781,"ANE":3782,"455":3783,"3333":3784,"AIH":3785,"bigcap":3786,"Ġ401":3787,"Ġ4044":3788,"Ġ1930":3789,"DEI":3790,"DEM":3791,"Ġ4500":3792,"5678":3793,"}^{-}.":3794,"}^{-},\\":3795,"Ġ-}:":3796,"AFB":3797,"294":3798,"Ġ289":3799,"ICE":3800,"ICM":3801,"MIH":3802,"MDO":3803,"EFGH":3804,")^{-},(":3805,"nOz":3806,"ODM":3807,"aphng":3808,"ĠBDM":3809,"hoac":3810,"BKH":3811,"BKI":3812,"Ġ6400":3813,"378":3814,"EBO":3815,"EDM":3816,"cotC":3817,"MHF":3818,"ĠGH":3819,"ĠABCvung":3820,"}/\\":3821,"555":3822,"5555":3823,"20000":3824,"395":3825,"AGC":3826,"AGE":3827,"chu":3828,"chnh":3829,"546":3830,"Ġen":3831,"itip":3832,"888":3833,"889":3834,"}-(":3835,"MOP":3836,"ĠDCA":3837,"HDF":3838,"782":3839,"Ġ392":3840,"ĠAFD":3841,"MFD":3842,"MFO":3843,"IEH":3844,"'''":3845,"})^{-}}":3846,"})^{-},(":3847,"Ġuv":3848,"Ġ1990":3849,"ĠCOOK":3850,"999995":3851,"maxf":3852,"cnht":3853,"00000000":3854,"ĠNaClO":3855,"ĠCosx":3856,"saocho":3857,"EGF":3858,"................................":3859,"HND":3860,"cbt":3861,"ĠLys":3862,"ĠPbS":3863,"OQN":3864,"Ġ123456":3865,"aaa":3866,"202202":3867,"Ġ................":3868,"222222":3869,"ĠCaOCl":3870,"enzim":3871,"OOCH":3872,"cozo":3873,"phanung":3874,"3154":3875,"glucose":3876,"},...,":3877,"Axit":3878,"biuthc":3879,"mgia":3880,"Ġ3992":3881,"};...;\\":3882,"andau":3883,"dOb":3884,"thamn":3885,"})//(":3886,"cntiA":3887,"ĠBCNN":3888,"minoaxit":3889,"dvC":3890,"16289296":3891,"âĢĻ}":3892,"frown":3893,"omega":3894,"1234321":3895,"5678765":3896,"aphngic":3897,"(@":3898,"(^{":3899,")}}}":3900,")}})":3901,")}):\\":3902,")}^{-}}":3903,")}):(\\":3904,"020":3905,"014":3906,"032":3907,"064":3908,"072":3909,"1101":3910,"1102":3911,"218":3912,"380":3913,"405":3914,"572":3915,"5000":3916,"576":3917,"725":3918,"723":3919,"728":3920,"780":3921,"824":3922,"827":3923,"872":3924,"8052":3925,"902":3926,"972":3927,"9375":3928,"ANO":3929,"ANH":3930,"ASB":3931,"Aminoaxit":3932,"Bi":3933,"BPC":3934,"CR":3935,"Co":3936,"CIA":3937,"Cho":3938,"CPD":3939,"DCO":3940,"EOC":3941,"EBI":3942,"EOI":3943,"EKA":3944,"FAM":3945,"FBD":3946,"FIA":3947,"FCN":3948,"FOy":3949,"FDH":3950,"HDB":3951,"HEC":3952,"HEF":3953,"HDA":3954,"It":3955,"INH":3956,"IDB":3957,"IOE":3958,"JAI":3959,"KO":3960,"Kl":3961,"KCH":3962,"KCO":3963,"KAH":3964,"KAl":3965,"KBH":3966,"KAN":3967,"KBr":3968,"KEB":3969,"KCI":3970,"Khi":3971,"KMn":3972,"LA":3973,"LK":3974,"LM":3975,"Lic":3976,"Mx":3977,"NJ":3978,"NR":3979,"NNa":3980,"NAM":3981,"NCD":3982,"NAK":3983,"NMK":3984,"NMP":3985,"NMF":3986,"NKC":3987,"OCl":3988,"OMB":3989,"OMC":3990,"OEF":3991,"OEA":3992,"OKH":3993,"PBC":3994,"PAO":3995,"PCM":3996,"PCN":3997,"PAQ":3998,"QD":3999,"QOP":4000,"RM":4001,"Rb":4002,"SEG":4003,"SQA":4004,"TK":4005,"TR":4006,"Tm":4007,"Tal":4008,"Tmx":4009,"Tan":4010,"TMDK":4011,"VH":4012,"VN":4013,"VO":4014,"bandau":4015,"cr":4016,"cab":4017,"dr":4018,"dy":4019,"dox":4020,"dkt":4021,"echo":4022,"hl":4023,"ix":4024,"kd":4025,"kl":4026,"la":4027,"lti":4028,"lic":4029,"mC":4030,"mp":4031,"mv":4032,"mCu":4033,"mtanx":4034,"men":4035,"mOz":4036,"mOn":4037,"mlnx":4038,"nF":4039,"nCB":4040,"ozo":4041,"pdng":4042,"sac":4043,"sAM":4044,"sigma":4045,"snguy":4046,"to":4047,"trc":4048,"tnc":4049,"vn":4050,"vt":4051,"war":4052,"xk":4053,"xAM":4054,"xOx":4055,"ya":4056,"yk":4057,"yAB":4058,"yBC":4059,"yAE":4060,"yOC":4061,"yOy":4062,"ycbt":4063,"{}{":4064,"{....":4065,"|}.":4066,"|;\\":4067,"|}{(":4068,"}+":4069,"Ġ)(":4070,"Ġphan":4071,"Ġ+}{":4072,"Ġ+})":4073,"^{^{+":4074,"Ġ-}{":4075,"Ġ-_{":4076,"Ġ-}}{":4077,"Ġ-}}\\":4078,"}{^{":4079,"igc":4080,"Ġ113":4081,"Ġ222":4082,"Ġ233":4083,"Ġ298":4084,"Ġ231":4085,"}}}|":4086,"}}}}.\\":4087,"}}}).(":4088,"}}|.|\\":4089,"}}.....\\":4090,"Ġ343":4091,"Ġ341":4092,"Ġ384":4093,"Ġ()":4094,"Ġ(..":4095,"Ġ(((":4096,"ĠxM":4097,"Ġxa":4098,"})}.":4099,"})})^{":4100,"})}}{\\":4101,"Ġ432":4102,"Ġ4000":4103,"Ġ40000":4104,"def":4105,"Ġbb":4106,"Ġbm":4107,"Ġbt":4108,"ĠbHNO":4109,")^{(":4110,"Ġ529":4111,"Ġ5000":4112,")(|":4113,"ĠmN":4114,"ĠmCl":4115,"Ġmoi":4116,"Ġmcac":4117,"102000":4118,"1094":4119,"Ġ651":4120,"}\\%":4121,"}.|\\":4122,"CON":4123,"otha":4124,"tang":4125,"tamg":4126,"Ġ721":4127,"Ġ705":4128,"Ġ736":4129,"Ġ789":4130,"ĠnA":4131,"ĠnB":4132,"Ġnb":4133,"Ġnp":4134,"ĠnOH":4135,"ĠnFe":4136,"}^{}":4137,"abb":4138,"{({\\":4139,"BCT":4140,"ĠAL":4141,"ĠAu":4142,"ĠAOE":4143,"ĠAKH":4144,"Ġzc":4145,"Ġzt":4146,"124":4147,"ĠCAK":4148,"ĠCAO":4149,"ĠCEB":4150,"ĠCMH":4151,"FexOy":4152,"1540":4153,"1501":4154,"ĠHBC":4155,"ĠHCA":4156,"ĠHFE":4157,"rceil":4158,"Ġ...)":4159,"Ġtb":4160,"NOB":4161,"NOC":4162,"NaOOC":4163,"ĠBT":4164,"ĠBx":4165,"ĠBAH":4166,"ĠBDA":4167,"ĠBED":4168,"ĠBKC":4169,"ĠBFE":4170,"ADG":4171,"ADP":4172,"ADHE":4173,"183":4174,"ngv":4175,"252":4176,"ĠCHCOOH":4177,"ĠCHCOOCH":4178,")}{...}":4179,"Ġ1800":4180,"Ġ165":4181,"Ġ166":4182,"194":4183,"1978":4184,"1994":4185,"1987":4186,"ĠMG":4187,"ĠMY":4188,"ĠMDC":4189,"ĠMTN":4190,"AMF":4191,"AMP":4192,"NHE":4193,"NHM":4194,"AHG":4195,"cosxcos":4196,"^{+})":4197,"}|}\\":4198,"Ġdf":4199,"Ġdv":4200,"Ġdy":4201,"990":4202,"996":4203,"etic":4204,"Ġ|(":4205,"BDI":4206,"ĠABF":4207,"ĠABN":4208,"^{-}(":4209,"223":4210,"})((\\":4211,"CDH":4212,"DCN":4213,"ĠACO":4214,"Ġ258":4215,"CBK":4216,"6056":4217,"6061":4218,"6062":4219,"Ġ+}:":4220,"Ġ246":4221,"ĠDBH":4222,"Ġ6057":4223,"236":4224,"270":4225,"ĠSx":4226,"}}):(":4227,"BAu":4228,"CaHPO":4229,"ĠBCD":4230,"ĠBCE":4231,"ĠNE":4232,"Ġpa":4233,"Ġpm":4234,"MNA":4235,"ĠPA":4236,"ĠPy":4237,"ĠPAM":4238,"Ġtana":4239,"Ġtanb":4240,"ĠFeCO":4241,"353":4242,"4020":4243,"trung":4244,"trang":4245,"ĠEQ":4246,"ĠECD":4247,"ĠEDC":4248,"ĠEMC":4249,"ĠEBA":4250,"BEO":4251,"BMF":4252,"BMH":4253,"ANP":4254,"AIN":4255,"AIt":4256,"Ġ171":4257,"Ġ172":4258,"Ġ176":4259,"loiv":4260,"bbb":4261,"ĠAHK":4262,"ĠAHM":4263,"ĠAHP":4264,"Ġ4042":4265,"Ġ1980":4266,"Ġ1978":4267,"Ġ1979":4268,"0225":4269,"}.((":4270,"DEK":4271,"AKH":4272,"562":4273,"565":4274,"5656":4275,"}^{-}(":4276,"}^{-},(":4277,"ĠCOI":4278,"Ġ20038":4279,"una":4280,"AFC":4281,").(...":4282,"291":4283,"DBF":4284,"DBJ":4285,"ĠVN":4286,"269":4287,"AOK":4288,"AOQ":4289,"ĠADF":4290,"ĠADK":4291,"},(|\\":4292,"ICF":4293,"PON":4294,"Ġ503":4295,"MID":4296,"MIP":4297,"CMO":4298,"ECK":4299,"\\%_{":4300,"\\%.(":4301,"EFB":4302,"OME":4303,"OMF":4304,"}}()":4305,")^{-}.":4306,")^{-},":4307,"nOt":4308,"HBN":4309,"CNB":4310,"CNE":4311,"CNP":4312,"BKD":4313,"BKM":4314,"085":4315,"}^{-}/":4316,"ĠAMO":4317,"3737":4318,"Ġ239":4319,"CFI":4320,"EDI":4321,"MHA":4322,"ĠCDO":4323,"ddB":4324,"ĠBaO":4325,"IME":4326,"IMK":4327,"ĠAEH":4328,"ĠAEI":4329,"ĠAEM":4330,"chi":4331,"chwar":4332,"Ġqp":4333,"DHE":4334,"DHM":4335,"DHO":4336,".............":4337,"),(\\":4338,"ĠXYZ":4339,"NCI":4340,"hocp":4341,"EAP":4342,"EAQ":4343,"462":4344,"468":4345,"MKA":4346,"882":4347,"7777":4348,"MPN":4349,"MPQ":4350,"MOE":4351,"CKA":4352,"CKB":4353,"CKD":4354,"CKH":4355,"CKM":4356,"}}}}}}":4357,"Ġ3300":4358,"KHM":4359,"DKXD":4360,"ĠANB":4361,"ĠANE":4362,"DFB":4363,"DFH":4364,"ĠMgCO":4365,"ĠMgSO":4366,"ĠAKC":4367,"Ġ3934":4368,"Ġ100000":4369,"792":4370,"IEM":4371,"IKC":4372,"'')":4373,"})^{-},\\":4374,"IND":4375,"mnp":4376,"IHM":4377,"{|}{":4378,"limf":4379,"limy":4380,"ĠTL":4381,"ĠTac":4382,"}};(\\":4383,"AQM":4384,"2250":4385,"Ġ387":4386,"AEFD":4387,"ĠCosA":4388,"ĠABDv":4389,"Glyxin":4390,"HgCl":4391,"Ġmaxf":4392,"ASQ":4393,"CTPT":4394,"ĠUCLN":4395,"ĠLHS":4396,"vix":4397,"ĠptC":4398,"ĠPbSO":4399,"Ġ8537":4400,"sdAB":4401,"|.|":4402,"TNN":4403,")!^{":4404,"cua":4405,"gipm":4406,"giam":4407,"{...}":4408,"lunu":4409,"xCn":4410,"},...,\\":4411,"arccos":4412,"phngic":4413,"phngtrnh":4414,"Ġ3990":4415,"////////":4416,";...;":4417,"AJI":4418,"acbon":4419,"???":4420,"dOa":4421,"thamgia":4422,"Ġsqrtx":4423,"chatthamgia":4424,"OCOC":4425,"but":4426,"hbh":4427,"Ġ2268":4428,"thucZ":4429,"Anken":4430,"etanol":4431,"ytago":4432,"}//\\":4433,"91919":4434,"gctngng":4435,"thnghng":4436,"chuvi":4437,"cnhtngng":4438,"PCNV":4439,"SEGCD":4440,"dktc":4441,"snguynt":4442,"tncngl":4443,"Ġmcacchatthamgia":4444,"tamgic":4445,"chwarz":4446,"!(":4447,"(..":4448,"(|\\":4449,")})^{":4450,")},\\":4451,")})\\":4452,")}},\\":4453,")},(\\":4454,",|":4455,",}\\":4456,".{\\":4457,"097":4458,"1100":4459,"213":4460,"214":4461,"3200":4462,"330":4463,"332":4464,"3125":4465,"388":4466,"460":4467,"423":4468,"464":4469,"517":4470,"599":4471,"545":4472,"533":4473,"528":4474,"570":4475,"597":4476,"614":4477,"623":4478,"639":4479,"678":4480,"679":4481,"692":4482,"705":4483,"784":4484,"836":4485,"8376":4486,"915":4487,"960":4488,"935":4489,"980":4490,"970":4491,"=}\\":4492,"ASO":4493,"Anot":4494,"CU":4495,"CX":4496,"Cm":4497,"CNH":4498,"CMI":4499,"DU":4500,"Do":4501,"DMN":4502,"DMI":4503,"DOy":4504,"DON":4505,"DNC":4506,"DOI":4507,"DKH":4508,"DIK":4509,"Dat":4510,"EP":4511,"EY":4512,"EOA":4513,"EOM":4514,"EBK":4515,"EID":4516,"EHD":4517,"EKC":4518,"ENM":4519,"FQ":4520,"FAC":4521,"FAH":4522,"FOB":4523,"FCM":4524,"FCE":4525,"FDM":4526,"FEA":4527,"FCI":4528,"FHE":4529,"FKE":4530,"GR":4531,"GAE":4532,"GBH":4533,"HH":4534,"HJ":4535,"HL":4536,"HCD":4537,"HOB":4538,"HAI":4539,"HIC":4540,"HEB":4541,"HID":4542,"HDM":4543,"HEA":4544,"HNA":4545,"IOH":4546,"IAH":4547,"ICD":4548,"IOC":4549,"IOA":4550,"IBE":4551,"IDE":4552,"IAF":4553,"IEF":4554,"IEB":4555,"IKH":4556,"IFE":4557,"IOK":4558,"JP":4559,"JQ":4560,"JCI":4561,"KJ":4562,"KK":4563,"KV":4564,"KAM":4565,"KMA":4566,"KAI":4567,"KDB":4568,"KMI":4569,"KMD":4570,"KOM":4571,"KDA":4572,"KHB":4573,"KCF":4574,"KIM":4575,"KEA":4576,"KME":4577,"KTM":4578,"LC":4579,"LQ":4580,"LHS":4581,"Log":4582,"MV":4583,"Mol":4584,"MNO":4585,"NAO":4586,"NBO":4587,"NAP":4588,"NKD":4589,"OJ":4590,"OX":4591,"OEB":4592,"OIM":4593,"OPQ":4594,"OKI":4595,"PU":4596,"PCD":4597,"PBM":4598,"PMI":4599,"PIM":4600,"PNC":4601,"PDM":4602,"QNM":4603,"QAS":4604,"RC":4605,"RK":4606,"RN":4607,"Ra":4608,"Rn":4609,"RHCO":4610,"RCHO":4611,"Sr":4612,"SBC":4613,"Sabc":4614,"SBN":4615,"SHS":4616,"TO":4617,"TPT":4618,"UO":4619,"USER":4620,"XF":4621,"ZT":4622,"\\})":4623,"aM":4624,"asin":4625,"br":4626,"bt":4627,"bmol":4628,"cp":4629,"cz":4630,"cox":4631,"cnh":4632,"cAa":4633,"dH":4634,"da":4635,"dc":4636,"dac":4637,"dcba":4638,"eg":4639,"gn":4640,"gic":4641,"hq":4642,"hs":4643,"hch":4644,"hcn":4645,"ich":4646,"let":4647,"land":4648,"mX":4649,"mk":4650,"mq":4651,"mFe":4652,"mOt":4653,"mct":4654,"mic":4655,"nP":4656,"no":4657,"nta":4658,"nNH":4659,"nAg":4660,"pC":4661,"pOH":4662,"ri":4663,"rp":4664,"ran":4665,"sO":4666,"sAB":4667,"sol":4668,"sBD":4669,"song":4670,"sAN":4671,"spu":4672,"ste":4673,"td":4674,"tpg":4675,"uN":4676,"vB":4677,"vin":4678,"vxy":4679,"via":4680,"xN":4681,"xv":4682,"xCB":4683,"xOC":4684,"xpt":4685,"xOM":4686,"yb":4687,"ye":4688,"yt":4689,"yOD":4690,"{?":4691,"{}(":4692,"{{(":4693,"|,":4694,"|)\\":4695,"|};":4696,"Ġ*":4697,"Ġ:":4698,"ĠW":4699,"Ġfrac":4700,"Ġwidehat":4701,"Ġ}}{":4702,"Ġoverset":4703,"Ġsu":4704,"Ġex":4705,"Ġhoc":4706,"Ġ''":4707,"Ġhay":4708,"Ġoxit":4709,"Ġlnx":4710,"Ġ+_{":4711,"Ġ+}}}}":4712,"Ġ=^{\\":4713,"acd":4714,"acy":4715,"Ġ1200":4716,"_{_{":4717,"Ġ215":4718,"Ġ2100":4719,"Ġ230":4720,"Ġ22018":4721,"Ġ264":4722,"Ġ296":4723,"}}).":4724,"}})}{(":4725,"}}}.(\\":4726,"}}|}{\\":4727,"}}:(\\":4728,"Ġ336":4729,"Ġ335":4730,"Ġ396":4731,"Ġ3125":4732,"Ġ395":4733,"Ġ30000":4734,"Ġ3240":4735,"Ġ(...)":4736,"ĠxN":4737,"ĠxR":4738,"Ġxm":4739,"ĠxNO":4740,"ĠxHCl":4741,"ĠxFeO":4742,"Ġ01":4743,"})/":4744,"})}^{":4745,"})...":4746,"})/\\":4747,"})....(":4748,"hai":4749,"han":4750,"haigc":4751,"Ġ499":4752,"Ġ405":4753,"Ġ480":4754,"Ġ4455":4755,"denta":4756,"Ġbtanx":4757,")^{{":4758,"ĠyA":4759,"Ġyb":4760,"Ġyc":4761,"Ġyd":4762,"Ġyk":4763,"Ġcc":4764,"Ġaa":4765,"Ġaf":4766,"Ġaxy":4767,"Ġamin":4768,"Ġamino":4769,"Ġ513":4770,"Ġ519":4771,"Ġ524":4772,"Ġ560":4773,"Ġ588":4774,"Ġ577":4775,"Ġ576":4776,")(*)":4777,"ĠmO":4778,"Ġmd":4779,"Ġmq":4780,"ABb":4781,"ABDC":4782,"osnh":4783,"sinBAK":4784,"1020":4785,"205":4786,"206":4787,"2024":4788,"2035":4789,"Ġ612":4790,"Ġ6000":4791,"Ġ670":4792,"Ġ685":4793,"Ġ666":4794,"CHCOOCH":4795,"Ġ931":4796,"Ġ972":4797,"Ġ995":4798,"}.{\\":4799,"COH":4800,"COy":4801,"OHN":4802,"otac":4803,"Ġ8052":4804,"taotha":4805,"Ġ702":4806,"Ġ796":4807,"ĠnZ":4808,"Ġna":4809,"Ġnm":4810,"ĠnCH":4811,"ĠnNaOH":4812,"ĠnBa":4813,"}^{(":4814,"{(}\\":4815,"},{":4816,"Ġ109":4817,"Ġ1005":4818,"Ġ(\\%)":4819,"ĠAT":4820,"ĠAm":4821,"ĠANO":4822,"ĠAOC":4823,"ĠAMD":4824,"ĠAIM":4825,"ĠAON":4826,"ĠAID":4827,"ĠANC":4828,"ĠAPD":4829,"ĠAPB":4830,"ĠATL":4831,"1296":4832,"12496":4833,"Ġ204":4834,"Ġ2023":4835,"Ġ2050":4836,"Ġ2029":4837,"Ġ2026":4838,"Ġcosb":4839,"Ġcost":4840,"{-}\\":4841,"ĠCn":4842,"ĠCot":4843,"ĠCBE":4844,"ĠCAI":4845,"ĠCDE":4846,"ĠCMI":4847,"ĠCBK":4848,"ĠCID":4849,"ĠCME":4850,"ĠCNA":4851,"molCO":4852,"154":4853,"157":4854,"1560":4855,"1616":4856,"1680":4857,"ĠHb":4858,"ĠHMB":4859,"ĠHMC":4860,"Ġsinb":4861,"Ġsinh":4862,"Ġtga":4863,"NOA":4864,"NOP":4865,"Ġ1250":4866,"]{}":4867,"10001":4868,"NaX":4869,"NaCO":4870,"NaHS":4871,"ĠBsin":4872,"ĠBAE":4873,"ĠBEF":4874,"ĠBOD":4875,"ĠBNC":4876,"ĠBMK":4877,"ĠBFD":4878,"ADJ":4879,"188":4880,"1890":4881,"ngy":4882,"254":4883,"259":4884,"0001":4885,"00125":4886,"139":4887,"ĠCHB":4888,"ĠCHCOO":4889,"ĠCHCOONa":4890,")}{{":4891,"Ġ184":4892,"Ġ185":4893,"Ġ18000":4894,"1988":4895,"1984":4896,"1979":4897,"ĠMCO":4898,"ĠMAH":4899,"ĠMOB":4900,"ĠMBA":4901,"ĠMOA":4902,"ĠMAN":4903,"ĠMAK":4904,"ĠMDA":4905,"ĠMBK":4906,"ĠMBF":4907,"ĠMNC":4908,"ĠMEA":4909,"ĠMIN":4910,"Ġkc":4911,"Ġkhng":4912,"AHED":4913,"Ġabd":4914,"172":4915,"173":4916,"174":4917,"179":4918,"1717":4919,"^{+}}(":4920,"997":4921,"998":4922,"BDO":4923,"BDT":4924,"AEG":4925,"AEDF":4926,"ĠOG":4927,"ĠOn":4928,"ĠOCH":4929,"ĠOBC":4930,"ĠOAM":4931,"ĠOCB":4932,"ĠOMA":4933,"ĠOBH":4934,"ĠOIK":4935,"ĠABG":4936,"ĠABP":4937,"....)":4938,"^{-}(\\":4939,"^{-}:":4940,"Ġ155":4941,"Ġ158":4942,"Ġbcz":4943,"Ġ148":4944,"Ġ1400":4945,"244":4946,"246":4947,"ĠACF":4948,"COOHCl":4949,"Ġ253":4950,"Ġcosxcos":4951,"303":4952,"304":4953,"3010":4954,"3025":4955,"CBx":4956,"CBz":4957,"Ġ134":4958,"609":4959,"MAF":4960,"MAx":4961,"Ġ245":4962,"Ġ2401":4963,"755":4964,"OCE":4965,"ĠDD":4966,"ĠDT":4967,"ĠDBC":4968,"ĠDAM":4969,"ĠDMB":4970,"ĠDMA":4971,"ĠDIC":4972,"ĠDEF":4973,"ĠDMH":4974,"ĠDHA":4975,"Ġ6049":4976,"234":4977,"2320":4978,"2345":4979,"278":4980,"ĠSB":4981,"ĠSchwarz":4982,"}});(\\":4983,"BAQ":4984,"BHI":4985,"ĠBCA":4986,"ĠBCF":4987,"ĠBCM":4988,"ĠNL":4989,"Ġpk":4990,"Ġps":4991,"CAP":4992,"ĠPF":4993,"ĠPCM":4994,"367":4995,"Ġgo":4996,"tho":4997,"thu":4998,"thphngtrnh":4999,"403":5000,"4018":5001,"4022":5002,"4036":5003,"4037":5004,"40723":5005,"tro":5006,"326":5007,"3212496":5008,"ĠEAC":5009,"ĠEBC":5010,"ĠEAD":5011,"ĠEOB":5012,"ĠECA":5013,"ĠEDB":5014,"ĠEIC":5015,"OAK":5016,"ĠIBC":5017,"ĠIMB":5018,"ĠICB":5019,"ĠIBA":5020,"ĠIEB":5021,"AgX":5022,"Ġ1004":5023,"BEI":5024,"BMQ":5025,"ĠKK":5026,"ĠKr":5027,"ĠKAB":5028,"ĠKAC":5029,"ĠKHC":5030,"ĠKEB":5031,"ĠKClO":5032,"ANF":5033,"ANK":5034,"3360":5035,"281":5036,"285":5037,"Ġ173":5038,"HCK":5039,"HCL":5040,"bigcup":5041,"ĠAHI":5042,"^{+}:\\":5043,"Ġ4016":5044,"Ġ4024":5045,"Ġ4040":5046,"Ġ4034":5047,"Ġ197":5048,"Ġ1975":5049,"Ġ1939":5050,"Ġ1981":5051,"}}{({":5052,"ZnS":5053,"Ġ.......\\":5054,"AKN":5055,"642":5056,"6429":5057,"561":5058,"}^{-})":5059,"}^{-}:":5060,"}^{-},(\\":5061,"Ġacz":5062,"ĠCOE":5063,"Ġ-}/":5064,"AFO":5065,"447":5066,"2983":5067,"DBG":5068,"DBN":5069,"DBO":5070,"IBK":5071,"IAO":5072,"267":5073,"yzt":5074,"807":5075,"8079":5076,"AOP":5077,"AOm":5078,"AOx":5079,"Ġ286":5080,"4913":5081,"POK":5082,"Ġ507":5083,"Ġ501501":5084,"Ġaxetic":5085,"CMF":5086,"037":5087,"CEO":5088,"ECI":5089,"\\%)":5090,"651":5091,"653":5092,"6528":5093,"ĠBHD":5094,"ĠBHE":5095,"DAx":5096,"ĠFK":5097,")^{-},\\":5098,")^{-};(":5099,"Ġcota":5100,"ODI":5101,"ĠNaBr":5102,"ĠNaOOC":5103,"Ġ352":5104,"Ġ355":5105,"HBI":5106,"0625":5107,"966":5108,"CNF":5109,"hoa":5110,"BKA":5111,"084":5112,"Ġ..{.":5113,"ĠAMK":5114,"Ġ2345":5115,"CFB":5116,"CFK":5117,"EDO":5118,"cota":5119,"Ġ261":5120,"MHK":5121,"ĠCDF":5122,"ĠGJ":5123,"ĠGlu":5124,"ddA":5125,"ddNaOH":5126,"ddKMnO":5127,"ĠABCcntiA":5128,"200000":5129,"BND":5130,"Ġ495":5131,"AGM":5132,"BFA":5133,"BFH":5134,"Ġqa":5135,"DHI":5136,"ONB":5137,"ONF":5138,"ONM":5139,"ONP":5140,"..........":5141,"ĠXCl":5142,"}^{+})":5143,"IDM":5144,"IDN":5145,"HOK":5146,"hocc":5147,"hocbng":5148,"{+}\\":5149,"DMK":5150,"9595":5151,"MKC":5152,"MKD":5153,"MKI":5154,"MKN":5155,"MKP":5156,"ĠeH":5157,"itrc":5158,"ĠHCK":5159,"BTC":5160,"BTe":5161,"ĠBEI":5162,"ĠBEM":5163,"MEH":5164,"ĠDCE":5165,"CIE":5166,"787":5167,"ĠQD":5168,"ĠQF":5169,"ĠQN":5170,"OEN":5171,"DNE":5172,"HFJ":5173,"PTHH":5174,"HAQ":5175,"BOF":5176,"BOS":5177,"ĠAIK":5178,"APC":5179,"APQ":5180,"5741":5181,"ĠAKF":5182,"ĠAFE":5183,"MFA":5184,"Ġra":5185,"386":5186,"IEO":5187,"SiF":5188,"IKA":5189,"IKM":5190,"PbO":5191,"PbS":5192,"PbSO":5193,"''\\":5194,"''}{":5195,"4005":5196,"lnnht":5197,"lnhn":5198,"hia":5199,"hidr":5200,"ĠCKB":5201,"}*(\\":5202,"})^{-}.":5203,"INB":5204,"hhuy":5205,"hhsau":5206,"ĠsBC":5207,"ĠsBD":5208,"ĠsCD":5209,"ĠsBM":5210,"ĠsAN":5211,"Ġ1991":5212,")^{+}.":5213,")^{+},":5214,")^{+},\\":5215,")^{+}/":5216,"ĠTan":5217,"FEI":5218,"6726":5219,"6748":5220,"ĠCOOR":5221,"99999":5222,"CosA":5223,"CosC":5224,"HKM":5225,"sinBsinC":5226,"EMQ":5227,")|)":5228,")|))":5229,"NTMg":5230,"cnli":5231,"000000":5232,"ĠCosB":5233,"MQC":5234,"bazo":5235,"Ġgnk":5236,"EIO":5237,"sai":5238,"saup":5239,"tgC":5240,"tga":5241,"})^{+}}":5242,"})^{+},":5243,"HgSO":5244,"12345":5245,"amino":5246,"metan":5247,"ĠUSER":5248,"ĠSinx":5249,"QPy":5250,"Ġ??":5251,"Ġ57120":5252,"Ġ11111":5253,"}},...":5254,"abcdeg":5255,"ktm":5256,"ĠHOCH":5257,"ĠSiO":5258,"LiOH":5259,"cui":5260,"tmdk":5261,"cungAM":5262,"acosx":5263,"111111":5264,"glucozo":5265,"ĠJQ":5266,"ocacbon":5267,"RCOOR":5268,"OHCCH":5269,"979797":5270,"***":5271,"bitlm":5272,"cngph":5273,"Ġ399984":5274,"ĠMinA":5275,"0165":5276,"khngi":5277,"ĠABIv":5278,"TEX":5279,"Ġ450241":5280,"PVC":5281,"Ġthuc":5282,"ĠMaxP":5283,"XOY":5284,"cOd":5285,"Ġancol":5286,"00946":5287,"444444":5288,"199819981998":5289,"vunggcvi":5290,"MeV":5291,"xoy":5292,"CHBrCH":5293,"theo":5294,"hoacx":5295,"8271":5296,"Ġdfcm":5297,"69220":5298,"970200":5299,"hchc":5300,"tpgu":5301,"taothanh":5302,"Ġ2029105":5303,"161699":5304,"4072323":5305,"lnhnhocbng":5306,"hidrocacbon":5307,"hhuyn":5308,"!)":5309,"!)(":5310,"!.(\\":5311,"!)...(":5312,"(*\\":5313,"){":5314,"))(":5315,"))_{":5316,")|\\":5317,")})}":5318,"))}{(":5319,")}}^{":5320,")....(":5321,"*|":5322,"*}":5323,"*^{":5324,"*(\\":5325,",,":5326,",{":5327,",}":5328,",^{":5329,",..":5330,",...)":5331,".)":5332,".}{":5333,"010":5334,"018":5335,"019":5336,"060":5337,"036":5338,"040":5339,"028":5340,"077":5341,"076":5342,"0192":5343,"01875":5344,"212":5345,"219":5346,"2200":5347,"230":5348,"264":5349,"21212":5350,"310":5351,"312":5352,"318":5353,"317":5354,"340":5355,"345":5356,"348":5357,"31313":5358,"419":5359,"414":5360,"424":5361,"432":5362,"445":5363,"428":5364,"480":5365,"465":5366,"472":5367,"434":5368,"470":5369,"4999":5370,"4183":5371,"510":5372,"515":5373,"522":5374,"530":5375,"560":5376,"535":5377,"544":5378,"529":5379,"531":5380,"534":5381,"539":5382,"578":5383,"5333":5384,"612":5385,"615":5386,"660":5387,"632":5388,"645":5389,"626":5390,"665":5391,"696":5392,"6000":5393,"677":5394,"60000":5395,"718":5396,"719":5397,"714":5398,"724":5399,"704":5400,"790":5401,"7273":5402,"7224":5403,"810":5404,"899":5405,"805":5406,"856":5407,"8125":5408,"842":5409,"895":5410,"863":5411,"868":5412,"920":5413,"925":5414,"929":5415,"931":5416,"943":5417,":^{":5418,"AV":5419,"AZ":5420,"Am":5421,"Acos":5422,"APO":5423,"Anh":5424,"ARQ":5425,"BR":5426,"BY":5427,"BZ":5428,"Bq":5429,"Bu":5430,"Bx":5431,"BSO":5432,"BOB":5433,"BBT":5434,"BPD":5435,"BSM":5436,"Benzen":5437,"Cx":5438,"Cy":5439,"Crac":5440,"Cha":5441,"CCH":5442,"CSi":5443,"CPA":5444,"CPB":5445,"Cnx":5446,"DD":5447,"Dp":5448,"DIE":5449,"DIN":5450,"DOz":5451,"DGM":5452,"DPA":5453,"EX":5454,"ECO":5455,"EOH":5456,"ENH":5457,"EMH":5458,"EIM":5459,"EAG":5460,"EHO":5461,"EMK":5462,"EMP":5463,"EMO":5464,"EHA":5465,"EIN":5466,"ENA":5467,"EOx":5468,"EKD":5469,"EQC":5470,"EQM":5471,"Este":5472,"FJ":5473,"FOH":5474,"FCA":5475,"FOA":5476,"FBM":5477,"FAN":5478,"FHC":5479,"FAO":5480,"FIC":5481,"FMD":5482,"FHB":5483,"FNC":5484,"FME":5485,"FIE":5486,"FAS":5487,"FKM":5488,"FQA":5489,"GL":5490,"GAD":5491,"GCD":5492,"GOC":5493,"GBM":5494,"GHB":5495,"GBI":5496,"GFD":5497,"GPN":5498,"GTNN":5499,"HCH":5500,"HAO":5501,"HIM":5502,"HMF":5503,"HIK":5504,"HMG":5505,"HGF":5506,"IV":5507,"ICO":5508,"IMB":5509,"IOM":5510,"IHE":5511,"Ion":5512,"JM":5513,"JBC":5514,"JMI":5515,"JIM":5516,"KQ":5517,"Kp":5518,"KOB":5519,"KMN":5520,"KOA":5521,"KBE":5522,"KIB":5523,"KIC":5524,"KCr":5525,"KCN":5526,"KBI":5527,"KMH":5528,"KBN":5529,"KDM":5530,"KHD":5531,"KFD":5532,"KXD":5533,"KTMDK":5534,"LD":5535,"LG":5536,"LP":5537,"ML":5538,"Mb":5539,"MAl":5540,"MCu":5541,"MMg":5542,"MIC":5543,"NV":5544,"Ne":5545,"Nq":5546,"NBE":5547,"NDE":5548,"NDB":5549,"NCE":5550,"NEF":5551,"NID":5552,"NEA":5553,"NEH":5554,"NFH":5555,"NEO":5556,"NFI":5557,"NFM":5558,"NClCH":5559,"NLA":5560,"OR":5561,"ONH":5562,"OAH":5563,"ODE":5564,"Oyz":5565,"OMI":5566,"OMD":5567,"Oxz":5568,"OKB":5569,"OSM":5570,"OLB":5571,"PX":5572,"Pa":5573,"Po":5574,"Px":5575,"POH":5576,"PAE":5577,"PMA":5578,"POB":5579,"PAI":5580,"PMD":5581,"PBK":5582,"PHO":5583,"PNM":5584,"PEM":5585,"PEO":5586,"PKF":5587,"PJB":5588,"Poli":5589,"Pytago":5590,"QH":5591,"QT":5592,"QAD":5593,"QAE":5594,"QBA":5595,"QCA":5596,"QON":5597,"QDM":5598,"QCK":5599,"QEM":5600,"QOK":5601,"QUO":5602,"RJ":5603,"RP":5604,"Rr":5605,"RSO":5606,"RCOOCH":5607,"RsinB":5608,"RsinC":5609,"SP":5610,"SQ":5611,"ST":5612,"So":5613,"Sac":5614,"SCD":5615,"SEF":5616,"SCN":5617,"SHF":5618,"SABE":5619,"SFA":5620,"SADHE":5621,"Stamgic":5622,"Sosnh":5623,"TA":5624,"TD":5625,"TF":5626,"TT":5627,"TZ":5628,"TBC":5629,"Tng":5630,"TNM":5631,"TPA":5632,"Thay":5633,"TQA":5634,"UCT":5635,"VI":5636,"VNH":5637,"Vdd":5638,"VID":5639,"VIN":5640,"VNI":5641,"Xx":5642,"XON":5643,"XME":5644,"XEM":5645,"Yx":5646,"YCl":5647,"ZX":5648,"[]{(":5649,"aA":5650,"aq":5651,"aCO":5652,"aFe":5653,"amol":5654,"aCuFeS":5655,"aNq":5656,"bin":5657,"bpt":5658,"bnh":5659,"bnt":5660,"boc":5661,"cs":5662,"cht":5663,"cin":5664,"ctan":5665,"clo":5666,"cch":5667,"cgt":5668,"cnghim":5669,"ckhc":5670,"dB":5671,"dn":5672,"dung":5673,"diu":5674,"dich":5675,"er":5676,"eCl":5677,"fmin":5678,"gim":5679,"gcn":5680,"gia":5681,"goxit":5682,"gli":5683,"gitrc":5684,"hd":5685,"hr":5686,"hing":5687,"iz":5688,"ilin":5689,"ien":5690,"jup":5691,"kA":5692,"kB":5693,"kJ":5694,"kn":5695,"kp":5696,"kq":5697,"kz":5698,"kin":5699,"kot":5700,"kvs":5701,"king":5702,"lk":5703,"ltrung":5704,"lphngic":5705,"mB":5706,"mK":5707,"mM":5708,"mR":5709,"mb":5710,"md":5711,"mcos":5712,"mCl":5713,"met":5714,"mAl":5715,"mOx":5716,"mHg":5717,"mMin":5718,"mon":5719,"nA":5720,"nM":5721,"nS":5722,"nY":5723,"nq":5724,"nv":5725,"nong":5726,"nMg":5727,"nZn":5728,"nPb":5729,"nHOOC":5730,"nRT":5731,"nhiu":5732,"oo":5733,"ou":5734,"oz":5735,"oca":5736,"oon":5737,"pb":5738,"pd":5739,"pk":5740,"pol":5741,"pchat":5742,"pKa":5743,"pytago":5744,"qc":5745,"qp":5746,"qy":5747,"rax":5748,"ric":5749,"ruc":5750,"ss":5751,"sAC":5752,"sBC":5753,"sole":5754,"scui":5755,"tO":5756,"tp":5757,"tOm":5758,"um":5759,"uoc":5760,"vA":5761,"vS":5762,"vo":5763,"vp":5764,"vab":5765,"vol":5766,"vcngph":5767,"xR":5768,"xS":5769,"xd":5770,"xp":5771,"xq":5772,"xCH":5773,"xab":5774,"xAE":5775,"xBH":5776,"xDB":5777,"xCos":5778,"xlnx":5779,"xer":5780,"yc":5781,"yd":5782,"ym":5783,"yAC":5784,"yOP":5785,"yAx":5786,"zk":5787,"zOx":5788,"zOn":5789,"{)}":5790,"{.......":5791,"{=}\\":5792,"|},":5793,"}*)":5794,"}........................":5795,"}////////":5796,"âĤ":5797,"âĬ":5798,"âĶ":5799,"ï¼":5800,"Ġ^{":5801,"Ġ}{":5802,"Ġ}{\\":5803,"Ġ_{(":5804,"Ġ):":5805,"Ġ);(":5806,"ĠLN":5807,"Ġ):(":5808,"Ġhiu":5809,"Ġ+^{\\":5810,"Ġ+}}}":5811,"Ġ+}})":5812,"Ġ+};(":5813,"Ġ=_{-}^{+}":5814,"^{}}":5815,"^{...":5816,"Ġ-})":5817,"Ġ-})}":5818,"acO":5819,"racnht":5820,"}{+":5821,"Ġ1125":5822,"_{{\\":5823,"Ġ218":5824,"Ġ219":5825,"Ġ299":5826,"Ġ223":5827,"Ġ235":5828,"Ġ228":5829,"Ġ2222":5830,"rtan":5831,"}}}(":5832,"}}}.":5833,"}}}^{":5834,"}}^{+":5835,"}}})(":5836,"}}}}{(":5837,"}}^{-}":5838,"}}})^{-":5839,"}}}}{{":5840,"Ġ310":5841,"Ġ315":5842,"Ġ340":5843,"Ġ333":5844,"Ġ326":5845,"Ġ380":5846,"Ġ398":5847,"Ġ331":5848,"Ġ372":5849,"Ġ385":5850,"Ġ3456":5851,"Ġ(:":5852,"ĠxC":5853,"ĠxO":5854,"Ġxb":5855,"Ġxe":5856,"Ġxk":5857,"Ġxn":5858,"Ġxmol":5859,"ĠxNa":5860,"ĠxKHSO":5861,"})*":5862,"})}(":5863,"}))}":5864,"}))\\":5865,"}){.":5866,"})/(":5867,"})*(":5868,"})......":5869,"}).....(":5870,"hais":5871,"harp":5872,"Ġ4200":5873,"Ġ424":5874,"Ġ436":5875,"Ġ444":5876,"Ġ498":5877,"Ġ470":5878,"Ġ481":5879,"Ġ4160":5880,"Ġ4995":5881,"Ġbp":5882,"Ġbu":5883,"Ġban":5884,"Ġbsinxcosx":5885,"ĠyO":5886,"Ġyp":5887,"Ġymol":5888,"Ġycosx":5889,"ĠyOM":5890,"ĠyOt":5891,"Ġyhocx":5892,"ĠyOz":5893,"Ġck":5894,"Ġcox":5895,"Ġcbx":5896,"Ġchia":5897,"}}{^{":5898,"}}{{\\":5899,"ĠaPT":5900,"..(":5901,"..\\":5902,"Ġ520":5903,"Ġ575":5904,"Ġ528":5905,"Ġ580":5906,"Ġ570":5907,"Ġ5750":5908,"Ġ5376":5909,"Ġ55555":5910,")({":5911,")(...":5912,")(....)":5913,"ĠmA":5914,"ĠmC":5915,"Ġmz":5916,"Ġmab":5917,"ĠmFe":5918,"ĠmNO":5919,"ĠmNa":5920,"Ġmtan":5921,"ĠmAl":5922,"Ġmabc":5923,"ĠmMg":5924,"Ġmod":5925,"ĠmMgO":5926,"Ġmct":5927,"Ġmkhi":5928,"Ġmkettua":5929,"Ġmetyl":5930,"}({":5931,"}(|":5932,"ABL":5933,"ABd":5934,"ABy":5935,"ABz":5936,"ABOM":5937,"osac":5938,")_{\\":5939,"sinacos":5940,"10101":5941,"2060":5942,"2023":5943,"2050":5944,"2048":5945,"2090":5946,"2039":5947,"2077":5948,"2047":5949,"Ġ675":5950,"Ġ6300":5951,"Ġ669":5952,"Ġ6993":5953,"CHF":5954,"Ġ919":5955,"Ġ960":5956,"Ġ936":5957,"Ġ949":5958,"Ġ965":5959,"Ġ990":5960,"Ġ996":5961,"Ġ9000":5962,"Ġ992":5963,"Ġ986":5964,"Ġ90000":5965,"Ġ9889":5966,"}.|(":5967,"ACm":5968,"ACv":5969,"ACDB":5970,"rightharp":5971,"COC":5972,"COG":5973,"COS":5974,"COVID":5975,"OHE":5976,"OHK":5977,"OHM":5978,"OHQ":5979,"Ġ840":5980,"Ġ888":5981,"cosi":5982,"cosu":5983,"cosOAM":5984,"cosOAN":5985,"tao":5986,"talet":5987,"tamic":5988,"Ġ716":5989,"Ġ711":5990,"Ġ765":5991,"Ġ784":5992,"Ġnd":5993,"Ġng":5994,"Ġnn":5995,"ĠnCl":5996,"ĠnAl":5997,"ĠnCa":5998,"ĠnHCl":5999,"ĠnHO":6000,"ĠnKOH":6001,"abd":6002,"abba":6003,"{(}{":6004,"BCQ":6005,"BCm":6006,"BCn":6007,"BCDE":6008,"BCti":6009,"dotg":6010,"picosx":6011,"},..":6012,"},....":6013,"Ġ1025":6014,"Ġ1058":6015,"Ġ1089":6016,"ĠAS":6017,"ĠAs":6018,"ĠAt":6019,"ĠAv":6020,"ĠAcos":6021,"ĠANH":6022,"ĠAMI":6023,"ĠAOI":6024,"ĠAPM":6025,"1225":6026,"1275":6027,"1250":6028,"1234":6029,"xyt":6030,"Ġ203":6031,"Ġ209":6032,"Ġ2025":6033,"Ġ2048":6034,"Ġ2037":6035,"Ġ20000":6036,"Ġ2068":6037,"...;(":6038,"})_{_{":6039,"ĠCJ":6040,"ĠCd":6041,"ĠCMB":6042,"ĠCMA":6043,"ĠCBM":6044,"ĠCIB":6045,"ĠCIA":6046,"ĠCEF":6047,"ĠCBI":6048,"ĠCED":6049,"ĠCIM":6050,"ĠCBF":6051,"ĠCKH":6052,"ĠCBO":6053,"ĠCPQ":6054,"ĠCIK":6055,"ĠCFE":6056,"ĠCPD":6057,"ĠCPA":6058,"ĠCPB":6059,"ĠCTPT":6060,"FeOH":6061,"molK":6062,"molm":6063,"1520":6064,"1550":6065,"1545":6066,"1572":6067,"1577":6068,"15625":6069,"1505000":6070,"1656":6071,"16000":6072,"1666":6073,"16153":6074,"ClNH":6075,"ĠHJ":6076,"ĠHS":6077,"ĠHBD":6078,"ĠHAE":6079,"ĠHDC":6080,"ĠHPO":6081,"ĠHEC":6082,"ĠHOD":6083,"ĠHCHO":6084,"ĠHMK":6085,"ĠHNB":6086,"Ġsinc":6087,"Ġsind":6088,"SOQ":6089,"Ġ...}}":6090,"Ġ...;\\":6091,"Ġte":6092,"Ġtm":6093,"Ġtha":6094,"Ġthng":6095,"Ġtlm":6096,"NOE":6097,"NOOC":6098,"Ġ1225":6099,"Ġ1222":6100,"Ġ1231":6101,"Ġ1296":6102,"Ġ1295":6103,"Ġ12132":6104,"1196":6105,"10002":6106,"NaA":6107,"NaY":6108,"NaSiO":6109,"ĠBJ":6110,"ĠBS":6111,"ĠBb":6112,"ĠBPO":6113,"ĠBMD":6114,"ĠBIM":6115,"ĠBID":6116,"ĠBEA":6117,"ĠBME":6118,"ĠBNM":6119,"ADQ":6120,"ADBK":6121,"1825":6122,"nga":6123,"ngtr":6124,"ngtu":6125,"ngtrn":6126,"ngpb":6127,"}.\\%":6128,"258":6129,"0015":6130,"0016":6131,"0025":6132,"0004":6133,"00204":6134,"1300":6135,"1360":6136,"1333":6137,"13084":6138,"ĠCHC":6139,"ĠCHD":6140,"ĠCHE":6141,"ĠCHI":6142,"ĠCHCN":6143,"ĠCHCHO":6144,"ĠCHCOOC":6145,"Ġ183":6146,"Ġ187":6147,"Ġ161":6148,"1905":6149,"1944":6150,"1972":6151,"19800":6152,".({":6153,"ĠML":6154,"ĠMR":6155,"ĠMAC":6156,"ĠMOH":6157,"ĠMBC":6158,"ĠMAD":6159,"ĠMAE":6160,"ĠMOC":6161,"ĠMBH":6162,"ĠMCA":6163,"ĠMCN":6164,"ĠMED":6165,"ĠMBN":6166,"ĠMHO":6167,"ĠMIH":6168,"ĠMDO":6169,"NHF":6170,"1428":6171,"1431":6172,"1729":6173,"^{+}.":6174,"^{+}}}":6175,"^{+};\\":6176,"^{+})}":6177,"tanb":6178,"tany":6179,"tanz":6180,"}|;":6181,"}|)_{":6182,"}|.\\":6183,"}{((":6184,"Ġdm":6185,"Ġdab":6186,"ĠdFe":6187,"ĠdNO":6188,"Ġdau":6189,"Ġxyra":6190,"etrong":6191,"BDP":6192,"AEHF":6193,"ĠOJ":6194,"ĠOR":6195,"ĠOT":6196,"ĠONa":6197,"ĠOCD":6198,"ĠOBA":6199,"ĠOMN":6200,"ĠOIA":6201,"ĠOCN":6202,"ĠOMH":6203,"ĠOGB":6204,"ĠOCI":6205,"ĠOFC":6206,"ĠONP":6207,"ĠONM":6208,"ĠOEI":6209,"ĠOEK":6210,"ĠOQM":6211,"AlF":6212,"AlH":6213,"Alpu":6214,"ĠABCD":6215,".......\\":6216,"^{-};":6217,"^{-}}\\":6218,"221":6219,"228":6220,"Ġ153":6221,"Ġ1500":6222,"Ġ1560":6223,"Ġ1521":6224,"})({\\":6225,"nglsnguynt":6226,"Ġ1120":6227,"Ġ1112":6228,"Ġ112000":6229,"Ġbca":6230,"Ġbcc":6231,"Ġbcd":6232,"Ġfn":6233,"CuCO":6234,"Ġ142":6235,"Ġ1405":6236,"Ġ1444":6237,"2475":6238,"2401":6239,"2448":6240,"ĠACA":6241,"ĠACP":6242,"COOHH":6243,"Ġ255":6244,"Ġ2550":6245,"305":6246,"3024":6247,"MBK":6248,"MBb":6249,"ĠmolH":6250,"Ġmolm":6251,"CBt":6252,"bcyz":6253,"bcbac":6254,"Ġ131":6255,"Ġ1333":6256,"Ġ130000":6257,"601":6258,"6057":6259,"man":6260,"mant":6261,"Ġ248":6262,"OCF":6263,"OCK":6264,"MCF":6265,"MCG":6266,"MCQ":6267,"MCS":6268,"Ġsinxsin":6269,"OBE":6270,"OBF":6271,"ĠDL":6272,"ĠDAE":6273,"ĠDOC":6274,"ĠDIA":6275,"ĠDBF":6276,"ĠDHF":6277,"ĠDHK":6278,"Ġ606":6279,"Ġ6030":6280,"Ġ6060":6281,"Ġ6043":6282,"2313":6283,"2391":6284,"2369":6285,"2709":6286,"27134":6287,"ĠSD":6288,"ĠSN":6289,"ĠSt":6290,"ĠSabc":6291,"}})/":6292,"}})|":6293,"}});\\":6294,"}}),(\\":6295,"BAG":6296,"BAr":6297,"CaSiO":6298,"ĠBCK":6299,"Ġ303":6300,"Ġ304":6301,"ĠNCB":6302,"ĠNCE":6303,"ĠNDO":6304,"054":6305,"0525":6306,"0585":6307,"MNI":6308,"MNK":6309,"MNCB":6310,"ĠPS":6311,"ĠPCI":6312,"506":6313,"508":6314,"364":6315,"3611":6316,"3625":6317,"Ġgi":6318,"Ġglu":6319,"ongung":6320,"thP":6321,"thbb":6322,"thphi":6323,"thsuy":6324,"them":6325,"ptr":6326,"uparrow":6327,"ĠFeBr":6328,"355":6329,"358":6330,"3576":6331,"402":6332,"406":6333,"409":6334,"4016":6335,"4011":6336,"4021":6337,"4023":6338,"4040":6339,"4045":6340,"4031":6341,"4096":6342,"trbiuthc":6343,"truoc":6344,"328":6345,"ĠEP":6346,"ĠEMB":6347,"ĠEAI":6348,"ĠEHC":6349,"ĠEBF":6350,"ĠEID":6351,"ĠEOI":6352,"ĠEHD":6353,"ĠIS":6354,"ĠIAD":6355,"ĠIOC":6356,"ĠIBM":6357,"ĠICE":6358,"ĠIOM":6359,"ĠIBK":6360,"ĠIBN":6361,"ĠINC":6362,"ĠIEA":6363,"ĠIMO":6364,"ĠIPH":6365,"AgBr":6366,"BEQ":6367,"BEFC":6368,"BMG":6369,"BMP":6370,"ĠKR":6371,"ĠKe":6372,"ĠKCH":6373,"ĠKBD":6374,"ĠKDC":6375,"ĠKMA":6376,"ĠKMC":6377,"ĠKIC":6378,"ĠKCE":6379,"ĠKED":6380,"ĠKDH":6381,"ivigi":6382,"})}:\\":6383,"ANI":6384,"ANQ":6385,"AIF":6386,"AIQ":6387,"286":6388,"2857":6389,"28238":6390,"Ġ177":6391,"Ġ1705":6392,"Ġ1728":6393,"Ġ1729":6394,"Ġ1786":6395,"Ġ17600":6396,"HCF":6397,"HCN":6398,"lozo":6399,"Ġ365":6400,"ĠAHG":6401,"Ġ403":6402,"Ġ4025":6403,"Ġ4030":6404,"Ġ4023":6405,"Ġ4096":6406,");...;(":6407,"Ġ191":6408,"Ġ195":6409,"Ġ1986":6410,"Ġ1982":6411,"ora":6412,"orm":6413,"0265":6414,"Ġ2789":6415,"}.({\\":6416,"}.(...":6417,"DEG":6418,"DEMNH":6419,"Ġ455":6420,"Ġ459":6421,"axby":6422,"Ġ....;":6423,"Ġ....\\":6424,"Ġ............................":6425,"}}}{-":6426,"}}}{{":6427,"644":6428,"6400":6429,"568":6430,"56000":6431,"}^{-}}}":6432,"}^{-}}}{":6433,",((":6434,"Ġacc":6435,"Ġacr":6436,"ĠCOF":6437,"ĠCON":6438,"Ġ20037":6439,"Ġ-}:\\":6440,"AFI":6441,"AFK":6442,"AFM":6443,"AFN":6444,").(....":6445,"292":6446,"295":6447,"2900":6448,"simeq":6449,"IAP":6450,"2658":6451,"//\\":6452,"///\\":6453,"BrCH":6454,"AOF":6455,"AOy":6456,"ĠRCOOH":6457,"ĠRCOONa":6458,"ĠADI":6459,"ĠADJ":6460,"ĠADO":6461,"Ġ287":6462,"Ġ28561":6463,"490":6464,"4949":6465,"49755":6466,"CrSO":6467,"CrBr":6468,"MIF":6469,"ĠOHC":6470,"Ġaxeta":6471,"CMH":6472,"CMT":6473,"034":6474,"039":6475,"ĠCuCO":6476,"CEI":6477,"amu":6478,"oxi":6479,"0431":6480,"0468":6481,"0483":6482,"0115":6483,"ECN":6484,"487":6485,"4846":6486,"480000":6487,"MDF":6488,"MDN":6489,"MDP":6490,"\\%/":6491,"\\%:":6492,"\\%}^{+":6493,"6516":6494,"6524":6495,"OMG":6496,"ĠBHM":6497,"ĠBHO":6498,"DAP":6499,"DAQ":6500,"DAy":6501,"modab":6502,"ĠFN":6503,"ĠFR":6504,"ĠFBC":6505,"ĠFAD":6506,"ĠFAM":6507,"ĠFCD":6508,"ĠFDC":6509,"ĠFEC":6510,"ĠFEB":6511,"Ġcotb":6512,"ĠNaI":6513,"exan":6514,"Ġ359":6515,"Ġ3500":6516,"HBF":6517,"HBL":6518,"HBO":6519,"Ġabcx":6520,"CNA":6521,"hopchat":6522,"BKO":6523,"BKP":6524,"BKx":6525,"0826":6526,"7212":6527,"7225":6528,"BIT":6529,"3721":6530,"3741":6531,"CFE":6532,"CFN":6533,"CFO":6534,"120000":6535,"EBN":6536,"EBx":6537,"}}^{}":6538,"}}^{})":6539,")}})^{":6540,")}};\\":6541,")}}.(\\":6542,")}}|}":6543,"Ġ262":6544,"Ġ2618":6545,"MHE":6546,"ĠCDG":6547,"ĠCDN":6548,"ĠGF":6549,"ĠGI":6550,"ĠGL":6551,"ĠGTNN":6552,"ddX":6553,"ddY":6554,"ddBa":6555,"ddBr":6556,"ddAgNO":6557,"ddMgCl":6558,"ddMgSO":6559,"ddspu":6560,"CHOCH":6561,"ĠABCnn":6562,"ĠABCngdng":6563,"Ġvi":6564,"Ġvt":6565,"558":6566,"adbc":6567,"20001":6568,"BNA":6569,"BNI":6570,"BNK":6571,"ĠAEN":6572,"Ġ4950":6573,"Ġ2212":6574,"3476":6575,"392":6576,"AGB":6577,"AGF":6578,"AGH":6579,"anh":6580,"andx":6581,"BFI":6582,"BFM":6583,"BFN":6584,"chox":6585,"chgim":6586,"20092009":6587,"Ġqx":6588,"DHN":6589,"ONC":6590,"ONE":6591,"ONBr":6592,"Ġbxz":6593,"...........":6594,"............":6595,"...............":6596,"............\\":6597,"ĠXe":6598,"ĠXt":6599,"IDF":6600,"NCK":6601,"547":6602,"HONO":6603,"DMP":6604,"467":6605,"4632":6606,"4667":6607,"MKE":6608,"ĠeA":6609,"ĠeB":6610,"857":6611,"4325":6612,"OIH":6613,"779":6614,"Ġ294":6615,"Ġ2937":6616,"}-\\":6617,"MPI":6618,"MPK":6619,"MEQ":6620,"ĠDCB":6621,"ĠDCF":6622,"}}}}.":6623,"}}}}*\\":6624,"Ġ7500":6625,"CIH":6626,"CIK":6627,"HEI":6628,"HDK":6629,"662":6630,"ĠQB":6631,"ĠQP":6632,"OEI":6633,"OEM":6634,"OEQ":6635,"DNA":6636,"DNM":6637,"Ġ562":6638,"KHS":6639,"HFB":6640,"PTE":6641,"Ġ+},(\\":6642,"ĠMNP":6643,"DKE":6644,"ĠANF":6645,"HAJ":6646,"HAx":6647,"0254":6648,"BOG":6649,"BOP":6650,"BOm":6651,"BOt":6652,"BOx":6653,"ĠAIF":6654,"ĠAIT":6655,"APD":6656,"APN":6657,"DFG":6658,"DFI":6659,"ĠBMF":6660,"092":6661,"579":6662,"enlu":6663,"SAA":6664,"SAOC":6665,"ĠAKB":6666,"ĠAKE":6667,"ĠAKM":6668,"ĠAKN":6669,"Ġ3936":6670,"ĠAFC":6671,"ĠAFI":6672,"MFB":6673,"MFnt":6674,"Ġ1000000":6675,"3860":6676,"SiH":6677,"IKN":6678,"IKy":6679,"PbCl":6680,"'',":6681,"4001":6682,"4004":6683,"40000":6684,"400000":6685,"ĠZnSO":6686,"ungoc":6687,"})^{-}/":6688,"5932":6689,"5955":6690,"IHK":6691,"30000":6692,"58125":6693,"hhY":6694,"{|(":6695,"689":6696,"6875":6697,"OFD":6698,"OFE":6699,"OFK":6700,"OFM":6701,"ĠsAB":6702,"ĠsAD":6703,"ĠsCE":6704,"Ġ1993":6705,"Ġ1996":6706,"(||":6707,"lyim":6708,"ĠTG":6709,"ĠTH":6710,"ĠThe":6711,"FEx":6712,"015625":6713,"sinAsinBsinC":6714,"36081":6715,"6775":6716,"893":6717,"[]{(\\":6718,"Cosi":6719,"NBy":6720,"NPC":6721,"Ġhv":6722,"Ġ9600":6723,"puvs":6724,"_{-}":6725,"maxu":6726,"AQB":6727,"AQD":6728,"AQE":6729,"AQN":6730,"7340":6731,"NMQ":6732,"EHM":6733,"intch":6734,"DOK":6735,"HOOCC":6736,"Ġ20092009":6737,"KLC":6738,"KLM":6739,"mlX":6740,"DIF":6741,"DIP":6742,"ratac":6743,"cnxy":6744,"cnhhuyn":6745,"0000000":6746,"Oxi":6747,"HCOOK":6748,"hngtrnh":6749,"ĠCosC":6750,"MQE":6751,"MQP":6752,"bachai":6753,"}^{*};":6754,"}^{*},(":6755,"Ġ140307":6756,"cosBcosC":6757,"ĠBKM":6758,"Ġmathbb":6759,"12800000":6760,"ĠCrCl":6761,"OKD":6762,"iclo":6763,"EIF":6764,"EIG":6765,"saot":6766,"saoli":6767,"PMS":6768,"Ġ\\%\\":6769,"^{-},_{":6770,"backsim":6771,"ĠBIF":6772,"ĠCIO":6773,"HIO":6774,"choP":6775,"chof":6776,"Ġ11212":6777,"HCOOCCH":6778,"Ġ1107":6779,"hayy":6780,"})^{+}(":6781,"})^{+}\\":6782,"})^{+},\\":6783,"})^{+},(":6784,"ĠMnCl":6785,"130307":6786,".......................":6787,"CGH":6788,"CGV":6789,"GlyAla":6790,"Ġ400000":6791,"Ġmaxg":6792,"mikvs":6793,"Ġminf":6794,"BPE":6795,"CTA":6796,"HNI":6797,"khicos":6798,"CPN":6799,"EBCF":6800,"cgi":6801,"ĠLB":6802,"ĠLK":6803,"ĠLog":6804,"ĠABMv":6805,"QPN":6806,"Ġ???":6807,"^{*},":6808,"Ġ6724":6809,"ĠABHv":6810,"OQM":6811,"}},(\\":6812,"ABND":6813,"ĠAPH":6814,"abcdef":6815,"0352":6816,"NIO":6817,"Ġcnx":6818,"CAHOF":6819,"Miny":6820,"phn":6821,"Ġcda":6822,"BQH":6823,"BQK":6824,"BQR":6825,"1010101":6826,"1006009":6827,"ĠIEO":6828,"IFO":6829,"sdIC":6830,"sdAP":6831,"Ġ6001":6832,"Ġ600000":6833,"ĠHAJ":6834,"ĠSiF":6835,"tronggc":6836,"trongcng":6837,")!}{":6838,")!.(":6839,"HBrO":6840,"LiAlH":6841,"cufmin":6842,"giy":6843,"gitrbiuthc":6844,"gichgim":6845,"khx":6846,"khac":6847,"khnglsnguynt":6848,"nst":6849,"{...}{":6850,"}.......\\":6851,"}......\\":6852,"Ġ8955":6853,"Ġ2733212496":6854,"CQK":6855,"CQN":6856,"Ġbaz":6857,"0238":6858,"6009":6859,"KFM":6860,"nothing":6861,"Ġ...................":6862,"MaxA":6863,"PHQ":6864,"aOd":6865,"cungMN":6866,"xCy":6867,")//(\\":6868,"ALK":6869,"ALM":6870,"GFN":6871,"coz":6872,"nna":6873,"nnivigi":6874,"Ġbnv":6875,"NEP":6876,"glucoz":6877,"varnothing":6878,"ĠJN":6879,"ĠJPG":6880,"arctan":6881,"ocax":6882,"Axetilen":6883,"DQK":6884,"biratac":6885,"sprt":6886,"ABFP":6887,"ĠOOCC":6888,"ĠOOCCH":6889,"***\\":6890,"0652":6891,"GTLN":6892,"HQK":6893,"cngv":6894,"dpdd":6895,"vyP":6896,"ĠMinP":6897,"};...;":6898,"///////\\":6899,",...,":6900,"PFCD":6901,"PdCO":6902,"litngt":6903,"tinh":6904,"|}{|(\\":6905,"Ġoh":6906,"ĠENMF":6907,"lunngva":6908,"Ancol":6909,"(.)":6910,"71035":6911,"BLA":6912,"dok":6913,"nhan":6914,"Ġcpw":6915,"ĠAMNcn":6916,"trnti":6917,"trnocax":6918,"cotAcotB":6919,"ctuongung":6920,"CdSO":6921,"TnhV":6922,"Tnhgitrc":6923,"goctuongung":6924,"tnhnh":6925,"vsx":6926,"}}...{.":6927,"Ġ1600000":6928,"ĠgcBAC":6929,"Ġgcnhn":6930,"(*)(":6931,"(*);(":6932,"EQB":6933,"butan":6934,"ĠcungPC":6935,"16289292":6936,"canbachai":6937,"nguynth":6938,"Ankan":6939,"suyraa":6940,"!!!":6941,"AsO":6942,"Glucozo":6943,"SABGE":6944,"Tisaot":6945,"Theo":6946,"Theopt":6947,"rua":6948,"ruou":6949,"tngBBT":6950,"vimix":6951,"ytag":6952,"}........\\":6953,"Ġhaig":6954,"oleum":6955,"98526":6956,"ĠvungABC":6957,"ĠvungBHM":6958,"chnl":6959,"chncung":6960,"vunggcAB":6961,"5886":6962,"97595":6963,"CPQD":6964,"Maxy":6965,"SLTAB":6966,"kimloai":6967,"lschnh":6968,"nux":6969,"xOk":6970,"xoz":6971,"Ġ99993":6972,"theot":6973,"ĠABCvungcn":6974,"'''}":6975,"0000000000000000":6976,"aphngicca":6977,"(@)":6978,"Talet":6979,"Tales":6980,"ltiap":6981,"ltiaphngic":6982,"licthsuy":6983,"vtpt":6984,"loivkhnglsnguynt":6985,"Ġ20038005":6986,"Ġ20038007":6987,"chiax":6988,"gipmnh":6989,"???)":6990,"chuviOAB":6991,"(..)":6992,"IEFJ":6993,"MVB":6994,"SHScnli":6995,"ZTI":6996,"hqBC":6997,"soletrong":6998,"vinyl":6999,"ybnnivigi":7000,"{?}{\\":7001,"Ġoversett":7002,"hanol":7003,"haigctrongcng":7004,"Ġ5778":7005,"ĠCnbcbac":7006,"thomn":7007,"saupu":7008,"bitlmcufmin":7009,"21212121":7010,"31313131":7011,"615384":7012,"Anhybnnivigi":7013,"Butan":7014,"Cracking":7015,"Chabitlmcufmin":7016,"FOHF":7017,"QUOTE":7018,"SABEG":7019,"TZI":7020,"XxYx":7021,"glixer":7022,"jupmikvs":7023,"ltrungim":7024,"methanol":7025,"monosac":7026,"oonup":7027,"sshng":7028,"voly":7029,"vcngphvi":7030,"}///////////////\\":7031,"âĤ¬":7032,"âĶĤ":7033,"^{...^{":7034,"racnhth":7035,"})......(":7036,"Ġ555557":7037,"Ġmetylbut":7038,"Ġ91908":7039,"Ġ94905000":7040,"Ġ96500":7041,"rightharpoonup":7042,"Ġ206877":7043,"11969":7044,"ngtrnng":7045,"mantozo":7046,"27091":7047,"Ġglutamic":7048,"DEMNHK":7049,"Ġ...............................":7050,"26582":7051,"Ġaxetat":7052,"enlulozo":7053,"ĠTheopt":7054,"puvsA":7055,"ĠmathbbZ":7056,"tngBBTf":7057,"lschnhphng":7058,"licthsuyracnhth":7059,"haigctrongcngpha":7060,"ĠCnbcbaca":7061,"Chabitlmcufmingichgim":7062,"XxYxZ":7063,"glixerol":7064,"jupmikvsnha":7065,"!:":7066,"!})":7067,"!}(":7068,"!}.":7069,"!)}":7070,"!.\\":7071,"!}{(":7072,"!)}{(":7073,"%),\\":7074,"(...":7075,"(;\\":7076,"()\\":7077,"(^{-":7078,"(???)":7079,")},":7080,")})_{":7081,")....":7082,")).":7083,"))(\\":7084,"));":7085,")}.(":7086,")}}}{":7087,")}^{-":7088,"))}{\\":7089,")})(\\":7090,"))}}":7091,")})}{(":7092,")):(":7093,"))((":7094,").......":7095,")......":7096,")....\\":7097,")}.((":7098,"*,":7099,"*;":7100,"*})":7101,"*)\\":7102,"*):":7103,"***)":7104,"+\\":7105,"+}}}{":7106,",_{":7107,",},":7108,",)\\":7109,"-(":7110,"-\\":7111,"-}^{":7112,".)(":7113,"/^{":7114,"017":7115,"099":7116,"021":7117,"033":7118,"098":7119,"090":7120,"079":7121,"0135":7122,"0224":7123,"0204":7124,"0787":7125,"0199819981998":7126,"1160":7127,"2100":7128,"22018":7129,"22011":7130,"21000":7131,"2160":7132,"2197":7133,"2123":7134,"2199":7135,"2202":7136,"3100":7137,"325":7138,"319":7139,"314":7140,"321":7141,"396":7142,"385":7143,"3150":7144,"3144":7145,"3136":7146,"3131":7147,"410":7148,"415":7149,"411":7150,"418":7151,"413":7152,"433":7153,"426":7154,"4125":7155,"439":7156,"478":7157,"479":7158,"4224":7159,"4243":7160,"4142":7161,"4808":7162,"4343":7163,"420000":7164,"516":7165,"511":7166,"519":7167,"524":7168,"521":7169,"536":7170,"532":7171,"556":7172,"526":7173,"548":7174,"537":7175,"5125":7176,"585":7177,"538":7178,"5300":7179,"5130":7180,"5145":7181,"5404":7182,"5146":7183,"5985":7184,"5227":7185,"622":7186,"624":7187,"630":7188,"650":7189,"636":7190,"664":7191,"680":7192,"698":7193,"695":7194,"697":7195,"674":7196,"6008":7197,"6224":7198,"6501":7199,"6138":7200,"6186":7201,"6306":7202,"6102000":7203,"6565":7204,"712":7205,"7200":7206,"730":7207,"727":7208,"736":7209,"735":7210,"740":7211,"726":7212,"798":7213,"748":7214,"706":7215,"737":7216,"734":7217,"770":7218,"746":7219,"788":7220,"738":7221,"70000":7222,"7404":7223,"7408":7224,"7644":7225,"7400000":7226,"820":7227,"812":7228,"815":7229,"816":7230,"818":7231,"813":7232,"814":7233,"860":7234,"821":7235,"850":7236,"835":7237,"845":7238,"829":7239,"865":7240,"890":7241,"855":7242,"851":7243,"885":7244,"841":7245,"878":7246,"892":7247,"862":7248,"867":7249,"873":7250,"8126":7251,"8133":7252,"8224":7253,"8565":7254,"930":7255,"921":7256,"936":7257,"928":7258,"956":7259,"926":7260,"903":7261,"904":7262,"948":7263,"9120":7264,"9000":7265,"942":7266,"951":7267,"946":7268,"938":7269,"9300":7270,"90000":7271,"9187":7272,"91800":7273,":}":7274,":_{":7275,":((":7276,";,":7277,";/":7278,";{\\":7279,";}\\":7280,";;^{":7281,";..{.":7282,"<}":7283,"=}(\\":7284,"?\\":7285,"?}":7286,"@)":7287,"@@":7288,"AR":7289,"AU":7290,"AY":7291,"Ab":7292,"Ad":7293,"Ai":7294,"Ap":7295,"At":7296,"Axy":7297,"AAD":7298,"AOA":7299,"ASC":7300,"AXE":7301,"AvA":7302,"BU":7303,"BX":7304,"Bt":7305,"Bz":7306,"Bcos":7307,"Bxy":7308,"BNO":7309,"Bun":7310,"BIB":7311,"BGA":7312,"BPQ":7313,"BGD":7314,"BSC":7315,"Bnh":7316,"BGM":7317,"BPM":7318,"BJA":7319,"Buna":7320,"CY":7321,"Ce":7322,"Cn":7323,"Cs":7324,"CNO":7325,"Cng":7326,"CCM":7327,"Cox":7328,"CCF":7329,"CGA":7330,"CCHO":7331,"CIM":7332,"CSA":7333,"CnH":7334,"Chi":7335,"Cmn":7336,"CSB":7337,"Chng":7338,"CPM":7339,"CCHCH":7340,"CQP":7341,"CQM":7342,"CxH":7343,"CdO":7344,"Cchn":7345,"Cchnh":7346,"Cacbon":7347,"Cthnghng":7348,"DR":7349,"DS":7350,"DY":7351,"Du":7352,"Dx":7353,"DOH":7354,"Dpcm":7355,"DPT":7356,"DIH":7357,"DOF":7358,"DPC":7359,"DPM":7360,"DPN":7361,"DQM":7362,"DddH":7363,"DJB":7364,"DTE":7365,"Dli":7366,"DXF":7367,"EE":7368,"ET":7369,"Ea":7370,"Eb":7371,"Et":7372,"Etan":7373,"EMI":7374,"EMD":7375,"EGC":7376,"ENC":7377,"ESB":7378,"EHK":7379,"EKI":7380,"EPA":7381,"EKM":7382,"EOQ":7383,"EJB":7384,"Etil":7385,"Esaocho":7386,"EacO":7387,"EAgBr":7388,"FP":7389,"FR":7390,"FX":7391,"Ft":7392,"FCl":7393,"FMB":7394,"FMA":7395,"FOC":7396,"FMC":7397,"FBE":7398,"FAI":7399,"FDB":7400,"FIB":7401,"FOM":7402,"FEB":7403,"FAG":7404,"FCK":7405,"FHD":7406,"FDK":7407,"FHA":7408,"FBO":7409,"FIK":7410,"FMG":7411,"FNB":7412,"FNA":7413,"FAQ":7414,"FDO":7415,"FKI":7416,"FMQ":7417,"FOK":7418,"FOHB":7419,"FXD":7420,"Fru":7421,"Fruc":7422,"GJ":7423,"Ga":7424,"Gc":7425,"Ge":7426,"Gh":7427,"Gi":7428,"GCO":7429,"GBC":7430,"GAH":7431,"GCA":7432,"Gpt":7433,"GBE":7434,"GDE":7435,"GIB":7436,"GDM":7437,"GHF":7438,"GDF":7439,"GOF":7440,"GKB":7441,"GTN":7442,"HT":7443,"Hv":7444,"Hy":7445,"HOH":7446,"Hpt":7447,"HOA":7448,"HIB":7449,"HMD":7450,"HNC":7451,"HGB":7452,"HMP":7453,"HMO":7454,"HIJ":7455,"HPC":7456,"HQC":7457,"HQM":7458,"Hco":7459,"HJA":7460,"Hso":7461,"IR":7462,"IZ":7463,"Ix":7464,"ICl":7465,"IMA":7466,"IAN":7467,"IHO":7468,"IHD":7469,"IHA":7470,"IFC":7471,"IOP":7472,"IFB":7473,"IPA":7474,"IABK":7475,"IQA":7476,"IHCE":7477,"IVN":7478,"JG":7479,"JI":7480,"JNO":7481,"JCD":7482,"JABC":7483,"JMN":7484,"JIA":7485,"JEF":7486,"JBK":7487,"JMO":7488,"JIK":7489,"JFC":7490,"JKI":7491,"JFB":7492,"JKN":7493,"JPG":7494,"JIL":7495,"KT":7496,"Kb":7497,"Kc":7498,"Kh":7499,"Km":7500,"Kth":7501,"KDE":7502,"KAF":7503,"KIA":7504,"KAO":7505,"KED":7506,"KBF":7507,"KDH":7508,"KID":7509,"KHO":7510,"KOI":7511,"KIE":7512,"KAA":7513,"KOF":7514,"KCrO":7515,"KNA":7516,"KEH":7517,"KDI":7518,"Khng":7519,"KPC":7520,"KMgCl":7521,"KQC":7522,"KOQ":7523,"KPF":7524,"KQO":7525,"KST":7526,"LE":7527,"LH":7528,"LJ":7529,"LR":7530,"La":7531,"Lx":7532,"Ly":7533,"Lin":7534,"LCH":7535,"LAC":7536,"LNC":7537,"LEA":7538,"LCI":7539,"LOE":7540,"LKH":7541,"MR":7542,"MY":7543,"MZ":7544,"Mc":7545,"Mk":7546,"My":7547,"MABC":7548,"MPO":7549,"MACB":7550,"MHNO":7551,"MNaCl":7552,"MSC":7553,"Mkhi":7554,"Mchung":7555,"MJC":7556,"Mva":7557,"MJB":7558,"Mtac":7559,"MJK":7560,"Mtng":7561,"Msaocho":7562,"Mthnghng":7563,"MLQ":7564,"MRK":7565,"MhhY":7566,"Mltrungim":7567,"NL":7568,"NS":7569,"Nn":7570,"No":7571,"Nx":7572,"NCl":7573,"NAD":7574,"NBD":7575,"NBA":7576,"NAN":7577,"NAI":7578,"NIB":7579,"NBr":7580,"NIC":7581,"Nilon":7582,"NMD":7583,"NBK":7584,"NBI":7585,"NED":7586,"NME":7587,"NDK":7588,"NDF":7589,"NIH":7590,"NFE":7591,"NFC":7592,"NKB":7593,"NEM":7594,"NKI":7595,"NFB":7596,"NEI":7597,"NFA":7598,"NKM":7599,"Nes":7600,"NGK":7601,"NRCOOH":7602,"NoH":7603,"Nhn":7604,"Nthnghng":7605,"NRCOOR":7606,"Nltrungim":7607,"OY":7608,"OZ":7609,"Ov":7610,"Oxy":7611,"OABC":7612,"OIB":7613,"OEC":7614,"OED":7615,"OCHO":7616,"OGC":7617,"OCOOC":7618,"Opu":7619,"OPC":7620,"OOK":7621,"OQC":7622,"ODEF":7623,"OTH":7624,"OCOOR":7625,"PL":7626,"Ph":7627,"Pu":7628,"Py":7629,"PAB":7630,"PDC":7631,"PMB":7632,"PMC":7633,"PBA":7634,"PCA":7635,"Ptr":7636,"POA":7637,"PAN":7638,"PDE":7639,"PHB":7640,"PED":7641,"PBN":7642,"PID":7643,"PEA":7644,"PBT":7645,"PME":7646,"PBO":7647,"PKB":7648,"PDO":7649,"PHM":7650,"Phng":7651,"PFB":7652,"PFD":7653,"PSD":7654,"Pdng":7655,"Pytag":7656,"QBC":7657,"QMC":7658,"QMN":7659,"QHC":7660,"QAF":7661,"QAO":7662,"QEC":7663,"QOM":7664,"QDA":7665,"QEB":7666,"QED":7667,"QDK":7668,"QAP":7669,"QKC":7670,"QIH":7671,"QOF":7672,"QNP":7673,"QNA":7674,"QOx":7675,"QPA":7676,"QEN":7677,"QKN":7678,"QFA":7679,"QIP":7680,"QEO":7681,"RL":7682,"Re":7683,"Rcos":7684,"RBr":7685,"RCOOC":7686,"RsinA":7687,"Rtg":7688,"RONa":7689,"RQP":7690,"RHS":7691,"Rsuyra":7692,"SF":7693,"SY":7694,"Sb":7695,"Sc":7696,"Se":7697,"Ss":7698,"Su":7699,"Sw":7700,"SAC":7701,"Sab":7702,"SAD":7703,"SBD":7704,"SDC":7705,"SCA":7706,"Song":7707,"SAOB":7708,"SADE":7709,"SABM":7710,"Smn":7711,"SABCD":7712,"SNT":7713,"SKI":7714,"Suy":7715,"SABO":7716,"SBFC":7717,"SHBA":7718,"SABF":7719,"Sket":7720,"Schu":7721,"SQD":7722,"Schwarz":7723,"Smd":7724,"Sxq":7725,"TG":7726,"Tin":7727,"TAC":7728,"TMC":7729,"TMN":7730,"TBE":7731,"TBM":7732,"Tam":7733,"TBI":7734,"Tmn":7735,"TNT":7736,"Tas":7737,"TPB":7738,"TSM":7739,"Ton":7740,"Tmg":7741,"Trong":7742,"TLT":7743,"Tnht":7744,"Tmm":7745,"Tru":7746,"Than":7747,"UB":7748,"UV":7749,"UJB":7750,"UNG":7751,"VB":7752,"VC":7753,"VD":7754,"VE":7755,"VF":7756,"VL":7757,"Vl":7758,"VCO":7759,"VAD":7760,"Vmin":7761,"Vit":7762,"Vas":7763,"Via":7764,"VII":7765,"Vnguyen":7766,"Vix":7767,"Wh":7768,"XZ":7769,"Xn":7770,"XAB":7771,"XAC":7772,"XSO":7773,"XMC":7774,"XEC":7775,"XOM":7776,"Xthuc":7777,"XAZ":7778,"Xenlulozo":7779,"YH":7780,"YO":7781,"YCO":7782,"YXF":7783,"Zr":7784,"Zx":7785,"ZCB":7786,"ZOY":7787,"\\_":7788,"\\{\\":7789,"\\}.":7790,"\\}\\}":7791,"aC":7792,"aE":7793,"aH":7794,"aX":7795,"ak":7796,"ao":7797,"aim":7798,"aOH":7799,"axy":7800,"atan":7801,"aAl":7802,"aOA":7803,"amx":7804,"aod":7805,"ayz":7806,"aOt":7807,"aSinA":7808,"avb":7809,"aHClO":7810,"aocho":7811,"amoln":7812,"aabb":7813,"aSQ":7814,"artan":7815,"bM":7816,"be":7817,"bm":7818,"bq":7819,"bsin":7820,"bsinx":7821,"ban":7822,"bhay":7823,"bli":7824,"bSinB":7825,"bls":7826,"buna":7827,"bthucZ":7828,"cC":7829,"cf":7830,"cl":7831,"cha":7832,"cAB":7833,"csin":7834,"cAD":7835,"cAM":7836,"ccm":7837,"car":7838,"cax":7839,"choc":7840,"cBG":7841,"ccb":7842,"csd":7843,"cvb":7844,"cchs":7845,"cSinC":7846,"cpg":7847,"csai":7848,"dX":7849,"db":7850,"dg":7851,"dong":7852,"dHCl":7853,"dpm":7854,"dKC":7855,"dcd":7856,"dct":7857,"dil":7858,"dau":7859,"doc":7860,"dkhc":7861,"dcac":7862,"dbca":7863,"down":7864,"ddef":7865,"dsaupu":7866,"dpuvsA":7867,"ef":7868,"eve":7869,"eet":7870,"eam":7871,"emax":7872,"ega":7873,"fin":7874,"gng":7875,"gly":7876,"gcg":7877,"goi":7878,"glic":7879,"gmnp":7880,"hf":7881,"hv":7882,"hy":7883,"hht":7884,"hsin":7885,"hps":7886,"hra":7887,"hcb":7888,"huc":7889,"hvy":7890,"hchiahtcho":7891,"hbng":7892,"hexan":7893,"id":7894,"if":7895,"ik":7896,"ica":7897,"iqu":7898,"iit":7899,"ily":7900,"ion":7901,"ithi":7902,"icnhtngng":7903,"itro":7904,"irax":7905,"isaoli":7906,"iaphngicca":7907,"jw":7908,"jcc":7909,"kX":7910,"ks":7911,"kv":7912,"kAB":7913,"ksinx":7914,"kKH":7915,"knh":7916,"kia":7917,"ksau":7918,"kotha":7919,"koca":7920,"kWh":7921,"lR":7922,"ll":7923,"lsin":7924,"lng":7925,"lan":7926,"lln":7927,"lay":7928,"ltm":7929,"lcung":7930,"lbi":7931,"lbn":7932,"lvy":7933,"lcc":7934,"lai":7935,"lhcn":7936,"llet":7937,"lhaigc":7938,"lbnt":7939,"lhps":7940,"mN":7941,"mc":7942,"mo":7943,"mNO":7944,"mng":7945,"mCa":7946,"mNaOH":7947,"mMg":7948,"mAg":7949,"mHCl":7950,"miv":7951,"mHNO":7952,"mVT":7953,"mCaCO":7954,"msinxcosx":7955,"mIH":7956,"mCos":7957,"mHK":7958,"mBaSO":7959,"mKL":7960,"mcotx":7961,"mKNO":7962,"mZnCl":7963,"mkk":7964,"mddH":7965,"mcost":7966,"mXCl":7967,"migi":7968,"mphanung":7969,"mAxit":7970,"mcua":7971,"nT":7972,"ne":7973,"nl":7974,"nth":7975,"nHCO":7976,"nilon":7977,"nHO":7978,"nKOH":7979,"nAlO":7980,"nAlCl":7981,"nmn":7982,"nnh":7983,"ncol":7984,"nCuCl":7985,"nkhi":7986,"ncu":7987,"nnx":7988,"nco":7989,"nlt":7990,"nBaO":7991,"ncng":7992,"nAn":7993,"ndehit":7994,"nitip":7995,"nmgia":7996,"nEAgBr":7997,"nitro":7998,"oC":7999},"merges":["Ġ +","Ġ \\","Ġ =","^ {","č Ċ","Ġ -","a c","r ac","} {","f rac","r r","i g","h t","ig ht","Ġ 1","_ {","o w","a rr","arr ow","ight arrow","Ġ 2","r t","q rt","s qrt","} }","Ġ 3","v e","o ve","Ġ (","rr ightarrow","ove rrightarrow","Ġ x","Ġ 0","r ightarrow","} )","h a","Ġ 4","f t","e ft","d e","ha t","i de","w ide","wide hat","e q","R ightarrow","Ġ b",") ^{","Ġ y","eft rightarrow","L eftrightarrow","Ġ c","i n","} }{","Ġ a",". .","Ġ 5","Ġ >",") (","Ġ m","} (","A B","o s","g eq",") _{","s in","{ \\","1 0","2 0","Ġ 6","b rac","brac k","} \\","C H","Ġ <","Ġ 9","} .","l eq","( \\","A C","l eft","r ight","C O","}{ \\","i m","O H","o t","im e","Ġ 8","c os","p r","t a","Ġ 7","Ġ n","pr ime","} ^{","a b","}) ^{","o l","{ (","B C","d ot","p i","} ,","Ġ1 0","Ġ( \\","l brack","Ġ A","r brack","Ġ z","1 2","x y","Ġ2 0",") }",".. .","Ġc os","}) _{","{ -","Ġ C","e l","F e","m ol","1 5","D el","Del ta","1 6","; \\","C l","Ġ H","Ġ sin","S O","r c","^{ \\","Ġ ...","c i","Ġ t","ci rc","N O","Ġ1 2","] {","1 1","10 0","N a","Ġ B","A D",". \\",") \\","a l","1 8","dot s","n g","}. \\","2 5","0 0","1 3","v dots","Ġ CH","Ġ9 0",") }{","Ġ1 8","Ġ1 6","ove r","1 9",". (","Ġ M","A M","}, \\","N H","Ġ k","sin x","20 0","A H","} ;","Ġa b","c dot","cos x",", \\","1 4","1 7","p ha","^{ +","ta n","al pha","} |","}{ (","Ġ d","9 9","}} }","Ġx y","e t","Ġ |","B D","A E","Ġ O","A l","Ġ AB",".. ..","}}{ \\","s et","^{ -","} ;\\","2 2","}( \\","Ġ1 5","}) (","ng l","Ġ1 1","a ngl","Ġb c","angl e","Ġ f","C D","C u","n eq","Ġ1 4","CO O","ab c","_{ (","over set","2 4","D C","Ġ18 0",") .","Ġ AC","CO OH","Ġ2 5","Ġcos x","3 0","M B","Ġm ol","C B","b c","Ġ1 3","AB C","6 0",")( \\","c m","Ġ+ }","2 1","m a",": \\","M A","l in","over lin","overlin e","Ġ2 4","7 5","O C","M C","Ġsin x","a r","O B","Ġ D","Ġ6 0","| \\","s u","2 3","2 7","Ġ S","}} )","B A","B H","C a","Ġ čĊ","Ġ BC","Ġ3 0","Ġ N","Na OH","su m","Ġ p","0 5","al l","C A","M N","{ (\\","Ġ P","5 0","3 6","Ġ tan","Ġc a","Ġ g","o ng","M g","t h","p t","u p","Ġ Fe","3 5","4 0","B a","t r","3 2","Ġ E","O A","Ġ I","A g","Ġ10 0","H Cl","m x","L ong","Long rightarrow","\\ }","B E","B M","Ġ K","i v","}) }","A N","4 5","}{ .","3 3","A I","2 8","Ġ1 7","H C","b ig","l o","tr i","angle up","big tri","bigtri angleup","Ġ3 6","Ġ| \\","ma th","b b","p m","ĠA H","t ime","time s","^{+ }","20 18","Ġ4 0",") ;","Ġ1 9","o r","math bb","0 2","\\ {","u iv","eq uiv","Ġ2 7","}}{ (","Z n","}. (","20 19","D E","b ar","Ġ4 5","a x","Ġ ....","H CO","}} }{","A K","6 4","5 6","}^{ -",", (","Ġ ac","}) \\","Ġ {","Ġ CO","Ġy z","ft y","in fty","20 17","}} \\","10 1","Ġ20 0","u n","Ġ- }","A F","4 4",") .(","( (","2 9","D B","I B","s im","I A","Ġ V","b ot","o d","2 6","y z","/ /","B r","8 0","A O","Ġ R","_{ \\","f or","B AC","ĠA D","for all","}, (","de r","un der","Ġ3 2","18 0",") ,\\","Ġ2 8","4 9","Ġm x",") :","I C","} :","C r","Ġ2 1","P O","Ġ5 0","M I","Ġ OH","Ġa x","^{- }","c a","C M","i lo","p s","ilo n","0 3","9 8","e ps","eps ilon","ĠC u","C E","a m","o x","0 4","0 1","AC B","E C","xy z","20 16","}) }{","4 8",")}{ (","M D","\\ %","6 5","E F","ĠA l","3 1","O M","}} (","ĠB H","9 0","D A","m od","Ġ F","20 13","p ar","all el","par allel","Ġ NH","H NO",")^{ -","Ġc ot",") }{\\","n O","20 15","O D","Ġ Na","e x","Ġ3 5","H B","a p","ĠB D","Ġab c","0 6","20 20","9 6","}) (\\","C N","h o","COO CH","B K","20 12","pr ox","ap prox","0 8","Ġ ..","7 2","Ġ COOH","Ġ6 4","}^{- }","Ġ1 20","Ġ20 18","ĠC a","}} .\\","}} ,\\","ĠA M","B I","l eftrightarrow","Ġ Z","3 7","Ġ2 3",". (\\","} :\\","Ġz x","20 10","C F","}{ -","tan x","1 20","under set","E B","}} ^{","E D","G A","c ot",") }}","] {\\","20 14","Fe Cl","Ġ2 6","12 5","M H","ĠC D",") .\\","] {(","Ġ G","d d","CH O","ĠB a","ĠAB C","} /",") )","Ġ v","20 11","}. (\\","I M","5 5","a d","20 00","Ġt ex","B N","ĠA E","( )_{","Ġ4 9","Ġ2 2","3 4","}} )^{","3 9","A G","a n","Ġ20 20","B F","c h","COO Na","200 9","M nO","O y","Ġ q","Ġ8 0","* \\","D H","Ġ20 17",") ;\\","O N","Ġ NO",") )^{","G C","Ġb x",".... ....","00 0",") ,","Ġ X","Ġ20 19","7 0","p cm","}^{ +","* )","4 2","Ġ20 15","200 5","I D","COO C","N C","V T","200 4","5 1","}{ (\\","G B","5 4","H O","Ġ20 16","8 1","100 0","Ca CO","ho c","{ +","D M","E A","Ag NO","x z","AB D","| }","4 6","9 5","M K",")^{ \\","9 7","B AD","Ġ e","8 5","m in","brac e","q u","Ġx z","Ġ4 8","qu ad","i t","ve e","ĠH C","Na Cl","); (","4 3","B T","200 8","4 1","O I","Ġ3 1","Ġ20 14","8 8","ĠC l","ĠB E","^{+ }\\","7 7","m s","K OH","Ġ NaOH","Ġ2 9","5 2","} -","^{+ }}","M P","S in","z x","11 1","8 4","M O","C K","Ġ20 13","200 3","M E","Ġ DC","}} }}","Ġ7 5","C I","H E","{ .","Ġ3 3","H D","Ġ4 2","AD B","Ġtan x","7 8","Ġ7 2","ĠO A",") ,(","6 6","Ġ Q","200 7","ĠH Cl","A OB","O E","Cu O","under brace","D N","}} .","}) .","Ġ5 6","ĠD E","K H","^{ {","}) :","Ġ7 0","Ġ20 12","sinx cosx","H F","P T","{ }","Ġ SO","Ġ+ },","16 0","200 6","7 1","K MnO","Ġ+ }}","ĠM N","Ġg am","6 3","7 6","D K","Ġ( (","}} }{\\","}} ;\\","}) .(","ĠA N","Cu SO","Ġ }","H A",".. ...","0 25","B O","20 21","ĠA I","19 99","200 1","A P","e ta","g am","Ġ\\ {","10 2","Al O","D F","O t","ĠA g","ĠB M","! }","Ġ8 1","lo g","0 9","5 7","l dots","Ġ20 10","ĠM g","Ġ.. ...","}) )^{","AD C","P Q","e n","Ġ )","Ġ3 7","Ġ20 11","S A","Ġ3 4","^{- }}","B OC","K Cl","x cos","ĠA K","AM B","Ġxy z","n H","Ġ3 9","ĠM C","; (","P i","}) .\\","ĠA F","200 2","}| .","Al Cl","M F","Ġ r","Ġ10 00","3 8","7 9","I E","g t","Ġ5 4","D AC","S i","ĠH B","ĠO B","6 1","I K","P b","hoc x","' '","4 00","B AM","l n","Ġ Zn","AD E","h i","u ng","AB M","ĠC K","0 75","A A","G D","x Oy","} *","})^{ -","I N","}( (","ĠC E","/ (","9 2","H SO","K C","m n","Ġ u","}} _{","dot eq","Fe O","Fe S","33 3","5 9","I H","b d","t ht","ma tht","Ba CO","matht t","3 00","5 8","6 2","D AB","b eta","h h","{ |","Na HCO","0 7","6 8","AC D","O F","Ġ4 4","Fe SO","15 0","Ġ15 0","B AH","Ġ s","Ġ5 5","D AE","M AB","}{ |","Ġ1 99",")^{ +","AB CD","^{+ },","^{- }\\","M G","N CH","l im","}}{ (\\","Ġ9 9","( |","A OC","S C","d pcm","l y","Ġ T","Ġ3 60","BC A","ĠH NO","ĠM B","F E","O z","Ġ- }}","cm t","Cr O","0 15","7 4","9 1","S B","n h","F C","c up","}} ;","sin A","pr od","3 60","5 3","6 7","8 9","O OC","[ ]{","Ġ COO","99 99","AE D",": (","C os","M n","N B","N P","x t","10 8","G M","H K","H COOCH","Ġ h","Ġ16 0","Ba SO","Ġcot x","8 6","c dots","Ġ9 6","Ġ20 21","ĠO C","Mg O","}|. |\\","M AC","N A","p u","_{ -","sin B","sin a","ma x","A Q","... \\",")}{ (\\","Ca O","6 9","7 3","B G","N M","Ġ+ },(","Ġb y","}, (\\","ĠO M","Si O","K B","AB H","Ġ9 8","ĠM A","3 75","E H","I J","in t","Ġ12 5","AM N","2 25","D O","}^{ {","Ġ10 5","... (","ĠC M","Na NO","HO OC","E M","Ġ6 5","Ġ7 8","ĠC A","99 9","abc d","Ġ200 9","ĠV P",") :\\","C AD","K L","Ġ :\\","Ġc x","ĠD H","( *)",") |","C AB","M BC","N T","c d","m l","Ġ )_{","Ġ+ },\\","Ġ14 4","D I","H M","r a","Ġ {\\","Ġ3 8","}) }{\\","left arrow","cos a","ĠM E","ĠE F","}^{+ }","D BC","O AB","c n","c ol","Ġ4 7","ĠC F","00 00","ĠE C","ĠI A","ĠCa CO","5 00","c t","d iv","| ^{","}} (\\","AB E","Ġ8 4","Ġn H","Ġ10 8","}; (","AE F","ĠNa Cl","H AB","V P","n CO","| }{","Ġ Y","Ġ5 8","14 4","ĠI M",") }.\\","B AE","K I","O x","k m","}} )(","Ġ4 3","Ġ4 6","Ġ5 2","ĠH D",")^{- }","H COO","h ng","Ġ( (\\","}) :\\","Ġ6 3","ĠC os","ĠM H","AM C","8 3","9 4","M Q","P C","b x","b ac","d x","p H","sin C","10 3","Ġ20 05","})_{ (","BD C",") *\\","1 12","H AC","b a","{ |\\","| )","| }{\\","}^{ *","Ġ20 00","AE B","Ġ14 0","Mg Cl","an col","})^{- }","( (\\","4 7","9 3","O P","a s","Ġ6 6","cos B","Ġn CO","Na AlO","AH C","). (\\","Ag Cl","t i","Ġ l","AC E","ĠA r","ĠB K","27 3","ĠV T","A CH","E AB","F B","K A","s l","Ġm a","Ġ6 2","12 1","12 8","ĠC r","ĠM D","ĠAB D","Ġ200 7","L N","N i","O K","P D","i c","Ġ3 00","Cu Cl","Ġ13 5","cot x","}/ (","F D","H COOH","P A","k g","Ġ+ }\\","}) )","Ġ4 1","AC M","Ġ10 1","}| }","ĠD B","ĠN C","Ġg n","E I","p q","s a","}) }{(",") /","1 10","B B","C AM","H PO","K D","P B","P M","t ex","Ġ\\ %","}) .(\\","ĠCH O","^{- },","Ġ.... ..","Ġ200 4",")^{- }}","bac k",") }\\","}}{ -","Ġa d","ĠB I","19 7","^{+ },\\","}| \\",") })","0 45","E G","K NO","c x","e d","t g","{ _{","}) ;","Ġ5 1","Ġ7 6","ĠC I","ĠH M","ĠH CO","ĠCH Cl","19 98","Ġsinx cosx","ĠD F","AO D","as h","sl ash","back slash","C C","H I","O G","c ho","t e","Ġ log","Ġ1 12","ĠC N","ĠFe Cl","ĠI B","ĠI C","AI B","DE C","8 2","C BD","D G","H COOC","S I","d u","Ġ- },","Ġ1 10","Ġ( *)","ha y","10 5","})^{ +","ĠB A","ĠM n","ĠD M","Ca Cl","): (","( ))^{","; (\\","H CHO","O m","a y","} *\\","Ġ7 1","16 2","13 0","17 5","BD A","AE C","_{( }","ĠK C","........ ........","C G","E AC","G ly","H g","ig ma","Ġ4 00",")( (","Ġm ax","}( ))^{","CH CH","Ġ7 4","BC D","100 9","AH B","ĠO y","DC B","ca p","KCl O","A S","Q C","m i","u y","} ...\\","Ġ- }\\","Ġm in","cos A","}^{ \\","12 3","ĠB F","ĠM I","ĠO D","CB A","Ba Cl","Ġ200 3","Ġ200 8","am in","ĠG ly","an k","}^{+ }\\",") }}{","B P","C T","E N","H N","O Na","i a","k hi","m e","Ġ U","Ġ COONa","}} :\\","Ġ6 8","ĠH E","ĠH K","AD M","19 96","ĠO I","AI C","ĠBa SO","}^{+ }}","gam ma","9 65","C P","E BC","K N","c b","c g","{ {","Ġ ,\\","^{ (","Ġ8 8","Ġ20 22","ĠC B","ĠB N","13 5","24 0","ĠS in","ĠE D","Ġ200 1","AF E","AO M","BT NT",")^{+ }","* *)","6 25","D BA","F A","G E","O BC","S igma","l u","y Ot","Ġ L","Ġ5 9","... )","ĠM K","ĠAB M","COO NH","BE C","ĠK OH","Zn O","ĠCu O","* (","/ \\","8 7","B IC","C LN","H BC","I BC","K M","M AD","O AC","Q P","t u","v i","Ġ ?","^{ *","Ġ6 7","})^{ \\","Ġcos a","AM H","ĠAB H","MA N","ĠD A","BH C","ax it","}^{- },","Ġ200 6","ox it","BT KL","mi d","965 00",") }(\\",") ...(",": (\\","D AH","E AD","} ...","}} }}}","}) }}","Ġ5 7","AB O","cos C","12 6","12 7","ng uy","NH CH","Ġk x","ĠO N","DC A","Ġp t","ĠP b","Mg CO","ĠE B","Zn Cl","Ġ.... ...","Ġ.... ....","}^{- }}","Cr Cl","8 00","D AM","E K","O Q","m u","Ġ1 11","Ġ2 25","}} ,","Ġ5 3","AB N","20 22","Ġ6 1","Ġ8 2","Ġ8 5","{( (","ĠA P","Ġ12 1","ĠB r","14 0","abc de","ĠAC B","Ġp cm","lo i","ĠBa CO","ĠAg NO","0 35","2 16","E BD","E DC","I I","N I","O n","R T","T M","k x","Ġ( |","}) ,\\","Ġb d","Ġc m","Ġc n","Ġa rc","CO D","ĠH N","13 4","ĠM nO","22 2","ĠI K","BE D","ĠAH B","BF C","}): (\\","7 00","C AH","E CB","F H","H S","K E","K AC","M in","M AH","o i","p h","Ġ1 30","}} })","}} .(\\","Ġc d","Ġa y","AC K","ĠA DE","Na HSO","Ġ16 2","over brace","19 9","ĠO K","MB A","Ġp H","ĠE H","BM D","ĠK B","AN M","}^{- }\\","1 15","; ^{","B Q","H AD","N D","P N","a su","e arrow","k t","m t","n C","r ed","Ġ+ };","^{ ^{","Ġx CO","}) ,","10 10","20 1","Ġ9 5","Ġ20 02","Fe CO","100 6","25 6","13 3","ĠM F","}; (\\","14 3","}| )^{","Al a","ĠD K","BA I","ĠI E","BE F","ĠAl a","Ġv c","KH SO","_{- }^{+}\\","}^{* }","sa u","me asu","red angle","measu redangle","B MA","B MC","B OD","C AE","G H","I F","I O","S M","^ \\","s d","v x","x sin","x Ot","{ ^\\","| .","Ġ COOCH","Ġm n","}( )_{","10 6","CH OH","Ġ9 7","Ġ9 99","AC I","Ġ10 6","Ġ12 3","00 5","Ġ16 9","19 90","ĠM O","BD E","CD A","MC A","ĠD I","CA N","Mg SO","}: (","ĠF C","min y","8 75","D P","Q M","T N","a a","h e","k a","s ta","t b","y Oz","Ġ }\\","}{ |\\","Ġ3 333","AB K","10 4","20 2","Ġ6 00","Ġ7 9","Ġ10 2","ĠH A","ĠH O","100 7","00 8","13 6","19 91","14 9","BD M","ĠO E","CB F","ĠS i","}}) :\\","tr ong","AN B","AK B","ĠCu SO","sta r",") !",") }(","H Br","I G","I P","I CB","L i","M CB","M OC","N K","c u","e s","f ra","g i","k h","k k","n s","n CH","{ ...","} ....","Ġ+ }}{","}} )}","Ġc b","Ġ8 9","Ġ7 7","{( }","BC E","BC N","})_{ \\","Ġ12 8","]{ (\\","100 8","AD H","19 2","AH M","AE H","22 4","CD E","Ġ24 0","ĠD N","BA K","BA O","Ca SO","ĠP Q","math fra","Ġ27 3","DE F","dd H","BN M","|}{ |\\","mathfra k",") /(","C Q","E O","E BA","G I","G K","I AB","O AM","i l","n p","n t","t m","x cosx","| )^{","Ġ1 17","}} }\\","}} .(","Ġb a","Ġ6 25","AC O","ĠC P","100 00","ĠB AC","25 0","19 6","ĠM P","AM O","AH E","24 3","ĠN Q","ĠN e","ĠE G","44 4","Ġcot g","0 23","2 99","6 00","B OA","E CD","K F","O CB","P t","R COOH","T H","Z E","b k","d m","g ra","k b","l un","n x","n ot","p hi","x Oz","z Ot","}} )(\\","Ġc h","}}{ {","Ġ5 12","Ġm l","AC N","CO CH","ĠH F","Ġsin a","Ġ12 6","ng h","14 2","Ġd pcm","ĠO P","CD B","ĠAC M","ma xy","ĠN A","Ġp q","ĠFe O","ĠE I","ĠI H","ĠI N","BM E","Ġ27 0","Ġ.... ........",")^{- }\\","Ġabc d","ĠG M","ch ung","BT E","}): (","OOC CH","gra ve","( **)",", (\\","3 000","4 000","6 76","C h","E AM","H AE","J C","K AB","M CD","M DC","M OB","M ax","M HB","P H","S D","a O","c ung","g c","n Fe","n NO","u v","x C","} .....","}) ;\\","Ġc z","}\\ }","ab x","ĠA MB","Ġcos C","Cl O","Na Br","ĠCH CH","AH D","tan C","22 22","Ġ25 6","CB H","AI K","\\% }{","BK C","08 2","ĠCa O","EB F","BO K","en z","ln x","Mn SO","}^{* })","ank en","cg v","es te",") //","2 60","A L","E MC","G F","G X","H AM","H CA","I BA","K HCO","N Q","N AC","O O","] {-","c o","c y","d h","d t","d ng","n n","o n","u ch","v a","x A","Ġ i","ac os","Ġ1 16","}) ;(","Ġb n","{( (\\","BC F","BC K","ĠA O","16 9","Ġ... \\","11 11","100 5","AD O","25 00","00 1","pha n","tan B","ĠO x","ĠO z",".... ...","Ġ15 77","DC E","Ġ13 6","Ġ+} /","MA O","BA x","BH A","50 1","ĠE K","ĠK H","45 6","ĠF B","ch ia","ms t","tg pu","nguy en","mu oi",") *","3 15","7 29","A T","D MB","G N","H e","J A","K BC","K CB","M S","N E","S N","a u","b y","g lu","l t","u c","v ar","x Fe","z Oy","| ;","Ġ J","}}{ |\\","Ġ5 00","Ġm t","Ġm y","Ġm sin","sin t","Ġ9 2","AC F","}, ...","ĠA EF","ĠC C","100 1","AM D","}| }{|\\","BD F","AE M","^{- }}}{","CB M","Ġ13 2","}}) .\\","ĠFe SO","ĠE A","ĠE M","ĠI D","BE A","ĠK M","AI E","DE A","29 6","AO E","03 75","CE D","Ġcot C","66 6","'' (","'' _{","Ġ199 5","uch y","chia ht",") }.",". }","2 10","4 99","9 00","B CH","B OI","C MA","D OC","D BE","D AK","G O","I MC","M ON","N BC","O CD","P E","\\ };\\","a rc","n earrow","o c","s o","u te","x a","x AB","y x","z o","ac ute","Ġ2 16","}} }}{","Ġ( ...","Ġm sinx","10 7","Ġ6 9","BC M","Ġ10 10","ĠA MC","... }","ĠH Br","Ġ12 4","18 5","Ġ18 9","19 95","AH F","Ġd x","BD H",".... ..","24 5","ĠAC D","Ġ25 0","MB N","60 5","Ġ24 3","}}) :(\\","Ca uchy","ĠN B","CA K","BE M","ĠK N","AK D","\\% }","mod p","ĠCa Cl","ĠBa Cl","BF E","min u","NaCl O","ĠMg Cl","NT K","\\};\\ {","! }{",") ...","3 44","4 36","5 25","6 75","A x","B MN","D Q","D AN","D HC","E AN","E AF","F I","F M","G G","H BA","H AK","H COONa","K AE","M CO","O S","R COO","b i","b n","d k","m g","s m","s p","t Oy","t Ot","t Oz","v ung","x x","x sinx","y s","Ġ+ ^{","}} :","}} |","}} }.\\","Ġ3 20","Ġx t","}) ...(","AB F","AB I","Ġ9 1","OH C","Ġ8 00","Ġ7 3","Ġ7 50","Ġn e","Ġn x","BC I","ĠA A","ĠA G",")} :\\","})_{ (\\","ĠC AB","15 5","ĠB B","ĠB AD","AD F","18 7","00 3","ĠCH OH","ĠCH Br","19 5","19 80","19 86","14 7","ĠO OC","Ġbc x","Cu S","Ġ14 3","Ġ14 7","COO K","DC M","ĠAC E","30 1","ĠD O","BA F","ĠN i","CA F","MN P","ĠP T","th eta","Ba O","ĠK D","ĠK Cl","DE B","AF D","CM D","xyz t","BI D","cot B","DH A","97 97","Ġ199 2","9999 999","375 9","HCOO NH","not in","nguyen tu",") {.","* *","0 65","3 99","6 72","B S","B OM","E AH","E BM","F BC","G T","H Q","I AC","I AD","I DC","J B","M BD","O DC","Q A","b ox","b it","c ng","d p","f lo","m sin","m dd","n Al","p hng","v y","y Ox","y Om","| (","Ġ {(","Ġ ln","^{ _{","}{ }","Ġ3 99","Ġ3 000","Ġ( {","}) }\\","Ġc y","AB P","CH A","Ġ9 4","Ġ10 4","Ġ10 000","ĠA Q","ĠA DC","ĠC AD","15 8","Cl H","Ġsin B","ĠB O","ĠB Q","ĠB IC","25 5","13 2",")}{ -","19 8","19 75","19 85","ĠM in","AM E","AM I","AM K","NH C","}; ...","14 5","ĠO F","ĠAB E","set minu","^{- },\\","CD M","30 7","30 8","MA I","MC N","OB A","23 3","ĠS I","BA N","all setminu","CA I","CA x","ĠK A","ĠK I","AN C","AI D","28 9","Ġ40 36","Ġ19 2","Zn SO","AK C","AK M","// //","ĠAD M","CE A","MD A","EF D","ĠG n","BN C","an d","ĠZn Cl","AQ P","})^{+ }","^{* }","chiaht cho","436 2","sm allsetminu","box ed","flo or","smallsetminu s",") }^{",") ...\\",", ...","0 12","0 16","0 24","1 200","4 20","4 50","4 35","5 12","5 13","6 605","8 96","; ...","A J","C MN","D CH","D OB","E CA","F AE","H G","H P","I S","I AM","M X","M OA","N AB","O CH","P F","P d","[ ]{\\","b ng","i s","k hng","l it","n SO","t in","x H","x i","x OB","x Om","y l","| }{|","Ġ o","Ġ }(","Ġ or","Ġ= ^{","ac b","Ġ1 75","Ġx H","Ġx x","Ġa k",".. {.",")( ...)","10 9","CH K","Ġ9 00","CO B","Ġ8 7","Ġn C","Ġ10 7","ĠA HC","ĠA DB","ĠC Cl","15 00","11 9","Na H","ĠB P","18 75","00 2","00 6","00 75","13 8","Ġ18 8","AH N","17 0","et e","ĠO t","ĠAB I","24 2","30 2","CB N","OC A","BH D","BH E","05 0","MN B","MN C","ĠE N","ĠI F","ĠI O","BE H","BM I","ĠK P","Ġ19 8","44 1","ĠV al","80 8","AO N","}: (\\","MD I","\\% .","\\% \\","CN M","ĠAM H","ĠG B","Sin x","Ġ199 7","ti l","ĠMn SO","Ġarc sin","BCN N","lun ng","ngh im","enz en",")// (","cy c","% )","( )",") !}","0 125","3 24","3 84","4 25","? ?","A n","B GC","C Cl","D IC","D IM","E OB","E AI","E DA","F G","H CB","H OC","H AN","I Q","K DC","M M","M OH","M Cl","P G","Q N","Q R","S K","T B","T E","b O","c c","c ba","d O","e il","n N","n c","n y","n HCl","o pt","r ong","t x","t ac","t ha","x f","x On","{ }\\","| .\\","Ġ .","Ġ\\ {\\","}{ {\\","ht he","Ġ1 18","_{ (\\","}} })^{","}} )\\","Ġ3 75","Ġ( |\\","Ġx Fe","}) }.\\","}) }(\\","Ġ4 50","wide til","Ġm g","}( *)","20 3","CH B","CH Cl","CO A","CO M","OH B","Ġ8 3","Ġ10 3","Ġ10 24","ĠA ED","Ġcos B","{- }{","ĠC MK","15 9","ĠH COOH","ĠH BA","Ġsin A","100 4","ĠB G","ĠB EC","ng dng","25 7","Ġ18 2","19 97","ĠM AB","AH I","^{+ };","99 26","Ġ15 6","Ġ14 5","DC I","30 9","Ġ13 7","MC K","OB M","su y","}}) .(","CA O","50 4","40 4","Ġ100 8","BM O","ĠK E","AI O","28 0","ĠAH D","Ġ19 6","Ġ19 83","Ġac y","Ġac os","IC K","ĠCu Cl","EC F","})}{ (\\","EF H","ĠAl Cl","ĠF H","Ġcot B","ĠNa NO","BI K","BI M","MH N","ĠG D","}^{+ },","HO CH","77 7","ĠMg O","}* (","})^{- }\\","Ġ199 8","Cos x","cg c","^{( }","CHOH CH","}..... \\","widetil de","( .",") }}{\\",") *(","* ...",". ^{","/ (\\","0 22","2 15","3 36","4 12","4 75","7 10","7 65","A r","A u","B L","B ON","C S","C ID","D MA","D BH","E DB","E IB","G Q","H BE","H KC","I DA","J D","K P","K AD","M CH","M HC","M EC","M EF","M EB","M ED","O DB","P I","P S","P V","R Cl","S n","T S","U CLN","X D","X Y","a i","b set","d o","g a","h it","l m","m H","m O","m Oy","n ha","n Na","p V","p x","s earrow","x AC","Ġ /","Ġ sqrt","Ġ }}","Ġ pi","Ġ lim","Ġ\\ {(","Ġ= _{-}^{+}\\","Ġ- },\\","}{ {","}} }{(","Ġ3 24","}) |","}) }}{","}) ,(","}) //","Ġy H","Ġc p","in h","}}{ .","Ġa z","Ġ5 050","AB G",")_{ (","sin b","Ġ6 50","}. |","AC x","CO NHCH","OH D","Ġ8 6","}^{ }\\","ĠA MN","ĠA EC","ĠA OD","12 2","12 12","Ġcos A","15 2","16 1","16 8","ĠH e","ĠH AB","Ġ12 2","11 4","100 3","ĠB OC","ĠB MC","AD N",")\\ }","al ph","18 00","19 3","ĠM Q","ĠM T","Ġk m","sinx cos","14 6","tan a","Ġd k","99 4","99 5","AE I","ĠO Q","ĠAB O","CD O","Ġ14 9","ĠAC I","MB I","Ġmol n","ĠD P","su bset","27 2","ĠN F","ĠN K","ĠP B","ĠP C","ĠP D","50 3","Ġtan B","th c","tr n","ĠE BD","Ġ100 7","Ġ100 9","ĠK MnO","28 8","HC I","HC M","Ġ40 33","Ġ40 26","); (\\","Ġ27 2","AK E","29 7","DB I","Ġ28 8","EF M","mod m","ĠF D","ĠNa AlO","ho ca","120 1","cot A","cot g","MH D","ĠG C","34 3","DM E","Sin A","MO Q","ĠHCl O","HF E","IN M","9999 99","Ġ)_{ (","cn ti","ct u","SI ZE","ank an","khi x","^{* })","|. |\\","}.... \\","ĠSI ZE","tin hthe","Ġacos x","alph acos","2 75","3 20","3 16","3 50","; |","B CO","C d","D T","D AF","D MH","E OD","E HB","E OF","F N","F EC","H BD","H MB","H DE","H MK","I BD","I BH","I BM","I AK","K CA","L T","L eft","M T","M SO","M AE","N MC","O BD","O DA","O COCH","Q K","Q AC","R A","S E","T ac","T nh","V y","a t","b enzen","c hat","g o","k et","l i","n ht","n Ba","p A","t s","t nh","v b","v s","x b","Ġ ,","Ġ .\\","Ġ- }.","Ġ1 102","Ġ2 10","Ġ2 32","Ġ2 65","Ġ2 97","}} ...","}} )}{","de hit","Ġy B","Ġy x","Ġy CO","}}{ |","Ġm cosx","AB x","10 24","20 4","20 7","CH I","Ġ7 00","Ġn SO","ĠA IB","ĠA OM","Ġ20 2","ĠC BD","ĠC MD","Cl CH","ĠH I","ĠH AC","Ġt h","Na I","ĠB DC","ng ng","Ġ16 00","19 45","19 92","19 89","ĠM ax","AH O","Ġab y","^{+ }(","^{+ }}\\","^{+ },(","tan A","Ġd a","Ġd b","Ġ| (\\","BD N",".... (","^{- }}{","})( (","Cu FeS","COO R","24 1","24 99","MB O","CB I","Ġ13 3","MA K","Ġ24 2","75 0","OC M","}}) ...(","ĠBC N","Ġ30 21","ĠN D","05 5","MN PQ","ĠP R","36 00","Ġg c","ĠE AB","OA I","ĠI G","Ġ100 6","AN D","33 1","Ġ17 0","ĠAH E","Ġ19 3","or x","DE H","Ġac x","AF H","44 8","AO I","49 6","49 01","): (\\","Ġ50 4","CM R","CE M","04 8","})}{ -","ĠAl O","ĠF E","ĠF M",")^{- }}}{","ĠNa HCO","BI H","BI O","37 6","ED F","ED H","ĠG N","ch s","min f","min o","ĠQ I","DK A","..... (","DF E","hi u","_{- }^{+}","Ġl g",")/ \\","hay x","................ ........","kh c","arc sin","bO c","Left arrow","( *",") )}{",") }}(","1 16","4 40","5 75","5 05","6 70","7 20","7 75","8 64","8 000","; |\\","A OH","B e","B Oy","B OE","C ot","C MB","D AI","D OE","E Q","E MA","E IA","E PD","F AB","G S","H BM","H ED","I AE","I CA","J K","K BD","K HC","K CE","K EC","L ys","M NH","M IB","N G","N MB","N MA","N CA","N BM","O CO","O NO","O AD","O AE","P K","P R","P CB","R OH","X E","X O","Y Z","a h","b u","b z","c ac","d v","e m","g v","h b","l c","l ta","m y","n OH","n Ca","n NaOH","o H","o k","v l","x CO","x BA","y y","y On","{ {\\","| }}","â Ģ","Ġ ;\\","Ġ /\\","Ġ+ }.","Ġ+ };\\","Ġ2 20","Ġ2 26","Ġ2 90","}} })}","Ġ3 50","Ġ( ....","Ġx A","}) })","Ġ4 41","de lta","Ġb sinx","Ġb cosx","Ġc ung","Ġc gv","Ġ5 40","Ġm H","Ġm cos","}( )","}( {\\","AB AC","sin AOB","20 8","CH M","Ġ9 3","(\\ %)","AC P","OH CH","cos t","Ġ7 29","Ġn t","Ġn y","Ġn NO","ab z","BC y","ĠA CH","12 9","Ġ20 1","ĠC BA","ĠC LN","Fe Br","15 1","15 3","15 6","16 3","16 5","16 289","ĠH SO","Ġt rong","Ġ12 7","11 3","11 7","Na CrO","ĠB L","13 7","Ġ16 8","Ġk b","Ġk g","Ġk hi","AH K","17 1","17 7","^{+ }}{","Ġd u","BD K","AE O","CD N","Ġ14 6","DC F","ĠAC N","Ġ25 2","Ġ25 9","MB E","CB O","bc a","bc x","Ġ+} :\\","MC E","ĠD Q","23 2","ĠS C","ĠN P","Ġp x","05 2","ĠP I","ĠP O","Ġtan A","Ġtan C","th uc","pt m","ĠI J","ĠI P","HCl O","ĠK NO","})} _{","AI M","28 7","HC E","Ġ.... .....","56 25","ĠCO NH","DB K","26 5","ĠAD H","PO Q","MI N","Ġax it","ca n","CM E","CM K","98 4","CE B","CE F","CE H","MD K","65 17","EF C","ĠBH A","ĠF A","ĠF I","nO m","OD H","ex is","HB K","CN I","ho cm","ĠCa SO","BI E",")) )","34 2","an in","BF D","Ġ80 72","hoc t","43 75","BT DT","ms n","Sin B","MO x","CK E","ĠDC M","CI N","ĠQ C","ĠQ K","ĠQ M","HF C","DK B","..... \\","ĠAI E","ĠAI N","MF C","Pb CO","Ġs d","Ġ199 9",")^{+ }}",")^{+ },(","FE H","nh n","ĠCOO NH","Ġma xy","ĠCr O","123 456","tu a","nguy n","II I","Ġarc cos","ph en","aO b",")... (\\","9797 98","An k","suy ra","*... *","ket tua","exis ts","! !","! .(","( {","( ...)",") )\\",") }}\\",") }).\\",") .....(","0 13","0 95","2 20","3 35","5 40","6 88","6 71","8 25","A s","B OH","B IA","C L","D MC","D OA","D BM","D IB","D AO","E BH","E MN","E AO","E IC","E HF","F K","F O","F CH","F AD","F DC","F CB","F BA","F DE","F AK","F DA","G P","G lu","H DC","H AF","H NM","I CH","I OB","I MN","I EC","I EA","K BM","K CM","L B","M J","M IA","M OI","N F","N CO","N OH","N AH","N AE","N BH","N MI","N CM","N MH","O T","O MN","O IA","O ID","P AC","P Cl","Q I","R O","R CO","R COONa","S AB","S ABC","T L","T i","T he","X t","[ {","a sinx","a tm","c O","c ctu","e tan","e pt","h c","i i","i u","k c","k y","l am","l floor","m m","m sinx","n a","n HNO","o cho","p ept","q t","r u","r floor","t ng","v im","v nghim","x B","x M","x m","x in","x OA","x ON","y ta","y OB","z Om","{ ..","{ ^{\\","| (\\","} ?","} ^","} //","} ........","« }","â ĸ","Ġ w","Ġ ha","Ġ GA","Ġ COOC","Ġ+ }(","^{ âĸ","Ġ- ^{","Ġ1 15","Ġ1 19","ow n","Ġ2 75","Ġ2 80","}} };","}} }}{\\","}} }(\\","}} *\\","}} |}{|\\","Ġ3 42","}) }}^{","}) /(\\","Ġ4 224","Ġb k","Ġc ho","in g","Ġa n","Ġm b","}( **)","AB t","Ġ6 61","CH N","CO I","CO NH","pr opt","Ġn O","})^{ {","ol e","ĠA x","ĠA OB","Ġz y","Ġ20 5","Ġ20 8","Ġ20 30","ĠC G","ĠC Q","Fe I","16 6","ĠH G","ĠH Q","Ġsin C","Ġ... (","Ġ... }}}","Ġt x","NO y","11 8","11 111","100 2","100 000","ĠB DE","ĠB MH","AD I","al anin","18 4","00 9","13 13","ĠCH A","Ġ18 162","Ġ16 7","19 0","19 83","ĠM y","ĠM Cl","ĠM ON","ĠM BO","Ġk mol","sinx sin","AH Q","Ġab x","14 8","14 00","17 6","Ġd c","Ġd d","Ġd t","99 3","}}} ;\\","et il","AE P","ĠO AB","ĠAB K",".... .....","^{- }.","CD F","CD K","MB F","CB E","Ġ13 8","OB H","ĠD AB","ĠD HB","ĠD OQ","23 1","23 5","23 41","BH K","BH M","BH N","BH O","Ca C","ĠN I","ĠN M","Ġp b","05 6","ĠP H","ĠP M","ĠP t","ĠP x","36 5","Ġg t","ĠFe S","40 8","40 26","tr nh","ĠE CB","OA N","Ġ100 1","Ġ100 2","Ġ100 3","ĠK F","ĠK HSO","lo ai","Ġ36 4","^{+} /","Ġ40 43","Ġ19 85","AK I","ĠCO B","ĠCO D","44 44","26 3","ĠAD N","49 7","MI K","MI O","98 5","CE N","MD H","EF A","mod n","ĠF G","ĠNH CH","ĠNa HSO","ĠBD H","BK E","08 75","ĠAM E","CF D","Ġ26 9","ĠG E","ĠG K","dd HCl","dd HNO","Ġv ung","an pha","an dehit","ch n","hoc b","hoc y","DM G","MK H","ĠCl O","Sin C","ME O","ME P","}}}} }{\\","78 9","66 7","OE H","PT K","DK C","DF A","DF C","ĠAg Cl","57 31","ĠZn O","bd a","Ġs au","67 3","OOC C","Mn Cl","HOOC CH","ti a","sl t","1998 1998","ank in","Ġ........ ..","Ġ........ ...","Ġarc tan","aO c","xA y","var epsilon","var phi","vung gc","dp nc","Ġo o","SE R","lc eil","âĢ Ļ","phen ol","lam bda","pept it","^{âĸ «}","propt o","etil en","! .",") -",") )}",") }}{(",") }.(\\",", |\\",". |",". |\\","0 11","0 44","0 96","0 175","1 125","2 17","2 999","4 242","5 88","6 40","7 60","9 12","9 19","9 75","A a","B J","B NH","B JC","C J","C IB","C PQ","D L","D IA","D OM","D HB","E CH","E MB","E HC","E AK","E CM","E MF","E KB","F CD","F BH","F ED","G MN","H MA","H MC","H MN","H IE","I L","I HC","I MD","I HB","I ED","I DH","I NC","K X","K a","K CD","K MB","K OC","K MC","K BA","K AlO","M a","M e","M DE","M HCO","M DB","M OD","M Oy","M EA","N DC","N CB","N EC","N DM","O MA","O IC","O KC","P AM","P MQ","Q B","Q E","Q F","Q O","Q S","Q OC","R Q","R x","R CH","R NH","S G","S H","S LT","T C","T h","V al","X Cl","Y ON","\\ }(","a ng","c de","d A","d C","f r","g g","g ct","h n","i p","k im","k mol","l s","m A","m CO","n X","n b","n m","n u","n Cl","n Cu","n chs","o g","o m","o me","p B","p g","t n","t t","t Ox","u thc","x O","x n","x o","x BC","x mol","x CD","y A","y H","| |","} ]{\\","Ġ ;","Ġ )\\","^{ |","^{ .}","Ġ- }(","Ġ- };","Ġ- },(","Ġ- },(\\","}{ ...}","ig i","Ġ1 14","Ġ1 111","Ġ2 12","Ġ2 24","}} }}}{","}} |}","}} ...\\","}} ).(\\","}} ..{.","Ġ3 19","Ġ3 45","Ġ( {\\","Ġx B","Ġx Oy","Ġ0 2","de g","Ġy t","Ġc xy","Ġa m","Ġa t","Ġa sinx",")( (\\","Ġm NaOH","}( (\\","AB Q","{\\ %","20 9","20 25","Ġ6 71","Ġ6 76","CH D","CH Br","Ġ9 80","Ġ9 9999","Ġ9 999","AC y","CO E","CO F","Ġ8 000","cos b","cos e","cos y","Ġ7 20","Ġ7 80","Ġn N","}^{ .}","ab xy","ol i","}, ((","Ġ10 80","ĠA EB","12 343","Ġ20 412","ĠC AM","ĠC AH","ĠC MN","ĠC DA","mol n","16 4","ĠH P","ĠH g","ĠH AD","ĠH COOCH","ĠH COONa","ĠH OOC","Ġsin t","Ġt g","Ġt y","11 20","ĠB HC","ĠB MI","ĠB OM","AD K","18 1","18 2","18 6","18 9","ng t","00 4","00 7","00 000","13 1",")}{ |","Ġ18 1","19 30","19 93","ĠM BD","ĠM CB","ĠM IC","NH B","Ġk a","AH BC","Ġab z","^{+ }}}{","}| (","}| }{","et yl","Ġ| |","AE K","AE N","ĠO AC","ĠO OCH",".... \\","22 6","22 7","Ġ15 2","Ġ15 4","Ġbc y","Ġ14 1","DC K","ĠAC K","Ġ25 00","30 6","30 30","MB H","CB r","60 2","Ġ24 50","OC I","Ġsinx cos","OB I","ĠD G","ĠD AC","ĠD EC","23 8","ĠS n","}}) }{\\","BA P","BA y","BH F","Ġp u","05 000","ĠP E","ĠP N","50 2","th e","th i","th ng","pt C","40 25","ĠE O","ĠE AH","ĠE IB","ĠE BI","ĠI I","BE K","BM K","ĠK Q","ĠK HCO","AN E","45 5","33 33","AI H","big cap","Ġ40 1","Ġ40 44","Ġ19 30","DE I","DE M","Ġ45 00","56 78","}^{- }.","}^{- },\\","Ġ-} :","AF B","29 4","Ġ28 9","IC E","IC M","MI H","MD O","EF GH",")^{- },(","nO z","OD M","ap hng","ĠBD M","ho ac","BK H","BK I","Ġ64 00","37 8","EB O","ED M","cot C","MH F","ĠG H","ĠABC vung","}/ \\","55 5","55 55","2000 0","39 5","AG C","AG E","ch u","ch nh","54 6","Ġe n","it ip","88 8","88 9","}- (","MO P","ĠDC A","HD F","78 2","Ġ39 2","ĠAF D","MF D","MF O","IE H","'' '","})^{- }}","})^{- },(","Ġu v","Ġ199 0","ĠCOO K","9999 95","max f","cn ht","0000 0000","ĠNaCl O","ĠCos x","sa ocho","EG F","................ ................","HN D","cb t","ĠL ys","ĠPb S","OQ N","Ġ123 456","aa a","202 202","Ġ............ ....","2222 22","ĠCaO Cl","enz im","OO CH","co zo","phan ung","315 4","glu cose","},... ,","Ax it","bi uthc","mg ia","Ġ399 2","};... ;\\","and au","dO b","tha mn","})// (","cnti A","ĠBCN N","mino axit","dv C","16289 296","âĢĻ }","fr own","ome ga","12343 21","5678 765","aphng ic","( @","( ^{",") }}}",") }})",") }):\\",") }^{-}}",") }):(\\","0 20","0 14","0 32","0 64","0 72","1 101","1 102","2 18","3 80","4 05","5 72","5 000","5 76","7 25","7 23","7 28","7 80","8 24","8 27","8 72","8 052","9 02","9 72","9 375","A NO","A NH","A SB","A minoaxit","B i","B PC","C R","C o","C IA","C ho","C PD","D CO","E OC","E BI","E OI","E KA","F AM","F BD","F IA","F CN","F Oy","F DH","H DB","H EC","H EF","H DA","I t","I NH","I DB","I OE","J AI","K O","K l","K CH","K CO","K AH","K Al","K BH","K AN","K Br","K EB","K CI","K hi","K Mn","L A","L K","L M","L ic","M x","N J","N R","N Na","N AM","N CD","N AK","N MK","N MP","N MF","N KC","O Cl","O MB","O MC","O EF","O EA","O KH","P BC","P AO","P CM","P CN","P AQ","Q D","Q OP","R M","R b","S EG","S QA","T K","T R","T m","T al","T mx","T an","T MDK","V H","V N","V O","b andau","c r","c ab","d r","d y","d ox","d kt","e cho","h l","i x","k d","k l","l a","l ti","l ic","m C","m p","m v","m Cu","m tanx","m en","m Oz","m On","m lnx","n F","n CB","o zo","p dng","s ac","s AM","s igma","s nguy","t o","t rc","t nc","v n","v t","w ar","x k","x AM","x Ox","y a","y k","y AB","y BC","y AE","y OC","y Oy","y cbt","{ }{","{ ....","| }.","| ;\\","| }{(","} +","Ġ )(","Ġ phan","Ġ+ }{","Ġ+ })","^{ ^{+","Ġ- }{","Ġ- _{","Ġ- }}{","Ġ- }}\\","}{ ^{","ig c","Ġ1 13","Ġ2 22","Ġ2 33","Ġ2 98","Ġ2 31","}} }|","}} }}.\\","}} }).(","}} |.|\\","}} .....\\","Ġ3 43","Ġ3 41","Ġ3 84","Ġ( )","Ġ( ..","Ġ( ((","Ġx M","Ġx a","}) }.","}) })^{","}) }}{\\","Ġ4 32","Ġ4 000","Ġ4 0000","de f","Ġb b","Ġb m","Ġb t","Ġb HNO",")^{ (","Ġ5 29","Ġ5 000",")( |","Ġm N","Ġm Cl","Ġm oi","Ġm cac","10 2000","10 94","Ġ6 51","}\\ %","}. |\\","CO N","ot ha","ta ng","ta mg","Ġ7 21","Ġ7 05","Ġ7 36","Ġ7 89","Ġn A","Ġn B","Ġn b","Ġn p","Ġn OH","Ġn Fe","}^{ }","ab b","{( {\\","BC T","ĠA L","ĠA u","ĠA OE","ĠA KH","Ġz c","Ġz t","12 4","ĠC AK","ĠC AO","ĠC EB","ĠC MH","Fe xOy","15 40","15 01","ĠH BC","ĠH CA","ĠH FE","rc eil","Ġ... )","Ġt b","NO B","NO C","Na OOC","ĠB T","ĠB x","ĠB AH","ĠB DA","ĠB ED","ĠB KC","ĠB FE","AD G","AD P","AD HE","18 3","ng v","25 2","ĠCH COOH","ĠCH COOCH",")}{ ...}","Ġ18 00","Ġ16 5","Ġ16 6","19 4","19 78","19 94","19 87","ĠM G","ĠM Y","ĠM DC","ĠM TN","AM F","AM P","NH E","NH M","AH G","cosx cos","^{+ })","}| }\\","Ġd f","Ġd v","Ġd y","99 0","99 6","et ic","Ġ| (","BD I","ĠAB F","ĠAB N","^{- }(","22 3","})( (\\","CD H","DC N","ĠAC O","Ġ25 8","CB K","60 56","60 61","60 62","Ġ+} :","Ġ24 6","ĠD BH","Ġ60 57","23 6","27 0","ĠS x","}}) :(","BA u","Ca HPO","ĠBC D","ĠBC E","ĠN E","Ġp a","Ġp m","MN A","ĠP A","ĠP y","ĠP AM","Ġtan a","Ġtan b","ĠFe CO","35 3","40 20","tr ung","tr ang","ĠE Q","ĠE CD","ĠE DC","ĠE MC","ĠE BA","BE O","BM F","BM H","AN P","AI N","AI t","Ġ17 1","Ġ17 2","Ġ17 6","lo iv","bb b","ĠAH K","ĠAH M","ĠAH P","Ġ40 42","Ġ19 80","Ġ19 78","Ġ19 79","02 25","}.( (","DE K","AK H","56 2","56 5","56 56","}^{- }(","}^{- },(","ĠCO I","Ġ200 38","un a","AF C",").( ...","29 1","DB F","DB J","ĠV N","26 9","AO K","AO Q","ĠAD F","ĠAD K","},( |\\","IC F","PO N","Ġ50 3","MI D","MI P","CM O","EC K","\\% _{","\\% .(","EF B","OM E","OM F","}}( )",")^{- }.",")^{- },","nO t","HB N","CN B","CN E","CN P","BK D","BK M","08 5","}^{-} /","ĠAM O","37 37","Ġ23 9","CF I","ED I","MH A","ĠCD O","dd B","ĠBa O","IM E","IM K","ĠAE H","ĠAE I","ĠAE M","ch i","ch war","Ġq p","DH E","DH M","DH O","........ .....","), (\\","ĠX YZ","NC I","hoc p","EA P","EA Q","46 2","46 8","MK A","88 2","77 77","MP N","MP Q","MO E","CK A","CK B","CK D","CK H","CK M","}}}} }}","Ġ33 00","KH M","DK XD","ĠAN B","ĠAN E","DF B","DF H","ĠMg CO","ĠMg SO","ĠAK C","Ġ39 34","Ġ1000 00","79 2","IE M","IK C","'' )","})^{- },\\","IN D","mn p","IH M","{| }{","lim f","lim y","ĠT L","ĠT ac","}}; (\\","AQ M","225 0","Ġ38 7","AEF D","ĠCos A","ĠABD v","Gly xin","Hg Cl","Ġmax f","AS Q","CT PT","ĠU CLN","ĠL HS","vi x","Ġpt C","ĠPb SO","Ġ85 37","sd AB","|. |","TN N",")! ^{","cu a","gi pm","gi am","{... }","lun u","xC n","},... ,\\","arc cos","phng ic","phng trnh","Ġ399 0","//// ////",";... ;","AJ I","acb on","?? ?","dO a","tha mgia","Ġsqrt x","chat thamgia","OCO C","bu t","hb h","Ġ226 8","thuc Z","Ank en","etan ol","yta go","}// \\","919 19","gct ngng","thng hng","chu vi","cnht ngng","PCN V","SEG CD","dkt c","snguy nt","tnc ngl","Ġmcac chatthamgia","tamg ic","chwar z","! (","( ..","( |\\",") })^{",") },\\",") })\\",") }},\\",") },(\\",", |",", }\\",". {\\","0 97","1 100","2 13","2 14","3 200","3 30","3 32","3 125","3 88","4 60","4 23","4 64","5 17","5 99","5 45","5 33","5 28","5 70","5 97","6 14","6 23","6 39","6 78","6 79","6 92","7 05","7 84","8 36","8 376","9 15","9 60","9 35","9 80","9 70","= }\\","A SO","A not","C U","C X","C m","C NH","C MI","D U","D o","D MN","D MI","D Oy","D ON","D NC","D OI","D KH","D IK","D at","E P","E Y","E OA","E OM","E BK","E ID","E HD","E KC","E NM","F Q","F AC","F AH","F OB","F CM","F CE","F DM","F EA","F CI","F HE","F KE","G R","G AE","G BH","H H","H J","H L","H CD","H OB","H AI","H IC","H EB","H ID","H DM","H EA","H NA","I OH","I AH","I CD","I OC","I OA","I BE","I DE","I AF","I EF","I EB","I KH","I FE","I OK","J P","J Q","J CI","K J","K K","K V","K AM","K MA","K AI","K DB","K MI","K MD","K OM","K DA","K HB","K CF","K IM","K EA","K ME","K TM","L C","L Q","L HS","L og","M V","M ol","M NO","N AO","N BO","N AP","N KD","O J","O X","O EB","O IM","O PQ","O KI","P U","P CD","P BM","P MI","P IM","P NC","P DM","Q NM","Q AS","R C","R K","R N","R a","R n","R HCO","R CHO","S r","S BC","S abc","S BN","S HS","T O","T PT","U O","U SER","X F","Z T","\\ })","a M","a sin","b r","b t","b mol","c p","c z","c ox","c nh","c Aa","d H","d a","d c","d ac","d cba","e g","g n","g ic","h q","h s","h ch","h cn","i ch","l et","l and","m X","m k","m q","m Fe","m Ot","m ct","m ic","n P","n o","n ta","n NH","n Ag","p C","p OH","r i","r p","r an","s O","s AB","s ol","s BD","s ong","s AN","s pu","s te","t d","t pg","u N","v B","v in","v xy","v ia","x N","x v","x CB","x OC","x pt","x OM","y b","y e","y t","y OD","{ ?","{ }(","{ {(","| ,","| )\\","| };","Ġ *","Ġ :","Ġ W","Ġ frac","Ġ widehat","Ġ }}{","Ġ overset","Ġ su","Ġ ex","Ġ hoc","Ġ ''","Ġ hay","Ġ oxit","Ġ lnx","Ġ+ _{","Ġ+ }}}}","Ġ= ^{\\","ac d","ac y","Ġ1 200","_{ _{","Ġ2 15","Ġ2 100","Ġ2 30","Ġ2 2018","Ġ2 64","Ġ2 96","}} ).","}} )}{(","}} }.(\\","}} |}{\\","}} :(\\","Ġ3 36","Ġ3 35","Ġ3 96","Ġ3 125","Ġ3 95","Ġ3 0000","Ġ3 240","Ġ( ...)","Ġx N","Ġx R","Ġx m","Ġx NO","Ġx HCl","Ġx FeO","Ġ0 1","}) /","}) }^{","}) ...","}) /\\","}) ....(","ha i","ha n","ha igc","Ġ4 99","Ġ4 05","Ġ4 80","Ġ4 455","de nta","Ġb tanx",")^{ {","Ġy A","Ġy b","Ġy c","Ġy d","Ġy k","Ġc c","Ġa a","Ġa f","Ġa xy","Ġa min","Ġa mino","Ġ5 13","Ġ5 19","Ġ5 24","Ġ5 60","Ġ5 88","Ġ5 77","Ġ5 76",")( *)","Ġm O","Ġm d","Ġm q","AB b","AB DC","os nh","sin BAK","10 20","20 5","20 6","20 24","20 35","Ġ6 12","Ġ6 000","Ġ6 70","Ġ6 85","Ġ6 66","CH COOCH","Ġ9 31","Ġ9 72","Ġ9 95","}. {\\","CO H","CO y","OH N","ot ac","Ġ8 052","ta otha","Ġ7 02","Ġ7 96","Ġn Z","Ġn a","Ġn m","Ġn CH","Ġn NaOH","Ġn Ba","}^{ (","{( }\\","}, {","Ġ10 9","Ġ10 05","Ġ(\\ %)","ĠA T","ĠA m","ĠA NO","ĠA OC","ĠA MD","ĠA IM","ĠA ON","ĠA ID","ĠA NC","ĠA PD","ĠA PB","ĠA TL","12 96","12 496","Ġ20 4","Ġ20 23","Ġ20 50","Ġ20 29","Ġ20 26","Ġcos b","Ġcos t","{- }\\","ĠC n","ĠC ot","ĠC BE","ĠC AI","ĠC DE","ĠC MI","ĠC BK","ĠC ID","ĠC ME","ĠC NA","mol CO","15 4","15 7","15 60","16 16","16 80","ĠH b","ĠH MB","ĠH MC","Ġsin b","Ġsin h","Ġt ga","NO A","NO P","Ġ12 50","]{ }","100 01","Na X","Na CO","Na HS","ĠB sin","ĠB AE","ĠB EF","ĠB OD","ĠB NC","ĠB MK","ĠB FD","AD J","18 8","18 90","ng y","25 4","25 9","00 01","00 125","13 9","ĠCH B","ĠCH COO","ĠCH COONa",")}{ {","Ġ18 4","Ġ18 5","Ġ18 000","19 88","19 84","19 79","ĠM CO","ĠM AH","ĠM OB","ĠM BA","ĠM OA","ĠM AN","ĠM AK","ĠM DA","ĠM BK","ĠM BF","ĠM NC","ĠM EA","ĠM IN","Ġk c","Ġk hng","AH ED","Ġab d","17 2","17 3","17 4","17 9","17 17","^{+ }}(","99 7","99 8","BD O","BD T","AE G","AE DF","ĠO G","ĠO n","ĠO CH","ĠO BC","ĠO AM","ĠO CB","ĠO MA","ĠO BH","ĠO IK","ĠAB G","ĠAB P",".... )","^{- }(\\","^{- }:","Ġ15 5","Ġ15 8","Ġbc z","Ġ14 8","Ġ14 00","24 4","24 6","ĠAC F","COOH Cl","Ġ25 3","Ġcosx cos","30 3","30 4","30 10","30 25","CB x","CB z","Ġ13 4","60 9","MA F","MA x","Ġ24 5","Ġ24 01","75 5","OC E","ĠD D","ĠD T","ĠD BC","ĠD AM","ĠD MB","ĠD MA","ĠD IC","ĠD EF","ĠD MH","ĠD HA","Ġ60 49","23 4","23 20","23 45","27 8","ĠS B","ĠS chwarz","}}) ;(\\","BA Q","BH I","ĠBC A","ĠBC F","ĠBC M","ĠN L","Ġp k","Ġp s","CA P","ĠP F","ĠP CM","36 7","Ġg o","th o","th u","th phngtrnh","40 3","40 18","40 22","40 36","40 37","40 723","tr o","32 6","32 12496","ĠE AC","ĠE BC","ĠE AD","ĠE OB","ĠE CA","ĠE DB","ĠE IC","OA K","ĠI BC","ĠI MB","ĠI CB","ĠI BA","ĠI EB","Ag X","Ġ100 4","BE I","BM Q","ĠK K","ĠK r","ĠK AB","ĠK AC","ĠK HC","ĠK EB","ĠK ClO","AN F","AN K","33 60","28 1","28 5","Ġ17 3","HC K","HC L","big cup","ĠAH I","^{+} :\\","Ġ40 16","Ġ40 24","Ġ40 40","Ġ40 34","Ġ19 7","Ġ19 75","Ġ19 39","Ġ19 81","}}{( {","Zn S","Ġ.... ...\\","AK N","64 2","64 29","56 1","}^{- })","}^{- }:","}^{- },(\\","Ġac z","ĠCO E","Ġ-} /","AF O","44 7","29 83","DB G","DB N","DB O","IB K","IA O","26 7","yz t","80 7","80 79","AO P","AO m","AO x","Ġ28 6","49 13","PO K","Ġ50 7","Ġ50 1501","Ġax etic","CM F","03 7","CE O","EC I","\\% )","65 1","65 3","65 28","ĠBH D","ĠBH E","DA x","ĠF K",")^{- },\\",")^{- };(","Ġcot a","OD I","ĠNa Br","ĠNa OOC","Ġ35 2","Ġ35 5","HB I","06 25","96 6","CN F","ho a","BK A","08 4","Ġ.. {.","ĠAM K","Ġ23 45","CF B","CF K","ED O","cot a","Ġ26 1","MH K","ĠCD F","ĠG J","ĠG lu","dd A","dd NaOH","dd KMnO","ĠABC cntiA","2000 00","BN D","Ġ49 5","AG M","BF A","BF H","Ġq a","DH I","ON B","ON F","ON M","ON P","........ ..","ĠX Cl","}^{+ })","ID M","ID N","HO K","hoc c","hoc bng","{+ }\\","DM K","95 95","MK C","MK D","MK I","MK N","MK P","Ġe H","it rc","ĠHC K","BT C","BT e","ĠBE I","ĠBE M","ME H","ĠDC E","CI E","78 7","ĠQ D","ĠQ F","ĠQ N","OE N","DN E","HF J","PT HH","HA Q","BO F","BO S","ĠAI K","AP C","AP Q","57 41","ĠAK F","ĠAF E","MF A","Ġr a","38 6","IE O","Si F","IK A","IK M","Pb O","Pb S","Pb SO","'' \\","'' }{","400 5","ln nht","ln hn","hi a","hi dr","ĠCK B","}* (\\","})^{- }.","IN B","hh uy","hh sau","Ġs BC","Ġs BD","Ġs CD","Ġs BM","Ġs AN","Ġ199 1",")^{+ }.",")^{+ },",")^{+ },\\",")^{+ }/","ĠT an","FE I","67 26","67 48","ĠCOO R","9999 9","Cos A","Cos C","HK M","sinB sinC","EM Q",")| )",")| ))","NT Mg","cn li","0000 00","ĠCos B","MQ C","ba zo","Ġgn k","EI O","sa i","sa up","tg C","tg a","})^{+ }}","})^{+ },","Hg SO","123 45","amin o","me tan","ĠU SER","ĠSin x","QP y","Ġ? ?","Ġ57 120","Ġ111 11","}}, ...","abcde g","kt m","ĠHO CH","ĠSi O","Li OH","cu i","tm dk","cung AM","acos x","1111 11","glu cozo","ĠJ Q","oc acbon","RCOO R","OHC CH","9797 97","** *","bit lm","cng ph","Ġ399 984","ĠMin A","016 5","khng i","ĠABI v","TE X","Ġ450 241","PV C","Ġth uc","ĠMax P","XO Y","cO d","Ġan col","009 46","4444 44","19981998 1998","vunggc vi","Me V","xo y","CHBr CH","the o","hoac x","827 1","Ġdf cm","692 20","970 200","hch c","tpg u","taotha nh","Ġ2029 105","1616 99","40723 23","lnhn hocbng","hidr ocacbon","hhuy n","! )","! )(","! .(\\","! )...(","( *\\",") {",") )(",") )_{",") |\\",") })}",") )}{(",") }}^{",") ....(","* |","* }","* ^{","* (\\",", ,",", {",", }",", ^{",", ..",", ...)",". )",". }{","0 10","0 18","0 19","0 60","0 36","0 40","0 28","0 77","0 76","0 192","0 1875","2 12","2 19","2 200","2 30","2 64","2 1212","3 10","3 12","3 18","3 17","3 40","3 45","3 48","3 1313","4 19","4 14","4 24","4 32","4 45","4 28","4 80","4 65","4 72","4 34","4 70","4 999","4 183","5 10","5 15","5 22","5 30","5 60","5 35","5 44","5 29","5 31","5 34","5 39","5 78","5 333","6 12","6 15","6 60","6 32","6 45","6 26","6 65","6 96","6 000","6 77","6 0000","7 18","7 19","7 14","7 24","7 04","7 90","7 273","7 224","8 10","8 99","8 05","8 56","8 125","8 42","8 95","8 63","8 68","9 20","9 25","9 29","9 31","9 43",": ^{","A V","A Z","A m","A cos","A PO","A nh","A RQ","B R","B Y","B Z","B q","B u","B x","B SO","B OB","B BT","B PD","B SM","B enzen","C x","C y","C rac","C ha","C CH","C Si","C PA","C PB","C nx","D D","D p","D IE","D IN","D Oz","D GM","D PA","E X","E CO","E OH","E NH","E MH","E IM","E AG","E HO","E MK","E MP","E MO","E HA","E IN","E NA","E Ox","E KD","E QC","E QM","E ste","F J","F OH","F CA","F OA","F BM","F AN","F HC","F AO","F IC","F MD","F HB","F NC","F ME","F IE","F AS","F KM","F QA","G L","G AD","G CD","G OC","G BM","G HB","G BI","G FD","G PN","G TNN","H CH","H AO","H IM","H MF","H IK","H MG","H GF","I V","I CO","I MB","I OM","I HE","I on","J M","J BC","J MI","J IM","K Q","K p","K OB","K MN","K OA","K BE","K IB","K IC","K Cr","K CN","K BI","K MH","K BN","K DM","K HD","K FD","K XD","K TMDK","L D","L G","L P","M L","M b","M Al","M Cu","M Mg","M IC","N V","N e","N q","N BE","N DE","N DB","N CE","N EF","N ID","N EA","N EH","N FH","N EO","N FI","N FM","N ClCH","N LA","O R","O NH","O AH","O DE","O yz","O MI","O MD","O xz","O KB","O SM","O LB","P X","P a","P o","P x","P OH","P AE","P MA","P OB","P AI","P MD","P BK","P HO","P NM","P EM","P EO","P KF","P JB","P oli","P ytago","Q H","Q T","Q AD","Q AE","Q BA","Q CA","Q ON","Q DM","Q CK","Q EM","Q OK","Q UO","R J","R P","R r","R SO","R COOCH","R sinB","R sinC","S P","S Q","S T","S o","S ac","S CD","S EF","S CN","S HF","S ABE","S FA","S ADHE","S tamgic","S osnh","T A","T D","T F","T T","T Z","T BC","T ng","T NM","T PA","T hay","T QA","U CT","V I","V NH","V dd","V ID","V IN","V NI","X x","X ON","X ME","X EM","Y x","Y Cl","Z X","[ ]{(","a A","a q","a CO","a Fe","a mol","a CuFeS","a Nq","b in","b pt","b nh","b nt","b oc","c s","c ht","c in","c tan","c lo","c ch","c gt","c nghim","c khc","d B","d n","d ung","d iu","d ich","e r","e Cl","f min","g im","g cn","g ia","g oxit","g li","g itrc","h d","h r","h ing","i z","i lin","i en","j up","k A","k B","k J","k n","k p","k q","k z","k in","k ot","k vs","k ing","l k","l trung","l phngic","m B","m K","m M","m R","m b","m d","m cos","m Cl","m et","m Al","m Ox","m Hg","m Min","m on","n A","n M","n S","n Y","n q","n v","n ong","n Mg","n Zn","n Pb","n HOOC","n RT","n hiu","o o","o u","o z","o ca","o on","p b","p d","p k","p ol","p chat","p Ka","p ytago","q c","q p","q y","r ax","r ic","r uc","s s","s AC","s BC","s ole","s cui","t O","t p","t Om","u m","u oc","v A","v S","v o","v p","v ab","v ol","v cngph","x R","x S","x d","x p","x q","x CH","x ab","x AE","x BH","x DB","x Cos","x lnx","x er","y c","y d","y m","y AC","y OP","y Ax","z k","z Ox","z On","{ )}","{ .......","{ =}\\","| },","} *)","} ........................","} ////////","â Ĥ","â Ĭ","â Ķ","ï ¼","Ġ ^{","Ġ }{","Ġ }{\\","Ġ _{(","Ġ ):","Ġ );(","Ġ LN","Ġ ):(","Ġ hiu","Ġ+ ^{\\","Ġ+ }}}","Ġ+ }})","Ġ+ };(","Ġ= _{-}^{+}","^{ }}","^{ ...","Ġ- })","Ġ- })}","ac O","rac nht","}{ +","Ġ1 125","_{ {\\","Ġ2 18","Ġ2 19","Ġ2 99","Ġ2 23","Ġ2 35","Ġ2 28","Ġ2 222","rt an","}} }(","}} }.","}} }^{","}} ^{+","}} })(","}} }}{(","}} ^{-}","}} })^{-","}} }}{{","Ġ3 10","Ġ3 15","Ġ3 40","Ġ3 33","Ġ3 26","Ġ3 80","Ġ3 98","Ġ3 31","Ġ3 72","Ġ3 85","Ġ3 456","Ġ( :","Ġx C","Ġx O","Ġx b","Ġx e","Ġx k","Ġx n","Ġx mol","Ġx Na","Ġx KHSO","}) *","}) }(","}) )}","}) )\\","}) {.","}) /(","}) *(","}) ......","}) .....(","ha is","ha rp","Ġ4 200","Ġ4 24","Ġ4 36","Ġ4 44","Ġ4 98","Ġ4 70","Ġ4 81","Ġ4 160","Ġ4 995","Ġb p","Ġb u","Ġb an","Ġb sinxcosx","Ġy O","Ġy p","Ġy mol","Ġy cosx","Ġy OM","Ġy Ot","Ġy hocx","Ġy Oz","Ġc k","Ġc ox","Ġc bx","Ġc hia","}}{ ^{","}}{ {\\","Ġa PT",".. (",".. \\","Ġ5 20","Ġ5 75","Ġ5 28","Ġ5 80","Ġ5 70","Ġ5 750","Ġ5 376","Ġ5 5555",")( {",")( ...",")( ....)","Ġm A","Ġm C","Ġm z","Ġm ab","Ġm Fe","Ġm NO","Ġm Na","Ġm tan","Ġm Al","Ġm abc","Ġm Mg","Ġm od","Ġm MgO","Ġm ct","Ġm khi","Ġm kettua","Ġm etyl","}( {","}( |","AB L","AB d","AB y","AB z","AB OM","os ac",")_{ \\","sin acos","10 101","20 60","20 23","20 50","20 48","20 90","20 39","20 77","20 47","Ġ6 75","Ġ6 300","Ġ6 69","Ġ6 993","CH F","Ġ9 19","Ġ9 60","Ġ9 36","Ġ9 49","Ġ9 65","Ġ9 90","Ġ9 96","Ġ9 000","Ġ9 92","Ġ9 86","Ġ9 0000","Ġ9 889","}. |(","AC m","AC v","AC DB","right harp","CO C","CO G","CO S","CO VID","OH E","OH K","OH M","OH Q","Ġ8 40","Ġ8 88","cos i","cos u","cos OAM","cos OAN","ta o","ta let","ta mic","Ġ7 16","Ġ7 11","Ġ7 65","Ġ7 84","Ġn d","Ġn g","Ġn n","Ġn Cl","Ġn Al","Ġn Ca","Ġn HCl","Ġn HO","Ġn KOH","ab d","ab ba","{( }{","BC Q","BC m","BC n","BC DE","BC ti","dot g","pi cosx","}, ..","}, ....","Ġ10 25","Ġ10 58","Ġ10 89","ĠA S","ĠA s","ĠA t","ĠA v","ĠA cos","ĠA NH","ĠA MI","ĠA OI","ĠA PM","12 25","12 75","12 50","12 34","xy t","Ġ20 3","Ġ20 9","Ġ20 25","Ġ20 48","Ġ20 37","Ġ20 000","Ġ20 68","... ;(","})_{ _{","ĠC J","ĠC d","ĠC MB","ĠC MA","ĠC BM","ĠC IB","ĠC IA","ĠC EF","ĠC BI","ĠC ED","ĠC IM","ĠC BF","ĠC KH","ĠC BO","ĠC PQ","ĠC IK","ĠC FE","ĠC PD","ĠC PA","ĠC PB","ĠC TPT","Fe OH","mol K","mol m","15 20","15 50","15 45","15 72","15 77","15 625","15 05000","16 56","16 000","16 66","16 153","Cl NH","ĠH J","ĠH S","ĠH BD","ĠH AE","ĠH DC","ĠH PO","ĠH EC","ĠH OD","ĠH CHO","ĠH MK","ĠH NB","Ġsin c","Ġsin d","SO Q","Ġ... }}","Ġ... ;\\","Ġt e","Ġt m","Ġt ha","Ġt hng","Ġt lm","NO E","NO OC","Ġ12 25","Ġ12 22","Ġ12 31","Ġ12 96","Ġ12 95","Ġ12 132","11 96","100 02","Na A","Na Y","Na SiO","ĠB J","ĠB S","ĠB b","ĠB PO","ĠB MD","ĠB IM","ĠB ID","ĠB EA","ĠB ME","ĠB NM","AD Q","AD BK","18 25","ng a","ng tr","ng tu","ng trn","ng pb","}.\\ %","25 8","00 15","00 16","00 25","00 04","00 204","13 00","13 60","13 33","13 084","ĠCH C","ĠCH D","ĠCH E","ĠCH I","ĠCH CN","ĠCH CHO","ĠCH COOC","Ġ18 3","Ġ18 7","Ġ16 1","19 05","19 44","19 72","19 800",".( {","ĠM L","ĠM R","ĠM AC","ĠM OH","ĠM BC","ĠM AD","ĠM AE","ĠM OC","ĠM BH","ĠM CA","ĠM CN","ĠM ED","ĠM BN","ĠM HO","ĠM IH","ĠM DO","NH F","14 28","14 31","17 29","^{+ }.","^{+ }}}","^{+ };\\","^{+ })}","tan b","tan y","tan z","}| ;","}| )_{","}| .\\","}{( (","Ġd m","Ġd ab","Ġd Fe","Ġd NO","Ġd au","Ġxy ra","et rong","BD P","AE HF","ĠO J","ĠO R","ĠO T","ĠO Na","ĠO CD","ĠO BA","ĠO MN","ĠO IA","ĠO CN","ĠO MH","ĠO GB","ĠO CI","ĠO FC","ĠO NP","ĠO NM","ĠO EI","ĠO EK","ĠO QM","Al F","Al H","Al pu","ĠAB CD",".... ...\\","^{- };","^{- }}\\","22 1","22 8","Ġ15 3","Ġ15 00","Ġ15 60","Ġ15 21","})( {\\","ngl snguynt","Ġ11 20","Ġ11 12","Ġ11 2000","Ġbc a","Ġbc c","Ġbc d","Ġf n","Cu CO","Ġ14 2","Ġ14 05","Ġ14 44","24 75","24 01","24 48","ĠAC A","ĠAC P","COOH H","Ġ25 5","Ġ25 50","30 5","30 24","MB K","MB b","Ġmol H","Ġmol m","CB t","bc yz","bc bac","Ġ13 1","Ġ13 33","Ġ13 0000","60 1","60 57","ma n","ma nt","Ġ24 8","OC F","OC K","MC F","MC G","MC Q","MC S","Ġsinx sin","OB E","OB F","ĠD L","ĠD AE","ĠD OC","ĠD IA","ĠD BF","ĠD HF","ĠD HK","Ġ60 6","Ġ60 30","Ġ60 60","Ġ60 43","23 13","23 91","23 69","27 09","27 134","ĠS D","ĠS N","ĠS t","ĠS abc","}}) /","}}) |","}}) ;\\","}}) ,(\\","BA G","BA r","Ca SiO","ĠBC K","Ġ30 3","Ġ30 4","ĠN CB","ĠN CE","ĠN DO","05 4","05 25","05 85","MN I","MN K","MN CB","ĠP S","ĠP CI","50 6","50 8","36 4","36 11","36 25","Ġg i","Ġg lu","ong ung","th P","th bb","th phi","th suy","th em","pt r","up arrow","ĠFe Br","35 5","35 8","35 76","40 2","40 6","40 9","40 16","40 11","40 21","40 23","40 40","40 45","40 31","40 96","tr biuthc","tr uoc","32 8","ĠE P","ĠE MB","ĠE AI","ĠE HC","ĠE BF","ĠE ID","ĠE OI","ĠE HD","ĠI S","ĠI AD","ĠI OC","ĠI BM","ĠI CE","ĠI OM","ĠI BK","ĠI BN","ĠI NC","ĠI EA","ĠI MO","ĠI PH","Ag Br","BE Q","BE FC","BM G","BM P","ĠK R","ĠK e","ĠK CH","ĠK BD","ĠK DC","ĠK MA","ĠK MC","ĠK IC","ĠK CE","ĠK ED","ĠK DH","iv igi","})} :\\","AN I","AN Q","AI F","AI Q","28 6","28 57","28 238","Ġ17 7","Ġ17 05","Ġ17 28","Ġ17 29","Ġ17 86","Ġ17 600","HC F","HC N","lo zo","Ġ36 5","ĠAH G","Ġ40 3","Ġ40 25","Ġ40 30","Ġ40 23","Ġ40 96","); ...;(","Ġ19 1","Ġ19 5","Ġ19 86","Ġ19 82","or a","or m","02 65","Ġ27 89","}.( {\\","}.( ...","DE G","DE MNH","Ġ45 5","Ġ45 9","ax by","Ġ.... ;","Ġ.... \\","Ġ.... ........................","}}}{ -","}}}{ {","64 4","64 00","56 8","56 000","}^{- }}}","}^{- }}}{",",( (","Ġac c","Ġac r","ĠCO F","ĠCO N","Ġ200 37","Ġ-} :\\","AF I","AF K","AF M","AF N",").( ....","29 2","29 5","29 00","sim eq","IA P","26 58","// \\","// /\\","Br CH","AO F","AO y","ĠR COOH","ĠR COONa","ĠAD I","ĠAD J","ĠAD O","Ġ28 7","Ġ28 561","49 0","49 49","49 755","Cr SO","Cr Br","MI F","ĠOH C","Ġax eta","CM H","CM T","03 4","03 9","ĠCu CO","CE I","am u","ox i","04 31","04 68","04 83","01 15","EC N","48 7","48 46","48 0000","MD F","MD N","MD P","\\% /","\\% :","\\% }^{+","65 16","65 24","OM G","ĠBH M","ĠBH O","DA P","DA Q","DA y","mod ab","ĠF N","ĠF R","ĠF BC","ĠF AD","ĠF AM","ĠF CD","ĠF DC","ĠF EC","ĠF EB","Ġcot b","ĠNa I","ex an","Ġ35 9","Ġ35 00","HB F","HB L","HB O","Ġabc x","CN A","ho pchat","BK O","BK P","BK x","08 26","72 12","72 25","BI T","37 21","37 41","CF E","CF N","CF O","120 000","EB N","EB x","}}^{ }","}}^{ })",")}} )^{",")}} ;\\",")}} .(\\",")}} |}","Ġ26 2","Ġ26 18","MH E","ĠCD G","ĠCD N","ĠG F","ĠG I","ĠG L","ĠG TNN","dd X","dd Y","dd Ba","dd Br","dd AgNO","dd MgCl","dd MgSO","dd spu","CHO CH","ĠABC nn","ĠABC ngdng","Ġv i","Ġv t","55 8","ad bc","2000 1","BN A","BN I","BN K","ĠAE N","Ġ49 50","Ġ22 12","34 76","39 2","AG B","AG F","AG H","an h","an dx","BF I","BF M","BF N","ch ox","ch gim","2009 2009","Ġq x","DH N","ON C","ON E","ON Br","Ġbx z","........ ...","........ ....","........ .......","........ ....\\","ĠX e","ĠX t","ID F","NC K","54 7","HO NO","DM P","46 7","46 32","46 67","MK E","Ġe A","Ġe B","85 7","43 25","OI H","77 9","Ġ29 4","Ġ29 37","}- \\","MP I","MP K","ME Q","ĠDC B","ĠDC F","}}}} .","}}}} *\\","Ġ75 00","CI H","CI K","HE I","HD K","66 2","ĠQ B","ĠQ P","OE I","OE M","OE Q","DN A","DN M","Ġ56 2","KH S","HF B","PT E","Ġ+}, (\\","ĠMN P","DK E","ĠAN F","HA J","HA x","025 4","BO G","BO P","BO m","BO t","BO x","ĠAI F","ĠAI T","AP D","AP N","DF G","DF I","ĠBM F","09 2","57 9","en lu","SA A","SA OC","ĠAK B","ĠAK E","ĠAK M","ĠAK N","Ġ39 36","ĠAF C","ĠAF I","MF B","MF nt","Ġ1000 000","38 60","Si H","IK N","IK y","Pb Cl","'' ,","400 1","400 4","400 00","400 000","ĠZn SO","ung oc","})^{- }/","59 32","59 55","IH K","300 00","58 125","hh Y","{| (","68 9","68 75","OF D","OF E","OF K","OF M","Ġs AB","Ġs AD","Ġs CE","Ġ199 3","Ġ199 6","(| |","ly im","ĠT G","ĠT H","ĠT he","FE x","015 625","sinA sinBsinC","360 81","67 75","89 3","[]{ (\\","Cos i","NB y","NP C","Ġh v","Ġ96 00","pu vs","_{- }","max u","AQ B","AQ D","AQ E","AQ N","73 40","NM Q","EH M","int ch","DO K","HOOC C","Ġ2009 2009","KL C","KL M","ml X","DI F","DI P","ra tac","cn xy","cn hhuyn","0000 000","Ox i","HCOO K","hng trnh","ĠCos C","MQ E","MQ P","bac hai","}^{* };","}^{* },(","Ġ140 307","cosB cosC","ĠBK M","Ġma thbb","128 00000","ĠCr Cl","OK D","ic lo","EI F","EI G","sa ot","sa oli","PM S","Ġ\\% \\","^{-}, _{","back sim","ĠBI F","ĠCI O","HI O","cho P","cho f","Ġ112 12","HCOOC CH","Ġ110 7","hay y","})^{+ }(","})^{+ }\\","})^{+ },\\","})^{+ },(","ĠMn Cl","130 307","................ .......","CG H","CG V","Gly Ala","Ġ400 000","Ġmax g","mi kvs","Ġmin f","BP E","CT A","HN I","khi cos","CP N","EBC F","cg i","ĠL B","ĠL K","ĠL og","ĠABM v","QP N","Ġ? ??","^{* },","Ġ67 24","ĠABH v","OQ M","}}, (\\","ABN D","ĠAP H","abcde f","035 2","NI O","Ġcn x","CAH OF","Min y","ph n","Ġcd a","BQ H","BQ K","BQ R","1010 101","1006 009","ĠIE O","IF O","sd IC","sd AP","Ġ600 1","Ġ600 000","ĠHA J","ĠSi F","trong gc","trong cng",")! }{",")! .(","HBr O","Li AlH","cu fmin","gi y","gi trbiuthc","gi chgim","kh x","kh ac","kh nglsnguynt","ns t","{... }{","}.... ...\\","}.... ..\\","Ġ89 55","Ġ273 3212496","CQ K","CQ N","Ġba z","023 8","600 9","KF M","not hing","Ġ............ .......","Max A","PH Q","aO d","cung MN","xC y",")// (\\","AL K","AL M","GF N","co z","nn a","nn ivigi","Ġbn v","NE P","glu coz","var nothing","ĠJ N","ĠJ PG","arc tan","oc ax","Ax etilen","DQ K","bi ratac","sp rt","ABF P","ĠOOC C","ĠOOC CH","** *\\","065 2","GT LN","HQ K","cng v","dp dd","vy P","ĠMin P","};... ;","//// ///\\",",... ,","PF CD","Pd CO","lit ngt","tin h","|}{| (\\","Ġo h","ĠEN MF","lunng va","An col","(. )","710 35","BL A","do k","nha n","Ġcp w","ĠAMN cn","trn ti","trn ocax","cotA cotB","ctu ongung","Cd SO","Tnh V","Tnh gitrc","go ctuongung","tnh nh","vs x","}}... {.","Ġ1600 000","Ġgc BAC","Ġgc nhn","(* )(","(* );(","EQ B","bu tan","Ġcung PC","16289 292","can bachai","nguyn th","Ank an","suyra a","!! !","As O","Glu cozo","SAB GE","Ti saot","The o","The opt","ru a","ru ou","tng BBT","vim ix","yta g","}........ \\","Ġha ig","ole um","985 26","Ġvung ABC","Ġvung BHM","chn l","chn cung","vunggc AB","588 6","975 95","CPQ D","Ma xy","SLT AB","kim loai","ls chnh","nu x","xO k","xo z","Ġ9999 3","the ot","ĠABCvung cn","''' }","00000000 00000000","aphngic ca","(@ )","Tal et","Tal es","lti ap","lti aphngic","lic thsuy","vt pt","loiv khnglsnguynt","Ġ20038 005","Ġ20038 007","chi ax","gipm nh","??? )","chuvi OAB","(.. )","IEF J","MV B","SHS cnli","ZT I","hq BC","sol etrong","vin yl","yb nnivigi","{? }{\\","Ġoverset t","han ol","haigc trongcng","Ġ577 8","ĠCn bcbac","tho mn","saup u","bitlm cufmin","21212 121","31313 131","615 384","Anh ybnnivigi","Bu tan","Crac king","Cha bitlmcufmin","FOH F","QUO TE","SABE G","TZ I","Xx Yx","gli xer","jup mikvs","ltrung im","met hanol","mon osac","oon up","ss hng","vol y","vcngph vi","}//////// ///////\\","âĤ ¬","âĶ Ĥ","^{... ^{","racnht h","})...... (","Ġ55555 7","Ġmetyl but","Ġ919 08","Ġ949 05000","Ġ965 00","rightharp oonup","Ġ2068 77","1196 9","ngtrn ng","mant ozo","2709 1","Ġglu tamic","DEMNH K","Ġ............................ ...","2658 2","Ġaxeta t","enlu lozo","ĠThe opt","puvs A","Ġmathbb Z","tngBBT f","lschnh phng","licthsuy racnhth","haigctrongcng pha","ĠCnbcbac a","Chabitlmcufmin gichgim","XxYx Z","glixer ol","jupmikvs nha","! :","! })","! }(","! }.","! )}","! .\\","! }{(","! )}{(","% ),\\","( ...","( ;\\","( )\\","( ^{-","( ???)",") },",") })_{",") ....",") ).",") )(\\",") );",") }.(",") }}}{",") }^{-",") )}{\\",") })(\\",") )}}",") })}{(",") ):(",") )((",") .......",") ......",") ....\\",") }.((","* ,","* ;","* })","* )\\","* ):","* **)","+ \\","+ }}}{",", _{",", },",", )\\","- (","- \\","- }^{",". )(","/ ^{","0 17","0 99","0 21","0 33","0 98","0 90","0 79","0 135","0 224","0 204","0 787","0 199819981998","1 160","2 100","2 2018","2 2011","2 1000","2 160","2 197","2 123","2 199","2 202","3 100","3 25","3 19","3 14","3 21","3 96","3 85","3 150","3 144","3 136","3 131","4 10","4 15","4 11","4 18","4 13","4 33","4 26","4 125","4 39","4 78","4 79","4 224","4 243","4 142","4 808","4 343","4 20000","5 16","5 11","5 19","5 24","5 21","5 36","5 32","5 56","5 26","5 48","5 37","5 125","5 85","5 38","5 300","5 130","5 145","5 404","5 146","5 985","5 227","6 22","6 24","6 30","6 50","6 36","6 64","6 80","6 98","6 95","6 97","6 74","6 008","6 224","6 501","6 138","6 186","6 306","6 102000","6 565","7 12","7 200","7 30","7 27","7 36","7 35","7 40","7 26","7 98","7 48","7 06","7 37","7 34","7 70","7 46","7 88","7 38","7 0000","7 404","7 408","7 644","7 400000","8 20","8 12","8 15","8 16","8 18","8 13","8 14","8 60","8 21","8 50","8 35","8 45","8 29","8 65","8 90","8 55","8 51","8 85","8 41","8 78","8 92","8 62","8 67","8 73","8 126","8 133","8 224","8 565","9 30","9 21","9 36","9 28","9 56","9 26","9 03","9 04","9 48","9 120","9 000","9 42","9 51","9 46","9 38","9 300","9 0000","9 187","9 1800",": }",": _{",": ((","; ,","; /","; {\\","; }\\","; ;^{","; ..{.","< }","= }(\\","? \\","? }","@ )","@ @","A R","A U","A Y","A b","A d","A i","A p","A t","A xy","A AD","A OA","A SC","A XE","A vA","B U","B X","B t","B z","B cos","B xy","B NO","B un","B IB","B GA","B PQ","B GD","B SC","B nh","B GM","B PM","B JA","B una","C Y","C e","C n","C s","C NO","C ng","C CM","C ox","C CF","C GA","C CHO","C IM","C SA","C nH","C hi","C mn","C SB","C hng","C PM","C CHCH","C QP","C QM","C xH","C dO","C chn","C chnh","C acbon","C thnghng","D R","D S","D Y","D u","D x","D OH","D pcm","D PT","D IH","D OF","D PC","D PM","D PN","D QM","D ddH","D JB","D TE","D li","D XF","E E","E T","E a","E b","E t","E tan","E MI","E MD","E GC","E NC","E SB","E HK","E KI","E PA","E KM","E OQ","E JB","E til","E saocho","E acO","E AgBr","F P","F R","F X","F t","F Cl","F MB","F MA","F OC","F MC","F BE","F AI","F DB","F IB","F OM","F EB","F AG","F CK","F HD","F DK","F HA","F BO","F IK","F MG","F NB","F NA","F AQ","F DO","F KI","F MQ","F OK","F OHB","F XD","F ru","F ruc","G J","G a","G c","G e","G h","G i","G CO","G BC","G AH","G CA","G pt","G BE","G DE","G IB","G DM","G HF","G DF","G OF","G KB","G TN","H T","H v","H y","H OH","H pt","H OA","H IB","H MD","H NC","H GB","H MP","H MO","H IJ","H PC","H QC","H QM","H co","H JA","H so","I R","I Z","I x","I Cl","I MA","I AN","I HO","I HD","I HA","I FC","I OP","I FB","I PA","I ABK","I QA","I HCE","I VN","J G","J I","J NO","J CD","J ABC","J MN","J IA","J EF","J BK","J MO","J IK","J FC","J KI","J FB","J KN","J PG","J IL","K T","K b","K c","K h","K m","K th","K DE","K AF","K IA","K AO","K ED","K BF","K DH","K ID","K HO","K OI","K IE","K AA","K OF","K CrO","K NA","K EH","K DI","K hng","K PC","K MgCl","K QC","K OQ","K PF","K QO","K ST","L E","L H","L J","L R","L a","L x","L y","L in","L CH","L AC","L NC","L EA","L CI","L OE","L KH","M R","M Y","M Z","M c","M k","M y","M ABC","M PO","M ACB","M HNO","M NaCl","M SC","M khi","M chung","M JC","M va","M JB","M tac","M JK","M tng","M saocho","M thnghng","M LQ","M RK","M hhY","M ltrungim","N L","N S","N n","N o","N x","N Cl","N AD","N BD","N BA","N AN","N AI","N IB","N Br","N IC","N ilon","N MD","N BK","N BI","N ED","N ME","N DK","N DF","N IH","N FE","N FC","N KB","N EM","N KI","N FB","N EI","N FA","N KM","N es","N GK","N RCOOH","N oH","N hn","N thnghng","N RCOOR","N ltrungim","O Y","O Z","O v","O xy","O ABC","O IB","O EC","O ED","O CHO","O GC","O COOC","O pu","O PC","O OK","O QC","O DEF","O TH","O COOR","P L","P h","P u","P y","P AB","P DC","P MB","P MC","P BA","P CA","P tr","P OA","P AN","P DE","P HB","P ED","P BN","P ID","P EA","P BT","P ME","P BO","P KB","P DO","P HM","P hng","P FB","P FD","P SD","P dng","P ytag","Q BC","Q MC","Q MN","Q HC","Q AF","Q AO","Q EC","Q OM","Q DA","Q EB","Q ED","Q DK","Q AP","Q KC","Q IH","Q OF","Q NP","Q NA","Q Ox","Q PA","Q EN","Q KN","Q FA","Q IP","Q EO","R L","R e","R cos","R Br","R COOC","R sinA","R tg","R ONa","R QP","R HS","R suyra","S F","S Y","S b","S c","S e","S s","S u","S w","S AC","S ab","S AD","S BD","S DC","S CA","S ong","S AOB","S ADE","S ABM","S mn","S ABCD","S NT","S KI","S uy","S ABO","S BFC","S HBA","S ABF","S ket","S chu","S QD","S chwarz","S md","S xq","T G","T in","T AC","T MC","T MN","T BE","T BM","T am","T BI","T mn","T NT","T as","T PB","T SM","T on","T mg","T rong","T LT","T nht","T mm","T ru","T han","U B","U V","U JB","U NG","V B","V C","V D","V E","V F","V L","V l","V CO","V AD","V min","V it","V as","V ia","V II","V nguyen","V ix","W h","X Z","X n","X AB","X AC","X SO","X MC","X EC","X OM","X thuc","X AZ","X enlulozo","Y H","Y O","Y CO","Y XF","Z r","Z x","Z CB","Z OY","\\ _","\\ {\\","\\ }.","\\ }\\}","a C","a E","a H","a X","a k","a o","a im","a OH","a xy","a tan","a Al","a OA","a mx","a od","a yz","a Ot","a SinA","a vb","a HClO","a ocho","a moln","a abb","a SQ","a rtan","b M","b e","b m","b q","b sin","b sinx","b an","b hay","b li","b SinB","b ls","b una","b thucZ","c C","c f","c l","c ha","c AB","c sin","c AD","c AM","c cm","c ar","c ax","c hoc","c BG","c cb","c sd","c vb","c chs","c SinC","c pg","c sai","d X","d b","d g","d ong","d HCl","d pm","d KC","d cd","d ct","d il","d au","d oc","d khc","d cac","d bca","d own","d def","d saupu","d puvsA","e f","e ve","e et","e am","e max","e ga","f in","g ng","g ly","g cg","g oi","g lic","g mnp","h f","h v","h y","h ht","h sin","h ps","h ra","h cb","h uc","h vy","h chiahtcho","h bng","h exan","i d","i f","i k","i ca","i qu","i it","i ly","i on","i thi","i cnhtngng","i tro","i rax","i saoli","i aphngicca","j w","j cc","k X","k s","k v","k AB","k sinx","k KH","k nh","k ia","k sau","k otha","k oca","k Wh","l R","l l","l sin","l ng","l an","l ln","l ay","l tm","l cung","l bi","l bn","l vy","l cc","l ai","l hcn","l let","l haigc","l bnt","l hps","m N","m c","m o","m NO","m ng","m Ca","m NaOH","m Mg","m Ag","m HCl","m iv","m HNO","m VT","m CaCO","m sinxcosx","m IH","m Cos","m HK","m BaSO","m KL","m cotx","m KNO","m ZnCl","m kk","m ddH","m cost","m XCl","m igi","m phanung","m Axit","m cua","n T","n e","n l","n th","n HCO","n ilon","n HO","n KOH","n AlO","n AlCl","n mn","n nh","n col","n CuCl","n khi","n cu","n nx","n co","n lt","n BaO","n cng","n An","n dehit","n itip","n mgia","n EAgBr","n itro","o C"]}}