{"version":"1.0","truncation":null,"padding":null,"added_tokens":[{"id":0,"content":"[PAD]","single_word":false,"lstrip":false,"rstrip":false,"normalized":false,"special":true},{"id":1,"content":"[BOS]","single_word":false,"lstrip":false,"rstrip":false,"normalized":false,"special":true},{"id":2,"content":"[EOS]","single_word":false,"lstrip":false,"rstrip":false,"normalized":false,"special":true}],"normalizer":null,"pre_tokenizer":{"type":"ByteLevel","add_prefix_space":false,"trim_offsets":true,"use_regex":true},"post_processor":null,"decoder":null,"model":{"type":"BPE","dropout":null,"unk_token":null,"continuing_subword_prefix":null,"end_of_word_suffix":null,"fuse_unk":false,"vocab":{"[PAD]":0,"[BOS]":1,"[EOS]":2,"!":3,"%":4,"'":5,"(":6,")":7,"*":8,"+":9,",":10,"-":11,".":12,"/":13,"0":14,"1":15,"2":16,"3":17,"4":18,"5":19,"6":20,"7":21,"8":22,"9":23,":":24,";":25,"<":26,"=":27,">":28,"?":29,"@":30,"A":31,"B":32,"C":33,"D":34,"E":35,"F":36,"G":37,"H":38,"I":39,"J":40,"K":41,"L":42,"M":43,"N":44,"O":45,"P":46,"Q":47,"R":48,"S":49,"T":50,"U":51,"V":52,"W":53,"X":54,"Y":55,"Z":56,"[":57,"\\":58,"]":59,"^":60,"_":61,"a":62,"b":63,"c":64,"d":65,"e":66,"f":67,"g":68,"h":69,"i":70,"j":71,"k":72,"l":73,"m":74,"n":75,"o":76,"p":77,"q":78,"r":79,"s":80,"t":81,"u":82,"v":83,"w":84,"x":85,"y":86,"z":87,"{":88,"|":89,"}":90,"¡":91,"¢":92,"£":93,"¥":94,"§":95,"©":96,"ª":97,"«":98,"¬":99,"¯":100,"°":101,"±":102,"²":103,"³":104,"´":105,"µ":106,"·":107,"¹":108,"º":109,"»":110,"¼":111,"½":112,"¿":113,"Â":114,"Ã":115,"Ä":116,"Å":117,"Æ":118,"á":119,"â":120,"ï":121,"Ċ":122,"č":123,"Ġ":124,"Ģ":125,"ģ":126,"Ĥ":127,"ĥ":128,"ĩ":129,"Ī":130,"ī":131,"Ĭ":132,"ĭ":133,"Į":134,"į":135,"ı":136,"Ĳ":137,"ĳ":138,"ĵ":139,"Ķ":140,"ķ":141,"ĸ":142,"Ĺ":143,"ĺ":144,"Ļ":145,"ļ":146,"Ľ":147,"Ŀ":148,"Ł":149,"ł":150,"Ń":151,"Ġ+":152,"Ġ\\":153,"Ġ=":154,"^{":155,"čĊ":156,"Ġ-":157,"ac":158,"rac":159,"}{":160,"frac":161,"rr":162,"ig":163,"ht":164,"ight":165,"Ġ1":166,"_{":167,"ow":168,"arr":169,"arrow":170,"ightarrow":171,"Ġ2":172,"rt":173,"qrt":174,"sqrt":175,"}}":176,"Ġ3":177,"ve":178,"ove":179,"Ġ(":180,"rrightarrow":181,"overrightarrow":182,"Ġx":183,"Ġ0":184,"rightarrow":185,"})":186,"ha":187,"Ġ4":188,"ft":189,"eft":190,"de":191,"hat":192,"ide":193,"wide":194,"widehat":195,"eq":196,"Rightarrow":197,"Ġb":198,")^{":199,"Ġy":200,"eftrightarrow":201,"Leftrightarrow":202,"Ġc":203,"in":204,"}}{":205,"Ġa":206,"..":207,"Ġ5":208,"Ġ>":209,")(":210,"Ġm":211,"}(":212,"AB":213,"os":214,"geq":215,")_{":216,"sin":217,"{\\":218,"10":219,"20":220,"Ġ6":221,"brac":222,"brack":223,"}\\":224,"CH":225,"Ġ<":226,"Ġ9":227,"}.":228,"leq":229,"(\\":230,"AC":231,"left":232,"right":233,"CO":234,"}{\\":235,"im":236,"OH":237,"ot":238,"ime":239,"Ġ8":240,"cos":241,"pr":242,"ta":243,"Ġ7":244,"Ġn":245,"prime":246,"}^{":247,"ab":248,"})^{":249,"ol":250,"{(":251,"BC":252,"dot":253,"pi":254,"},":255,"Ġ10":256,"Ġ(\\":257,"lbrack":258,"ĠA":259,"rbrack":260,"Ġz":261,"12":262,"xy":263,"Ġ20":264,")}":265,"...":266,"Ġcos":267,"})_{":268,"{-":269,"ĠC":270,"el":271,"Fe":272,"mol":273,"15":274,"Del":275,"Delta":276,"16":277,";\\":278,"Cl":279,"ĠH":280,"Ġsin":281,"SO":282,"rc":283,"^{\\":284,"Ġ...":285,"ci":286,"Ġt":287,"circ":288,"NO":289,"Ġ12":290,"]{":291,"11":292,"100":293,"Na":294,"ĠB":295,"AD":296,".\\":297,")\\":298,"al":299,"18":300,"ng":301,"dots":302,"}.\\":303,"25":304,"00":305,"13":306,"vdots":307,"ĠCH":308,"Ġ90":309,")}{":310,"Ġ18":311,"Ġ16":312,"over":313,"19":314,".(":315,"ĠM":316,"AM":317,"},\\":318,"NH":319,"Ġk":320,"sinx":321,"200":322,"AH":323,"};":324,"Ġab":325,"cdot":326,"cosx":327,",\\":328,"14":329,"17":330,"pha":331,"^{+":332,"tan":333,"alpha":334,"}|":335,"}{(":336,"Ġd":337,"99":338,"}}}":339,"Ġxy":340,"et":341,"Ġ|":342,"BD":343,"AE":344,"ĠO":345,"Al":346,"ĠAB":347,"....":348,"}}{\\":349,"set":350,"^{-":351,"};\\":352,"22":353,"}(\\":354,"Ġ15":355,"})(":356,"ngl":357,"Ġ11":358,"angl":359,"Ġbc":360,"angle":361,"Ġf":362,"CD":363,"Cu":364,"neq":365,"Ġ14":366,"COO":367,"abc":368,"_{(":369,"overset":370,"24":371,"DC":372,"Ġ180":373,").":374,"ĠAC":375,"COOH":376,"Ġ25":377,"Ġcosx":378,"30":379,"MB":380,"Ġmol":381,"CB":382,"ABC":383,"bc":384,"Ġ13":385,"60":386,")(\\":387,"Ġ+}":388,"cm":389,"21":390,"ma":391,":\\":392,"MA":393,"lin":394,"overlin":395,"overline":396,"Ġ24":397,"75":398,"OC":399,"MC":400,"Ġsinx":401,"ar":402,"OB":403,"ĠD":404,"Ġ60":405,"|\\":406,"23":407,"su":408,"27":409,"ĠS":410,"}})":411,"BA":412,"BH":413,"Ca":414,"ĠčĊ":415,"ĠBC":416,"Ġ30":417,"ĠN":418,"NaOH":419,"sum":420,"05":421,"all":422,"CA":423,"MN":424,"Ġp":425,"{(\\":426,"ĠP":427,"50":428,"36":429,"á»":430,"Ġtan":431,"Ġca":432,"Ġg":433,"th":434,"Mg":435,"ong":436,"pt":437,"up":438,"ĠFe":439,"35":440,"tr":441,"40":442,"Ba":443,"32":444,"ĠE":445,"OA":446,"áº":447,"ĠI":448,"Ag":449,"Ġ100":450,"HCl":451,"mx":452,"Long":453,"Longrightarrow":454,"\\}":455,"BE":456,"BM":457,"iv":458,"ĠK":459,"})}":460,"AN":461,"45":462,"}{.":463,"33":464,"AI":465,"28":466,"Ġ17":467,"HC":468,"lo":469,"big":470,"tri":471,"angleup":472,"bigtri":473,"bigtriangleup":474,"Ġ36":475,"Ġ|\\":476,"math":477,"bb":478,"pm":479,"ĠAH":480,"time":481,"times":482,"^{+}":483,"2018":484,"Ġ40":485,");":486,"Ġ19":487,"or":488,"mathbb":489,"02":490,"\\{":491,"uiv":492,"equiv":493,"Ġ27":494,"}}{(":495,"Zn":496,"}.(":497,"2019":498,"DE":499,"bar":500,"Ġ45":501,"ax":502,"Ġ....":503,"HCO":504,"}}}{":505,"AK":506,"64":507,"56":508,"}^{-":509,",(":510,"Ġac":511,"})\\":512,"Äĳ":513,"Ġ{":514,"ĠCO":515,"Ġyz":516,"fty":517,"infty":518,"2017":519,"}}\\":520,"101":521,"Ġ200":522,"Ġ-}":523,"AF":524,"44":525,").(":526,"((":527,"29":528,"DB":529,"IB":530,"sim":531,"IA":532,"ĠV":533,"bot":534,"od":535,"26":536,"yz":537,"nde":538,"//":539,"Br":540,"80":541,"AO":542,"ĠR":543,"_{\\":544,"for":545,"BAC":546,"ĠAD":547,"forall":548,"},(":549,"unde":550,"under":551,"Ġ32":552,"180":553,"),\\":554,"Ġ28":555,"49":556,"Ġmx":557,"):":558,"IC":559,"}:":560,"Cr":561,"Ġ21":562,"PO":563,"Ġ50":564,"Ãł":565,"MI":566,"ĠOH":567,"Ġax":568,"^{-}":569,"am":570,"ilo":571,"ps":572,"ilon":573,"03":574,"98":575,"CM":576,"eps":577,"epsilon":578,"ĠCu":579,"CE":580,"ox":581,"04":582,"01":583,"ACB":584,"EC":585,"xyz":586,"ca":587,"2016":588,"})}{":589,"48":590,")}{(":591,"MD":592,"\\%":593,"65":594,"EF":595,"ĠAl":596,"31":597,"OM":598,"}}(":599,"ĠBH":600,"90":601,"DA":602,"mod":603,"ĠF":604,"2013":605,"par":606,"allel":607,"parallel":608,"ĠNH":609,"HNO":610,")^{-":611,"Ġcot":612,")}{\\":613,"nO":614,"2015":615,"OD":616,"ĠNa":617,"ex":618,"ap":619,"Ġ35":620,"HB":621,"ĠBD":622,"Ġabc":623,"06":624,"2020":625,"96":626,"ho":627,"})(\\":628,"CN":629,"COOCH":630,"BK":631,"2012":632,"prox":633,"approx":634,"08":635,"Ġ..":636,"72":637,"ĠCOOH":638,"Ġ64":639,"}^{-}":640,"Ġ120":641,"Ġ2018":642,"ĠCa":643,"}}.\\":644,"}},\\":645,"ĠAM":646,"leftrightarrow":647,"ĠZ":648,"37":649,"BI":650,"Ġ23":651,".(\\":652,"}:\\":653,"Ġzx":654,"2010":655,"CF":656,"}{-":657,"tanx":658,"120":659,"underset":660,"EB":661,"}}^{":662,"ED":663,"GA":664,"cot":665,")}}":666,"]{\\":667,"2014":668,"FeCl":669,"Ġ26":670,"125":671,"MH":672,"ĠCD":673,").\\":674,"]{(":675,"ĠG":676,"dd":677,"CHO":678,"ĠBa":679,"pcm":680,"ĠABC":681,"}/":682,"))":683,"Ġv":684,"2011":685,"}.(\\":686,"IM":687,"ad":688,"55":689,"âĢ":690,"2000":691,"Ġtex":692,"BN":693,"ĠAE":694,"()_{":695,"Ġ49":696,"Ġ22":697,"áº·":698,"34":699,"}})^{":700,"âĢĵ":701,"39":702,"AG":703,"ch":704,"Ġ2020":705,"BF":706,"COONa":707,"2009":708,"MnO":709,"Oy":710,"Ġq":711,"Ġ80":712,"*\\":713,"DH":714,"Ġ2017":715,");\\":716,"ON":717,"ĠNO":718,"an":719,"hoáº·":720,"))^{":721,"GC":722,"Ġbx":723,"........":724,"vÃł":725,"000":726,"),":727,"ĠX":728,"Ġ2019":729,"70":730,"}^{+":731,"*)":732,"42":733,"Ġ2015":734,"2005":735,"ID":736,"COOC":737,"NC":738,"VT":739,"2004":740,"51":741,"}{(\\":742,"GB":743,"54":744,"HO":745,"Ġ2016":746,"81":747,"1000":748,"CaCO":749,"{+":750,"hoáº·c":751,"DM":752,"EA":753,"AgNO":754,"xz":755,"ABD":756,"|}":757,"46":758,"95":759,"MK":760,")^{\\":761,"97":762,"BAD":763,"Ġe":764,"85":765,"brace":766,"qu":767,"Ġxz":768,"min":769,"Ġ48":770,"quad":771,"vee":772,"ĠHC":773,"NaCl":774,");(":775,"43":776,"2008":777,"41":778,"OI":779,"Ã³":780,"Ġ31":781,"Ġ2014":782,"88":783,"BT":784,"ĠCl":785,"ĠBE":786,"^{+}\\":787,"77":788,"ms":789,"KOH":790,"ĠNaOH":791,"Ġ29":792,"52":793,"^{+}}":794,"MP":795,"Sin":796,"zx":797,"111":798,"84":799,"MO":800,"CK":801,"Ġ2013":802,"2003":803,"ME":804,"it":805,"}âĢĵ":806,"ĠDC":807,"}}}}":808,"Ġ75":809,"CI":810,"HE":811,"{.":812,"Ġ33":813,"áº¡":814,"HD":815,"Ġ42":816,"ADB":817,"Ġtanx":818,"78":819,"Ġ72":820,"ĠOA":821,"),(":822,"66":823,"ĠQ":824,"2007":825,"ĠHCl":826,"AOB":827,"OE":828,"CuO":829,"underbrace":830,"DN":831,"}}.":832,"}).":833,"Ġ56":834,"ĠDE":835,"KH":836,"^{{":837,"}):":838,"Ġ70":839,"Ġ2012":840,"sinxcosx":841,"HF":842,"PT":843,"{}":844,"ĠSO":845,"Ġ+},":846,"160":847,"2006":848,"71":849,"KMnO":850,"Ġ+}}":851,"ĠMN":852,"Ġgam":853,"63":854,"76":855,"DK":856,"nh":857,"Æ¯":858,"Ġ((":859,"}}}{\\":860,"}};\\":861,"}).(":862,"ĠAN":863,"CuSO":864,"Ġ}":865,"HA":866,"Ã¬":867,".....":868,"025":869,"BO":870,"2021":871,"ĠAI":872,"1999":873,"2001":874,"AP":875,"eta":876,"gam":877,"102":878,"AlO":879,"DF":880,"Ot":881,"Ġ\\{":882,"ĠAg":883,"ĠBM":884,"!}":885,"Ġ81":886,"log":887,"09":888,"57":889,"ldots":890,"Ġ2010":891,"ĠMg":892,"Ġ.....":893,"}))^{":894,"ADC":895,"PQ":896,"en":897,"Ġ)":898,"Ġ37":899,"Ġ2011":900,"SA":901,"Ġ34":902,"^{-}}":903,"BOC":904,"KCl":905,"xcos":906,"ĠAK":907,"AMB":908,"Ġxyz":909,"á»ĳ":910,"nH":911,"Ġ39":912,"ĠMC":913,";(":914,"Pi":915,"}).\\":916,"ĠAF":917,"2002":918,"}|.":919,"AlCl":920,"MF":921,"Ġr":922,"Ġ1000":923,"38":924,"79":925,"IE":926,"gt":927,"Ġ54":928,"Äĳpcm":929,"DAC":930,"Si":931,"ĠHB":932,"ĠOB":933,"61":934,"IK":935,"Pb":936,"hoáº·cx":937,"''":938,"400":939,"BAM":940,"ĠZn":941,"ADE":942,"ABM":943,"ĠCK":944,"075":945,"AA":946,"GD":947,"xOy":948,"}*":949,"})^{-":950,"IN":951,"hi":952,"Ã´":953,"}((":954,"ĠCE":955,"/(":956,"92":957,"HSO":958,"KC":959,"Ġu":960,"}}_{":961,"doteq":962,"FeO":963,"FeS":964,"333":965,"59":966,"IH":967,"tht":968,"ĠÆ¯":969,"matht":970,"BaCO":971,"mathtt":972,"300":973,"58":974,"62":975,"DAB":976,"beta":977,"{|":978,"NaHCO":979,"07":980,"68":981,"bd":982,"Ġs":983,"ACD":984,"OF":985,"Ġ44":986,"FeSO":987,"150":988,"Ġ150":989,"BAH":990,"Ġ55":991,"DAE":992,"MAB":993,"hh":994,"}{|":995,"Ġ199":996,")^{+":997,"ABCD":998,"^{+},":999,"^{-}\\":1000,"MG":1001,"NCH":1002,"lim":1003,"}}{(\\":1004,"Ġ99":1005,"(|":1006,"AOC":1007,"SC":1008,"dpcm":1009,"ĠT":1010,"Ġ360":1011,"BCA":1012,"ĠHNO":1013,"ĠMB":1014,"FE":1015,"Oz":1016,"Ġ-}}":1017,"cmt":1018,"Äĳá»":1019,"CrO":1020,"015":1021,"74":1022,"91":1023,"SB":1024,"ln":1025,"FC":1026,"cup":1027,"}};":1028,"sinA":1029,"prod":1030,"360":1031,"53":1032,"67":1033,"89":1034,"OOC":1035,"[]{":1036,"ly":1037,"Æ°":1038,"ĠCOO":1039,"9999":1040,"AED":1041,":(":1042,"Cos":1043,"NB":1044,"NP":1045,"Ġh":1046,"108":1047,"GM":1048,"HK":1049,"HCOOCH":1050,"mn":1051,"Ġ160":1052,"BaSO":1053,"Ġcotx":1054,"86":1055,"Mn":1056,"cdots":1057,"Ġ96":1058,"Ġ2021":1059,"ĠOC":1060,"MgO":1061,"}|.|\\":1062,"MAC":1063,"NA":1064,"pu":1065,"Ã¡":1066,"_{-":1067,"sinB":1068,"sina":1069,"max":1070,"AQ":1071,"...\\":1072,")}{(\\":1073,"CaO":1074,"áº¡i":1075,"69":1076,"73":1077,"BG":1078,"NM":1079,"ung":1080,"xt":1081,"Ġ+},(":1082,"Ġby":1083,"},(\\":1084,"ĠOM":1085,"SiO":1086,"KB":1087,"ABH":1088,"Ġ98":1089,"ĠMA":1090,"375":1091,"EH":1092,"IJ":1093,"Ġ125":1094,"AMN":1095,"225":1096,"DO":1097,"}^{{":1098,"Ġ105":1099,"...(":1100,"ĠCM":1101,"NaNO":1102,"HOOC":1103,"EM":1104,"int":1105,"Ġ65":1106,"Ġ78":1107,"ĠCA":1108,"999":1109,"abcd":1110,"Ġ2009":1111,"ĠVP":1112,"):\\":1113,"CAD":1114,"KL":1115,"ra":1116,"Ġ:\\":1117,"Ġcx":1118,"ĠDH":1119,"(*)":1120,")|":1121,"CAB":1122,"MBC":1123,"NT":1124,"cd":1125,"ml":1126,"Ġ)_{":1127,"Ġ+},\\":1128,"Ġ144":1129,"DI":1130,"HM":1131,"Ã¢":1132,"Ġ{\\":1133,"Ġ38":1134,"})}{\\":1135,"leftarrow":1136,"cosa":1137,"ĠME":1138,"ĠEF":1139,"}^{+}":1140,"DBC":1141,"OAB":1142,"col":1143,"Ġ47":1144,"ĠCF":1145,"0000":1146,"ĠEC":1147,"ĠIA":1148,"ĠCaCO":1149,"500":1150,"div":1151,"|^{":1152,"}}(\\":1153,"ABE":1154,"Ġ84":1155,"ĠnH":1156,"Ġ108":1157,"};(":1158,"AEF":1159,"á»Ľ":1160,"áº¿":1161,"ĠNaCl":1162,"HAB":1163,"VP":1164,"nCO":1165,"|}{":1166,"ĠY":1167,"Ġ58":1168,"144":1169,"ĠIM":1170,")}.\\":1171,"BAE":1172,"KI":1173,"Ox":1174,"km":1175,"}})(":1176,"Ġ43":1177,"Ġ46":1178,"Ġ52":1179,"ĠHD":1180,")^{-}":1181,"HCOO":1182,"ct":1183,"Ġ((\\":1184,"}):\\":1185,"Ġ63":1186,"ĠCos":1187,"ĠMH":1188,"AMC":1189,"83":1190,"94":1191,"MQ":1192,"PC":1193,"bx":1194,"bac":1195,"dx":1196,"lu":1197,"pH":1198,"sá»ĳ":1199,"sinC":1200,"103":1201,"Ġ2005":1202,"})_{(":1203,"BDC":1204,")*\\":1205,"112":1206,"HAC":1207,"ba":1208,"{|\\":1209,"|)":1210,"|}{\\":1211,"}^{*":1212,"Ġ2000":1213,"AEB":1214,"Ġ140":1215,"MgCl":1216,"ancol":1217,"})^{-}":1218,"Ã´ng":1219,"((\\":1220,"47":1221,"93":1222,"OP":1223,"as":1224,"ph":1225,"Ġl":1226,"Ġ66":1227,"cosB":1228,"ĠnCO":1229,"NaAlO":1230,"AHC":1231,").(\\":1232,"AgCl":1233,"Äĥ":1234,"ACE":1235,"ĠAr":1236,"ĠBK":1237,"273":1238,"ĠVT":1239,"ACH":1240,"EAB":1241,"FB":1242,"KA":1243,"sl":1244,"Ġma":1245,"Ġ62":1246,"121":1247,"128":1248,"ĠCr":1249,"ĠMD":1250,"ĠABD":1251,"Ġ2007":1252,"LN":1253,"Ni":1254,"OK":1255,"PD":1256,"cÃ³":1257,"ÃŃ":1258,"Ġ300":1259,"CuCl":1260,"Ġ135":1261,"cotx":1262,"}/(":1263,"FD":1264,"HCOOH":1265,"PA":1266,"gi":1267,"kg":1268,"Ġ+}\\":1269,"}))":1270,"Ġ41":1271,"ACM":1272,"Ġ101":1273,"}|}":1274,"ĠDB":1275,"ĠNC":1276,"Ġgn":1277,"EI":1278,"lÃł":1279,"pq":1280,"})}{(":1281,")/":1282,"110":1283,"BB":1284,"CAM":1285,"HPO":1286,"KD":1287,"PB":1288,"PM":1289,"au":1290,"tex":1291,"ÄĲ":1292,"Ġ\\%":1293,"}).(\\":1294,"ĠCHO":1295,"^{-},":1296,"Ġ......":1297,"Ġ2004":1298,")^{-}}":1299,"back":1300,")}\\":1301,"nt":1302,"tg":1303,"}}{-":1304,"Ġad":1305,"ĠBI":1306,"197":1307,"^{+},\\":1308,"}|\\":1309,"Äĥn":1310,")})":1311,"045":1312,"EG":1313,"KNO":1314,"cx":1315,"cho":1316,"ed":1317,"{_{":1318,"Ãª":1319,"});":1320,"Ġ51":1321,"Ġ76":1322,"ĠCI":1323,"ĠHM":1324,"ĠHCO":1325,"ĠCHCl":1326,"1998":1327,"Ġsinxcosx":1328,"ĠDF":1329,"AOD":1330,"ash":1331,"slash":1332,"backslash":1333,"CC":1334,"HI":1335,"OG":1336,"te":1337,"Ġlog":1338,"Ġ112":1339,"ĠCN":1340,"ĠFeCl":1341,"ĠIB":1342,"ĠIC":1343,"AIB":1344,"DEC":1345,"82":1346,"CBD":1347,"CLN":1348,"DG":1349,"HCOOC":1350,"SI":1351,"vÃ¬":1352,"Æ¡":1353,"Ġ-},":1354,"Ġ110":1355,"Ġ(*)":1356,"hay":1357,"105":1358,"})^{+":1359,"ĠBA":1360,"ĠDM":1361,"CaCl":1362,"):(":1363,"())^{":1364,";(\\":1365,"HCHO":1366,"Om":1367,"ay":1368,"du":1369,"mi":1370,"}*\\":1371,"Ġ71":1372,"162":1373,"130":1374,"ĠMn":1375,"175":1376,"BDA":1377,"AEC":1378,"_{(}":1379,"ĠKC":1380,"................":1381,"CG":1382,"EAC":1383,"Gly":1384,"Hg":1385,"sÄĳ":1386,"igma":1387,"Ġ400":1388,")((":1389,"Ġmax":1390,"}())^{":1391,"CHCH":1392,"Ġ74":1393,"BCD":1394,"1009":1395,"AHB":1396,"ĠOy":1397,"DCB":1398,"áºŃ":1399,"KClO":1400,"AS":1401,"QC":1402,"uy":1403,"vá»Ľ":1404,"}...\\":1405,"Ġ-}\\":1406,"Ġmin":1407,"cosA":1408,"}^{\\":1409,"123":1410,"ĠBF":1411,"ĠMI":1412,"ĠOD":1413,"CBA":1414,"BaCl":1415,"Ġ2003":1416,"Ġ2008":1417,"amin":1418,"cap":1419,"ĠGly":1420,"ank":1421,"}^{+}\\":1422,"Ã³c":1423,"Ã¡c":1424,")}}{":1425,"BP":1426,"CT":1427,"EN":1428,"HN":1429,"ONa":1430,"ia":1431,"iá»":1432,"kh":1433,"khi":1434,"me":1435,"ĠU":1436,"ĠCOONa":1437,"}}:\\":1438,"Ġ68":1439,"ĠHE":1440,"ĠHK":1441,"ADM":1442,"1996":1443,"ĠOI":1444,"AIC":1445,"ĠBaSO":1446,"}^{+}}":1447,"gamma":1448,"965":1449,"CP":1450,"EBC":1451,"KN":1452,"{{":1453,"Ġ,\\":1454,"^{(":1455,"Ġ88":1456,"Ġ2022":1457,"ĠCB":1458,"ĠBN":1459,"135":1460,"240":1461,"ĠSin":1462,"ĠED":1463,"Ġ2001":1464,"AFE":1465,"AOM":1466,"BTNT":1467,")^{+}":1468,"**)":1469,"625":1470,"DBA":1471,"FA":1472,"GE":1473,"OBC":1474,"Sigma":1475,"cb":1476,"cÃ¢":1477,"il":1478,"yOt":1479,"Ãº":1480,"ĠL":1481,"Ġ59":1482,"...)":1483,"ĠMK":1484,"ĠABM":1485,"COONH":1486,"BEC":1487,"ĠKOH":1488,"ZnO":1489,"ĠCuO":1490,"*(":1491,"/\\":1492,"87":1493,"BIC":1494,"HBC":1495,"IBC":1496,"KM":1497,"MAD":1498,"OAC":1499,"QP":1500,"cg":1501,"tu":1502,"Ġ?":1503,"^{*":1504,"Ġ67":1505,"})^{\\":1506,"Ġcosa":1507,"AMH":1508,"ĠABH":1509,"MAN":1510,"ĠDA":1511,"BHC":1512,"á»§":1513,"á»©":1514,"axit":1515,"}^{-},":1516,"Ġ2006":1517,"oxit":1518,"BTKL":1519,"mid":1520,"96500":1521,")}(\\":1522,")...(":1523,":(\\":1524,"DAH":1525,"EAD":1526,"}...":1527,"}}}}}":1528,"})}}":1529,"Ġ57":1530,"ABO":1531,"cosC":1532,"126":1533,"127":1534,"nguy":1535,"NHCH":1536,"ĠON":1537,"DCA":1538,"Ġpt":1539,"ĠPb":1540,"MgCO":1541,"ĠEB":1542,"ZnCl":1543,"Ġ.......":1544,"Ġ........":1545,"}^{-}}":1546,"CrCl":1547,"800":1548,"DAM":1549,"EK":1550,"OQ":1551,"cá»§":1552,"kx":1553,"ĠÄĳpcm":1554,"Ġ111":1555,"Ġ225":1556,"}},":1557,"Ġ53":1558,"ABN":1559,"2022":1560,"Ġ61":1561,"Ġ82":1562,"Ġ85":1563,"{((":1564,"ĠAP":1565,"Ġ121":1566,"ĠBr":1567,"Ġkx":1568,"140":1569,"abcde":1570,"ĠACB":1571,"loáº¡i":1572,"ĠBaCO":1573,"ĠAgNO":1574,"ĠsÄĳ":1575,"áº¿t":1576,"Ãªn":1577,"035":1578,"216":1579,"EBD":1580,"EDC":1581,"II":1582,"NI":1583,"On":1584,"RT":1585,"TM":1586,"mu":1587,"oi":1588,"Ġ(|":1589,"}),\\":1590,"Ġbd":1591,"Ġcm":1592,"Ġarc":1593,"COD":1594,"ĠHN":1595,"134":1596,"ĠMnO":1597,"222":1598,"ĠIK":1599,"BED":1600,"ĠAHB":1601,"BFC":1602,"}):(\\":1603,"700":1604,"CAH":1605,"ECB":1606,"FH":1607,"HS":1608,"KE":1609,"KAC":1610,"Min":1611,"MAH":1612,"asu":1613,"sau":1614,"acÃ³":1615,"Ġ130":1616,"}}})":1617,"}}.(\\":1618,"Ġcd":1619,"Ġay":1620,"ACK":1621,"ĠADE":1622,"NaHSO":1623,"Ġ162":1624,"overbrace":1625,"199":1626,"ĠOK":1627,"MBA":1628,"ĠpH":1629,"ĠEH":1630,"BMD":1631,"ĠKB":1632,"ANM":1633,"}^{-}\\":1634,"Æ°Æ¡":1635,"Æ°Æ¡ng":1636,"115":1637,";^{":1638,"BQ":1639,"HAD":1640,"ND":1641,"PN":1642,"earrow":1643,"kt":1644,"nC":1645,"red":1646,"Ã©":1647,"Ġ+};":1648,"^{^{":1649,"ĠxCO":1650,"}),":1651,"1010":1652,"201":1653,"Ġ95":1654,"Ġ2002":1655,"FeCO":1656,"1006":1657,"256":1658,"133":1659,"ĠMF":1660,"};(\\":1661,"143":1662,"}|)^{":1663,"Ala":1664,"ĠDK":1665,"BAI":1666,"ĠIE":1667,"BEF":1668,"ĠAla":1669,"Ġvc":1670,"KHSO":1671,"_{-}^{+}\\":1672,"}^{*}":1673,"measu":1674,"redangle":1675,"measuredangle":1676,"BMA":1677,"BMC":1678,"BOD":1679,"CAE":1680,"GH":1681,"IF":1682,"IO":1683,"SM":1684,"^\\":1685,"xsin":1686,"xOt":1687,"{^\\":1688,"|.":1689,"ĠCOOCH":1690,"Ġmn":1691,"}()_{":1692,"106":1693,"CHOH":1694,"Ġ97":1695,"Ġ999":1696,"ACI":1697,"Ġ106":1698,"Ġ123":1699,"005":1700,"Ġ169":1701,"1990":1702,"ĠMO":1703,"BDE":1704,"CDA":1705,"MCA":1706,"ĠDI":1707,"CAN":1708,"MgSO":1709,"}:(":1710,"ĠFC":1711,"miny":1712,"875":1713,"DP":1714,"QM":1715,"TN":1716,"aa":1717,"he":1718,"ka":1719,"mt":1720,"sta":1721,"tb":1722,"uv":1723,"yOz":1724,"Ġ}\\":1725,"}{|\\":1726,"Ġ3333":1727,"ABK":1728,"104":1729,"202":1730,"Ġ600":1731,"Ġ79":1732,"Ġ102":1733,"ĠHA":1734,"ĠHO":1735,"1007":1736,"008":1737,"136":1738,"1991":1739,"149":1740,"BDM":1741,"ĠOE":1742,"CBF":1743,"ĠSi":1744,"}}):\\":1745,"trong":1746,"áº£":1747,"áº¥":1748,"áº§":1749,"ANB":1750,"AKB":1751,"ĠCuSO":1752,"Äĳá»Ļ":1753,"Æ°á»":1754,"vá»Ľi":1755,"star":1756,")!":1757,")}(":1758,"Ch":1759,"HBr":1760,"IG":1761,"IP":1762,"ICB":1763,"Li":1764,"MCB":1765,"MOC":1766,"NK":1767,"es":1768,"fra":1769,"nCH":1770,"sd":1771,"uÃ´ng":1772,"{...":1773,"}....":1774,"Ġ+}}{":1775,"}})}":1776,"Ġcb":1777,"ĠcÄĥn":1778,"Ġ89":1779,"Ġ77":1780,"{(}":1781,"BCE":1782,"BCN":1783,"})_{\\":1784,"Ġ128":1785,"]{(\\":1786,"1008":1787,"ADH":1788,"192":1789,"AHM":1790,"AEH":1791,"224":1792,"CDE":1793,"Ġ240":1794,"ĠDN":1795,"BAK":1796,"BAO":1797,"CaSO":1798,"ĠPQ":1799,"mathfra":1800,"Ġ273":1801,"DEF":1802,"ddH":1803,"BNM":1804,"|}{|\\":1805,"ÃŃnh":1806,"áºŃy":1807,"mathfrak":1808,")/(":1809,"CQ":1810,"EO":1811,"EBA":1812,"GI":1813,"GK":1814,"IAB":1815,"OAM":1816,"kk":1817,"ns":1818,"xcosx":1819,"|)^{":1820,"ĵng":1821,"Ġ117":1822,"}}}\\":1823,"}}.(":1824,"Ġba":1825,"Ġ625":1826,"ACO":1827,"ĠCP":1828,"10000":1829,"ĠBAC":1830,"250":1831,"196":1832,"ĠMP":1833,"AMO":1834,"AHE":1835,"243":1836,"ĠNQ":1837,"ĠNe":1838,"ĠEG":1839,"444":1840,"Ġcotg":1841,"Ã´n":1842,"023":1843,"299":1844,"600":1845,"BOA":1846,"ECD":1847,"KF":1848,"OCB":1849,"Pt":1850,"RCOOH":1851,"TH":1852,"ZE":1853,"bk":1854,"dm":1855,"gra":1856,"gÃ³c":1857,"np":1858,"nx":1859,"not":1860,"xOz":1861,"zOt":1862,"Ã¹":1863,"}})(\\":1864,"Ġch":1865,"}}{{":1866,"Ġ512":1867,"ACN":1868,"COCH":1869,"ĠHF":1870,"Ġsina":1871,"Ġ126":1872,"142":1873,"Ġdpcm":1874,"ĠOP":1875,"CDB":1876,"ĠACM":1877,"maxy":1878,"ĠNA":1879,"Ġpq":1880,"á»ĭ":1881,"ĠFeO":1882,"ĠEI":1883,"ĠIH":1884,"ĠIN":1885,"BME":1886,"Ġ270":1887,"Ġ............":1888,")^{-}\\":1889,"Ġabcd":1890,"ĠGM":1891,"chung":1892,"BTE":1893,"}):(":1894,"á»ĳi":1895,"Äĳá»ĵng":1896,"OOCCH":1897,"luÃ´n":1898,"grave":1899,"(**)":1900,",(\\":1901,"3000":1902,"4000":1903,"676":1904,"EAM":1905,"HAE":1906,"JC":1907,"KAB":1908,"MCD":1909,"MDC":1910,"MOB":1911,"Max":1912,"MHB":1913,"PH":1914,"SD":1915,"aO":1916,"co":1917,"nFe":1918,"nNO":1919,"tm":1920,"xC":1921,"}.....":1922,"});\\":1923,"Ġcz":1924,"Ġml":1925,"}\\}":1926,"abx":1927,"ĠAMB":1928,"ĠcosC":1929,"ClO":1930,"NaBr":1931,"ĠCHCH":1932,"AHD":1933,"tanC":1934,"2222":1935,"Ġ256":1936,"CBH":1937,"á»Ļ":1938,"thÃ¬":1939,"AIK":1940,"\\%}{":1941,"BKC":1942,"082":1943,"ĠCaO":1944,"EBF":1945,"ĠvÃł":1946,"BOK":1947,"enz":1948,"lnx":1949,"MnSO":1950,"}^{*})":1951,"anken":1952,"Ãºng":1953,"cgv":1954,"muoi":1955,"este":1956,")//":1957,"260":1958,"AL":1959,"EMC":1960,"GF":1961,"GX":1962,"HAM":1963,"HCA":1964,"IBA":1965,"KHCO":1966,"NQ":1967,"NAC":1968,"OO":1969,"]{-":1970,"cung":1971,"dh":1972,"dt":1973,"háº¿t":1974,"kb":1975,"tá»":1976,"uch":1977,"xA":1978,"±ng":1979,"acos":1980,"Ġ116":1981,"});(":1982,"{((\\":1983,"BCF":1984,"BCK":1985,"ĠAO":1986,"169":1987,"Ġ...\\":1988,"1111":1989,"1005":1990,"ADO":1991,"2500":1992,"001":1993,"phan":1994,"tanB":1995,"ĠOx":1996,"ĠOz":1997,".......":1998,"Ġ1577":1999,"DCE":2000,"Ġ136":2001,"Ġ+}/":2002,"MAO":2003,"BAx":2004,"BHA":2005,"501":2006,"á»ĩ":2007,"ĠEK":2008,"ĠKH":2009,"456":2010,"ĠFB":2011,"chia":2012,"vÃłx":2013,"mst":2014,"tgpu":2015,"nguyen":2016,"cá»§a":2017,")*":2018,"315":2019,"729":2020,"AT":2021,"DMB":2022,"GN":2023,"He":2024,"JA":2025,"KBC":2026,"KCB":2027,"MS":2028,"NE":2029,"SN":2030,"by":2031,"glu":2032,"sa":2033,"so":2034,"var":2035,"xFe":2036,"zOy":2037,"|;":2038,"ĠJ":2039,"Ġbn":2040,"}}{|\\":2041,"Ġ500":2042,"Ġmt":2043,"Ġmy":2044,"Ġmsin":2045,"sint":2046,"Ġ92":2047,"ACF":2048,"},...":2049,"ĠAEF":2050,"ĠCC":2051,"1001":2052,"AMD":2053,"}|}{|\\":2054,"BDF":2055,"AEM":2056,"^{-}}}{":2057,"CBM":2058,"Ġ132":2059,"}}).\\":2060,"ĠFeSO":2061,"ĠEA":2062,"ĠEM":2063,"áº±ng":2064,"ĠID":2065,"BEA":2066,"ĠKM":2067,"AIE":2068,"DEA":2069,"ÄĳÃºng":2070,"296":2071,"AOE":2072,"0375":2073,"CED":2074,"ĠcotC":2075,"666":2076,"Æ¯CLN":2077,"Ã¬nh":2078,"''(":2079,"''_{":2080,"Ġ1995":2081,"uchy":2082,"chiaháº¿t":2083,")}.":2084,".}":2085,"210":2086,"499":2087,"900":2088,"BCH":2089,"BOI":2090,"CMA":2091,"DOC":2092,"DBE":2093,"DAK":2094,"GO":2095,"IMC":2096,"MON":2097,"NBC":2098,"OCD":2099,"PE":2100,"\\};\\":2101,"arc":2102,"cy":2103,"ic":2104,"nearrow":2105,"ute":2106,"xa":2107,"xAB":2108,"zo":2109,"Ġi":2110,"acute":2111,"Ġ216":2112,"}}}}{":2113,"Ġ(...":2114,"Ġmsinx":2115,"107":2116,"Ġ69":2117,"BCM":2118,"Ġ1010":2119,"ĠAMC":2120,"...}":2121,"ĠHBr":2122,"Ġ124":2123,"185":2124,"Ġ189":2125,"1995":2126,"AHF":2127,"Ġdx":2128,"BDH":2129,"......":2130,"245":2131,"ĠACD":2132,"Ġ250":2133,"MBN":2134,"605":2135,"Ġ243":2136,"}}):(\\":2137,"Cauchy":2138,"ĠNB":2139,"CAK":2140,"BEM":2141,"ĠKN":2142,"AKD":2143,"\\%}":2144,"modp":2145,"ĠCaCl":2146,"ĠBaCl":2147,"BFE":2148,"minu":2149,"NaClO":2150,"ĠMgCl":2151,"hiá»ĩ":2152,"NTK":2153,"á»©ng":2154,"Ã©t":2155,"Æ°á»Ŀ":2156,"\\};\\{":2157,"!}{":2158,")...":2159,"344":2160,"436":2161,"525":2162,"675":2163,"Ax":2164,"BMN":2165,"DQ":2166,"DAN":2167,"DHC":2168,"EAN":2169,"EAF":2170,"FI":2171,"FM":2172,"GG":2173,"HBA":2174,"HAK":2175,"HCOONa":2176,"KAE":2177,"MCO":2178,"OS":2179,"RCOO":2180,"cÄĥn":2181,"cÃ¹":2182,"dk":2183,"on":2184,"phi":2185,"sm":2186,"sp":2187,"tOy":2188,"tOt":2189,"tOz":2190,"vuÃ´ng":2191,"xx":2192,"xsinx":2193,"yx":2194,"Ã£":2195,"ģu":2196,"Ġ+^{":2197,"}}:":2198,"}}|":2199,"}}}.\\":2200,"Ġ320":2201,"})...(":2202,"ABF":2203,"ABI":2204,"Ġ91":2205,"OHC":2206,"Ġ800":2207,"Ġ73":2208,"Ġ750":2209,"Ġne":2210,"Ġnx":2211,"BCI":2212,"ĠAA":2213,"ĠAG":2214,")}:\\":2215,"})_{(\\":2216,"ĠCAB":2217,"155":2218,"ĠBB":2219,"ĠBAD":2220,"ADF":2221,"187":2222,"003":2223,"ĠCHOH":2224,"ĠCHBr":2225,"195":2226,"1980":2227,"1986":2228,"147":2229,"ĠOOC":2230,"Ġbcx":2231,"CuS":2232,"Ġ143":2233,"Ġ147":2234,"COOK":2235,"DCM":2236,"ĠACE":2237,"301":2238,"ĠDO":2239,"BAF":2240,"ĠNi":2241,"CAF":2242,"MNP":2243,"ĠPT":2244,"á»ĥ":2245,"theta":2246,"BaO":2247,"ĠKD":2248,"ĠKCl":2249,"DEB":2250,"Äĳá»ĳi":2251,"AFD":2252,"CMD":2253,"xyzt":2254,"BID":2255,"cotB":2256,"DHA":2257,"9797":2258,"áº¡ng":2259,"Ġ1992":2260,"9999999":2261,"3759":2262,"HCOONH":2263,"iá»ĥ":2264,"notin":2265,"nguyentu":2266,"){.":2267,"**":2268,"065":2269,"399":2270,"672":2271,"BS":2272,"BOM":2273,"EAH":2274,"EBM":2275,"FBC":2276,"GT":2277,"HQ":2278,"IAC":2279,"IAD":2280,"IDC":2281,"JB":2282,"MBD":2283,"ODC":2284,"Pd":2285,"QA":2286,"box":2287,"cu":2288,"dp":2289,"flo":2290,"lÃŃ":2291,"msin":2292,"mdd":2293,"na":2294,"nAl":2295,"nÃªn":2296,"ys":2297,"yOx":2298,"yOm":2299,"|(":2300,"Ġ{(":2301,"^{_{":2302,"}{}":2303,"Ġ399":2304,"Ġ3000":2305,"Ġ({":2306,"Ġxt":2307,"})}\\":2308,"Ġcy":2309,"ABP":2310,"CHA":2311,"Ġ94":2312,"Ġ104":2313,"Ġ10000":2314,"ĠAQ":2315,"ĠADC":2316,"ĠCAD":2317,"158":2318,"ClH":2319,"ĠsinB":2320,"ĠBO":2321,"ĠBQ":2322,"ĠBIC":2323,"255":2324,"132":2325,")}{-":2326,"198":2327,"1975":2328,"1985":2329,"ĠMin":2330,"AME":2331,"AMI":2332,"AMK":2333,"NHC":2334,"};...":2335,"145":2336,"ĠOF":2337,"ĠABE":2338,"setminu":2339,"^{-},\\":2340,"CDM":2341,"307":2342,"308":2343,"MAI":2344,"MCN":2345,"OBA":2346,"233":2347,"ĠSI":2348,"BAN":2349,"allsetminu":2350,"CAI":2351,"CAx":2352,"á»į":2353,"á»ı":2354,"ĠKA":2355,"ĠKI":2356,"ANC":2357,"AID":2358,"289":2359,"Ġ4036":2360,"Ġ192":2361,"ZnSO":2362,"AKC":2363,"AKM":2364,"////":2365,"ĠADM":2366,"CEA":2367,"MDA":2368,"EFD":2369,"ĠGn":2370,"BNC":2371,"chá»":2372,"and":2373,"ĠZnCl":2374,"AQP":2375,"})^{+}":2376,"khÃ´ng":2377,"^{*}":2378,"chiaháº¿tcho":2379,"Æ°á»Ŀng":2380,"4362":2381,"smallsetminu":2382,"boxed":2383,"floor":2384,"smallsetminus":2385,")}^{":2386,")...\\":2387,",...":2388,"012":2389,"016":2390,"024":2391,"1200":2392,"420":2393,"450":2394,"435":2395,"512":2396,"513":2397,"6605":2398,"896":2399,";...":2400,"AJ":2401,"CMN":2402,"DCH":2403,"DOB":2404,"ECA":2405,"FAE":2406,"HG":2407,"HP":2408,"IS":2409,"IAM":2410,"MX":2411,"MOA":2412,"NAB":2413,"OCH":2414,"PF":2415,"TÃ¬":2416,"[]{\\":2417,"báº±ng":2418,"mgi":2419,"nha":2420,"nSO":2421,"tin":2422,"til":2423,"tacÃ³":2424,"xH":2425,"xi":2426,"xOB":2427,"xOm":2428,"yra":2429,"|}{|":2430,"Ġo":2431,"Ġ}(":2432,"Ġor":2433,"Ġln":2434,"Ġ=^{":2435,"acb":2436,"Ġ175":2437,"ĠxH":2438,"Ġxx":2439,"Ġak":2440,"..{.":2441,")(...)":2442,"109":2443,"CHK":2444,"Ġ900":2445,"COB":2446,"Ġ87":2447,"ĠnC":2448,"Ġ107":2449,"ĠAHC":2450,"ĠADB":2451,"ĠCCl":2452,"1500":2453,"Ġth":2454,"119":2455,"NaH":2456,"ĠBP":2457,"1875":2458,"002":2459,"006":2460,"0075":2461,"138":2462,"Ġ188":2463,"AHN":2464,"170":2465,"ete":2466,"ĠOt":2467,"ĠABI":2468,"242":2469,"302":2470,"CBN":2471,"OCA":2472,"BHD":2473,"BHE":2474,"050":2475,"MNB":2476,"MNC":2477,"thá»©":2478,"ĠEN":2479,"ĠIF":2480,"ĠIO":2481,"BEH":2482,"BMI":2483,"ĠKP":2484,"Ġ198":2485,"441":2486,"ĠVal":2487,"808":2488,"AON":2489,"}:(\\":2490,"MDI":2491,"\\%.":2492,"\\%\\":2493,"CNM":2494,"ĠAMH":2495,"ĠGB":2496,"Sinx":2497,"áº¡n":2498,"Ġ1997":2499,"ÄĲK":2500,"ĠMnSO":2501,"Ġarcsin":2502,"BCNN":2503,"luÃ´nÄĳÃºng":2504,"enzen":2505,")//(":2506,"cyc":2507,"hiá»ĩm":2508,"thá»©c":2509,"%)":2510,")!}":2511,"0125":2512,"324":2513,"384":2514,"425":2515,"??":2516,"BGC":2517,"CCl":2518,"DIC":2519,"DIM":2520,"EOB":2521,"EAI":2522,"EDA":2523,"FG":2524,"HCB":2525,"HOC":2526,"HAN":2527,"IQ":2528,"KDC":2529,"MM":2530,"MOH":2531,"MCl":2532,"PG":2533,"QN":2534,"QR":2535,"SK":2536,"TB":2537,"TE":2538,"bO":2539,"cba":2540,"dO":2541,"do":2542,"dáº¡ng":2543,"eil":2544,"mO":2545,"nN":2546,"nl":2547,"ny":2548,"nHCl":2549,"opt":2550,"rong":2551,"tx":2552,"xf":2553,"xOn":2554,"yl":2555,"|.\\":2556,"Ġ.":2557,"Ġ\\{\\":2558,"}{{\\":2559,"hthe":2560,"Ġ118":2561,"_{(\\":2562,"}}})^{":2563,"}})\\":2564,"Ġ375":2565,"Ġ(|\\":2566,"ĠxFe":2567,"})}.\\":2568,"})}(\\":2569,"Ġ450":2570,"widetil":2571,"Ġmg":2572,"}(*)":2573,"203":2574,"CHB":2575,"CHCl":2576,"COA":2577,"COM":2578,"OHB":2579,"Ġ83":2580,"Ġ103":2581,"Ġ1024":2582,"ĠAED":2583,"ĠcosB":2584,"{-}{":2585,"ĠCMK":2586,"159":2587,"ĠHCOOH":2588,"ĠHBA":2589,"ĠsinA":2590,"1004":2591,"ĠBG":2592,"ĠBEC":2593,"ngi":2594,"257":2595,"Ġ182":2596,"1997":2597,"ĠMAB":2598,"AHI":2599,"^{+};":2600,"9926":2601,"Ġ156":2602,"Ġ145":2603,"DCI":2604,"309":2605,"Ġ137":2606,"MCK":2607,"OBM":2608,"}}).(":2609,"CAO":2610,"504":2611,"thu":2612,"404":2613,"áº¯":2614,"Ġ1008":2615,"BMO":2616,"ĠKE":2617,"AIO":2618,"280":2619,"ĠAHD":2620,"Ġ196":2621,"Ġ1983":2622,"Ġacy":2623,"Ġacos":2624,"ICK":2625,"ĠCuCl":2626,"ECF":2627,"})}{(\\":2628,"EFH":2629,"ĠAlCl":2630,"ĠFH":2631,"ĠcotB":2632,"ĠNaNO":2633,"BIK":2634,"BIM":2635,"MHN":2636,"ĠGD":2637,"}^{+},":2638,"HOCH":2639,"777":2640,"ĠMgO":2641,"}*(":2642,"})^{-}\\":2643,"Ġ1998":2644,"Cosx":2645,"ntáº¡i":2646,"^{(}":2647,"cÃ¢ntáº¡i":2648,"cgc":2649,"CHOHCH":2650,"áº§u":2651,"Äĳá»ĵngdáº¡ng":2652,"}.....\\":2653,"widetilde":2654,"(.":2655,")}}{\\":2656,")*(":2657,"*...":2658,".^{":2659,"/(\\":2660,"022":2661,"215":2662,"336":2663,"412":2664,"475":2665,"710":2666,"765":2667,"An":2668,"Ar":2669,"Au":2670,"BL":2671,"BON":2672,"CS":2673,"CID":2674,"DMA":2675,"DBH":2676,"EDB":2677,"EIB":2678,"GQ":2679,"HBE":2680,"HKC":2681,"IDA":2682,"JD":2683,"KP":2684,"KAD":2685,"MCH":2686,"MHC":2687,"MEC":2688,"MEF":2689,"MEB":2690,"MED":2691,"ODB":2692,"PI":2693,"PS":2694,"PV":2695,"RCl":2696,"Sn":2697,"TS":2698,"UCLN":2699,"XD":2700,"XY":2701,"bset":2702,"bÃł":2703,"ga":2704,"is":2705,"iáº¿":2706,"iáº¿t":2707,"lit":2708,"mH":2709,"mOy":2710,"nNa":2711,"oc":2712,"pV":2713,"px":2714,"searrow":2715,"táº¡i":2716,"váºŃy":2717,"xAC":2718,"Ã²":2719,"Ġ/":2720,"Ġsqrt":2721,"Ġ}}":2722,"Ġpi":2723,"Ġlim":2724,"īnh":2725,"Ġ\\{(":2726,"Ġ=_{-}^{+}\\":2727,"Ġ-},\\":2728,"}{{":2729,"}}}{(":2730,"Ġ324":2731,"})|":2732,"})}}{":2733,"}),(":2734,"})//":2735,"ĠyH":2736,"Ġcp":2737,"}}{.":2738,"Ġaz":2739,"Ġ5050":2740,"ABG":2741,")_{(":2742,"sinb":2743,"Ġ650":2744,"}.|":2745,"ACx":2746,"CONHCH":2747,"OHD":2748,"Ġ86":2749,"}^{}\\":2750,"ĠAMN":2751,"ĠAEC":2752,"ĠAOD":2753,"122":2754,"1212":2755,"ĠcosA":2756,"152":2757,"161":2758,"168":2759,"ĠHe":2760,"ĠHAB":2761,"Ġ122":2762,"114":2763,"1003":2764,"ĠBOC":2765,"ĠBMC":2766,"ADN":2767,")\\}":2768,"alph":2769,"1800":2770,"193":2771,"ĠMQ":2772,"ĠMT":2773,"Ġkm":2774,"sinxcos":2775,"146":2776,"tana":2777,"Ġdk":2778,"994":2779,"995":2780,"AEI":2781,"ĠOQ":2782,"ĠABO":2783,"CDO":2784,"Ġ149":2785,"ĠACI":2786,"MBI":2787,"Ġmoln":2788,"ĠDP":2789,"suyra":2790,"subset":2791,"272":2792,"ĠNF":2793,"ĠNK":2794,"ĠPB":2795,"ĠPC":2796,"ĠPD":2797,"503":2798,"á»¥":2799,"ĠtanB":2800,"trá»ĭ":2801,"ĠEBD":2802,"Ġ1007":2803,"Ġ1009":2804,"ĠKMnO":2805,"288":2806,"HCI":2807,"HCM":2808,"Ġ4033":2809,"Ġ4026":2810,");(\\":2811,"Ġ272":2812,"AKE":2813,"297":2814,"DBI":2815,"Ġ288":2816,"EFM":2817,"modm":2818,"ĠFD":2819,"ĠNaAlO":2820,"1201":2821,"cotA":2822,"cotg":2823,"MHD":2824,"ĠGC":2825,"343":2826,"hoáº·ca":2827,"DME":2828,"SinA":2829,"MOQ":2830,"ĠHClO":2831,"HFE":2832,"INM":2833,"Äĳá»īnh":2834,"999999":2835,"Ã¡trá»ĭ":2836,"Ġ)_{(":2837,"Ã¢ngi":2838,"ctu":2839,"SIZE":2840,"Æ¡n":2841,"ankan":2842,"iá»ģu":2843,"khÃ¡c":2844,"khix":2845,"^{*})":2846,"|.|\\":2847,"áº£i":2848,"}....\\":2849,"á»Ļc":2850,"cÃ¹ng":2851,"Äĳá»ĳiÄĳá»īnh":2852,"ĠSIZE":2853,"tinhthe":2854,"Ġacosx":2855,"alphacos":2856,"Ã¢ngiÃ¡c":2857,"275":2858,"320":2859,"316":2860,"350":2861,";|":2862,"BCO":2863,"Cd":2864,"DT":2865,"DAF":2866,"DMH":2867,"EOD":2868,"EHB":2869,"EOF":2870,"FN":2871,"FEC":2872,"HBD":2873,"HMB":2874,"HDE":2875,"HMK":2876,"IBD":2877,"IBH":2878,"IBM":2879,"IAK":2880,"KCA":2881,"LT":2882,"Left":2883,"MT":2884,"MSO":2885,"MAE":2886,"NMC":2887,"OBD":2888,"ODA":2889,"OCOCH":2890,"QK":2891,"QAC":2892,"RA":2893,"SE":2894,"TacÃ³":2895,"TÃŃnh":2896,"VáºŃy":2897,"bu":2898,"benzen":2899,"chat":2900,"go":2901,"hc":2902,"hit":2903,"ket":2904,"mÃł":2905,"nb":2906,"nBa":2907,"pA":2908,"ru":2909,"vs":2910,"vÃ´":2911,"xb":2912,"¯sá»ĳ":2913,"Ġ,":2914,"Ġ.\\":2915,"Ġ-}.":2916,"Ġ1102":2917,"Ġ210":2918,"Ġ232":2919,"Ġ265":2920,"Ġ297":2921,"}}...":2922,"}})}{":2923,"ĠyB":2924,"Ġyx":2925,"ĠyCO":2926,"}}{|":2927,"Ġmcosx":2928,"ABx":2929,"1024":2930,"204":2931,"207":2932,"CHI":2933,"Ġ700":2934,"ĠnSO":2935,"ĠAIB":2936,"ĠAOM":2937,"Ġ202":2938,"ĠCBD":2939,"ĠCMD":2940,"ClCH":2941,"ĠHI":2942,"ĠHAC":2943,"NaI":2944,"ĠBDC":2945,"Ġ1600":2946,"1945":2947,"1992":2948,"1989":2949,"ĠMax":2950,"AHO":2951,"Ġaby":2952,"^{+}(":2953,"^{+}}\\":2954,"^{+},(":2955,"tanA":2956,"Ġda":2957,"Ġdb":2958,"Ġ|(\\":2959,"BDN":2960,"....(":2961,"^{-}}{":2962,"})((":2963,"CuFeS":2964,"COOR":2965,"241":2966,"2499":2967,"MBO":2968,"CBI":2969,"Ġ133":2970,"MAK":2971,"Ġ242":2972,"750":2973,"OCM":2974,"}})...(":2975,"ĠBCN":2976,"Ġ3021":2977,"ĠND":2978,"055":2979,"MNPQ":2980,"ĠPR":2981,"3600":2982,"á»±":2983,"á»ģ":2984,"ĠgÃ³c":2985,"ĠEAB":2986,"OAI":2987,"ĠIG":2988,"Ġ1006":2989,"AND":2990,"331":2991,"Ġ170":2992,"ĠAHE":2993,"Ġ193":2994,"orx":2995,"DEH":2996,"Ġacx":2997,"ÄĳÆ°á»Ŀng":2998,"AFH":2999,"448":3000,"ndehit":3001,"AOI":3002,"496":3003,"4901":3004,"):(\\":3005,"Ġ504":3006,"CMR":3007,"CEM":3008,"048":3009,"})}{-":3010,"ĠAlO":3011,"ĠFE":3012,"ĠFM":3013,")^{-}}}{":3014,"ĠNaHCO":3015,"376":3016,"BIH":3017,"BIO":3018,"EDF":3019,"EDH":3020,"ĠGN":3021,"minf":3022,"mino":3023,"ĠQI":3024,"DKA":3025,".....(":3026,"DFE":3027,"Ġsá»ĳ":3028,"_{-}^{+}":3029,"phÆ°Æ¡ng":3030,"Ġlg":3031,")/\\":3032,"Ãªnt":3033,"hayx":3034,"........................":3035,"cÃ¢n":3036,"Æ°Æ¡ngá»©ng":3037,"arcsin":3038,"lÃŃt":3039,"chá»¯sá»ĳ":3040,"bOc":3041,"Leftarrow":3042,"(*":3043,"))}{":3044,")}}(":3045,"116":3046,"440":3047,"575":3048,"505":3049,"670":3050,"720":3051,"775":3052,"864":3053,"8000":3054,";|\\":3055,"AOH":3056,"Be":3057,"BOy":3058,"BOE":3059,"Cot":3060,"CMB":3061,"DAI":3062,"DOE":3063,"EQ":3064,"EMA":3065,"EIA":3066,"EPD":3067,"FAB":3068,"GS":3069,"HBM":3070,"HED":3071,"IAE":3072,"ICA":3073,"JK":3074,"KBD":3075,"KHC":3076,"KCE":3077,"KEC":3078,"Lys":3079,"MNH":3080,"MIB":3081,"NG":3082,"NMB":3083,"NMA":3084,"NCA":3085,"NBM":3086,"OCO":3087,"ONO":3088,"OAD":3089,"OAE":3090,"PK":3091,"PR":3092,"PCB":3093,"ROH":3094,"XE":3095,"XO":3096,"YZ":3097,"ah":3098,"ai":3099,"at":3100,"bz":3101,"dv":3102,"dÆ°":3103,"em":3104,"gv":3105,"hb":3106,"iap":3107,"kc":3108,"lta":3109,"my":3110,"nc":3111,"nOH":3112,"nCa":3113,"nNaOH":3114,"oH":3115,"ok":3116,"ts":3117,"va":3118,"xCO":3119,"xBA":3120,"yy":3121,"yta":3122,"yOn":3123,"{{\\":3124,"|}}":3125,"Ġ;\\":3126,"Ġ/\\":3127,"Ġ+}.":3128,"Ġ+};\\":3129,"Ġ220":3130,"Ġ226":3131,"Ġ290":3132,"}}})}":3133,"Ġ350":3134,"Ġ(....":3135,"ĠxA":3136,"})})":3137,"Ġ441":3138,"delta":3139,"Ġbsinx":3140,"Ġbcosx":3141,"Ġcung":3142,"Ġcgv":3143,"Ġ540":3144,"ĠmH":3145,"Ġmcos":3146,"}({\\":3147,"ABAC":3148,"sinAOB":3149,"208":3150,"CHM":3151,"Ġ93":3152,"(\\%)":3153,"ACP":3154,"OHCH":3155,"cost":3156,"Ġ729":3157,"Ġnt":3158,"Ġny":3159,"ĠnNO":3160,"abz":3161,"BCy":3162,"ĠACH":3163,"129":3164,"Ġ201":3165,"ĠCBA":3166,"FeBr":3167,"151":3168,"153":3169,"156":3170,"163":3171,"165":3172,"16289":3173,"ĠHSO":3174,"Ġtrong":3175,"Ġ127":3176,"113":3177,"117":3178,"NaCrO":3179,"ĠBL":3180,"ngh":3181,"137":3182,"Ġ168":3183,"Ġkb":3184,"Ġkg":3185,"Ġkhi":3186,"AHK":3187,"171":3188,"177":3189,"^{+}}{":3190,"BDK":3191,"AEO":3192,"nglÃł":3193,"CDN":3194,"Ġ146":3195,"DCF":3196,"ĠACN":3197,"Ġ252":3198,"Ġ259":3199,"MBE":3200,"CBO":3201,"bca":3202,"bcx":3203,"Ġ+}:\\":3204,"MCE":3205,"ĠDQ":3206,"232":3207,"ĠSC":3208,"ĠNP":3209,"052":3210,"Ġpx":3211,"ĠPI":3212,"ĠPO":3213,"á»«":3214,"ĠtanA":3215,"ĠtanC":3216,"ptm":3217,"ĠIJ":3218,"ĠIP":3219,"HClO":3220,"ĠKNO":3221,"})}_{":3222,"AIM":3223,"287":3224,"HCE":3225,"Ġ.........":3226,"5625":3227,"ÄĳÃ³":3228,"ĠCONH":3229,"DBK":3230,"265":3231,"ĠADH":3232,"POQ":3233,"MIN":3234,"Ġaxit":3235,"amÃ£":3236,"984":3237,"CME":3238,"CMK":3239,"CEB":3240,"CEF":3241,"CEH":3242,"can":3243,"MDK":3244,"6517":3245,"EFC":3246,"ĠBHA":3247,"ĠFA":3248,"ĠFI":3249,"nOm":3250,"ODH":3251,"exis":3252,"HBK":3253,"CNI":3254,"ĠCaSO":3255,"BIE":3256,")))":3257,"342":3258,"BFD":3259,"Ġ8072":3260,"anin":3261,"hoáº·cm":3262,"vÃłb":3263,"hoáº·ct":3264,"4375":3265,"BTDT":3266,"msn":3267,"SinB":3268,"MOx":3269,"CKE":3270,"ĠDCM":3271,"CIN":3272,"áº¡nh":3273,"ĠQC":3274,"ĠQK":3275,"ĠQM":3276,"HFC":3277,"DKB":3278,".....\\":3279,"ĠAIE":3280,"ĠAIN":3281,"MFC":3282,"PbCO":3283,"ĠÆ¯CLN":3284,"Ġsd":3285,"Ġ1999":3286,")^{+}}":3287,")^{+},(":3288,"FEH":3289,"ĠCOONH":3290,"áº¡icÃ³":3291,"Ã¢n":3292,"phen":3293,"Ġmaxy":3294,"ĠCrO":3295,"lÃłm":3296,"lÃłt":3297,"áºŃn":3298,"123456":3299,"iá»ĩ":3300,"cÃ¢u":3301,"tua":3302,"nguyÃªn":3303,"III":3304,"Ġarccos":3305,"áº¥y":3306,"Æ°á»£":3307,"aOb":3308,")...(\\":3309,"979798":3310,"iá»ĥu":3311,"á»ıamÃ£":3312,"thuá»Ļc":3313,"*...*":3314,"Ank":3315,"kettua":3316,"exists":3317,"!!":3318,"!.(":3319,"({":3320,"(...)":3321,"))\\":3322,")}}\\":3323,")}).\\":3324,").....(":3325,"013":3326,"095":3327,"220":3328,"335":3329,"540":3330,"688":3331,"671":3332,"825":3333,"As":3334,"BOH":3335,"BIA":3336,"CL":3337,"DMC":3338,"DOA":3339,"DBM":3340,"DIB":3341,"DAO":3342,"EBH":3343,"EMN":3344,"EAO":3345,"EIC":3346,"EHF":3347,"FK":3348,"FO":3349,"FCH":3350,"FAD":3351,"FDC":3352,"FCB":3353,"FBA":3354,"FDE":3355,"FAK":3356,"FDA":3357,"GP":3358,"Glu":3359,"HDC":3360,"HAF":3361,"HNM":3362,"ICH":3363,"IOB":3364,"IMN":3365,"IEC":3366,"IEA":3367,"KBM":3368,"KCM":3369,"LB":3370,"MJ":3371,"MIA":3372,"MÃł":3373,"MOI":3374,"NF":3375,"NCO":3376,"NOH":3377,"NAH":3378,"NAE":3379,"NBH":3380,"NMI":3381,"NCM":3382,"NMH":3383,"OT":3384,"OMN":3385,"OIA":3386,"OID":3387,"PAC":3388,"PCl":3389,"PCM":3390,"QI":3391,"RO":3392,"RCO":3393,"RCOONa":3394,"SAB":3395,"SABC":3396,"TL":3397,"The":3398,"XÃ©t":3399,"[{":3400,"asinx":3401,"atm":3402,"andehit":3403,"bá»ĥ":3404,"báº¡n":3405,"biáº¿t":3406,"cO":3407,"ceil":3408,"cctu":3409,"etan":3410,"ept":3411,"ix":3412,"ky":3413,"lÃ":3414,"lam":3415,"lá»Ľ":3416,"láº§":3417,"lfloor":3418,"lceil":3419,"msinx":3420,"nHNO":3421,"ocho":3422,"pd":3423,"pept":3424,"qt":3425,"rfloor":3426,"tt":3427,"tÃŃnh":3428,"vÃ´ng":3429,"xB":3430,"xM":3431,"xm":3432,"xin":3433,"xOA":3434,"xON":3435,"yOB":3436,"zOm":3437,"{..":3438,"{^{\\":3439,"|(\\":3440,"}?":3441,"}^":3442,"}//":3443,"}........":3444,"«}":3445,"âĸ":3446,"Ġw":3447,"Ġha":3448,"ĠGA":3449,"ĠCOOC":3450,"ķng":3451,"Ġ+}(":3452,"^{âĸ":3453,"Ġ-^{":3454,"igi":3455,"Ġ115":3456,"Ġ119":3457,"own":3458,"Ġ275":3459,"Ġ280":3460,"}}};":3461,"}}}}{\\":3462,"}}}(\\":3463,"}}*\\":3464,"}}|}{|\\":3465,"Ġ342":3466,"})}}^{":3467,"})/(\\":3468,"hai":3469,"Ġ4224":3470,"Ġbk":3471,"Ġcho":3472,"ing":3473,"Ġan":3474,"Ġmb":3475,"ĠmÃł":3476,"}(**)":3477,"ABt":3478,"Ġ661":3479,"CHN":3480,"COI":3481,"CONH":3482,"propt":3483,"ĠnO":3484,"})^{{":3485,"ole":3486,"ĠAx":3487,"ĠAOB":3488,"Ġzy":3489,"Ġ205":3490,"Ġ208":3491,"Ġ2030":3492,"ĠCG":3493,"ĠCQ":3494,"FeI":3495,"166":3496,"ĠHG":3497,"ĠHQ":3498,"ĠsinC":3499,"Ġ...(":3500,"Ġ...}}}":3501,"Ġtx":3502,"NOy":3503,"118":3504,"11111":3505,"1002":3506,"100000":3507,"ĠBDE":3508,"ĠBMH":3509,"ADI":3510,"alanin":3511,"184":3512,"009":3513,"1313":3514,"ĠCHA":3515,"Ġ18162":3516,"Ġ167":3517,"190":3518,"1983":3519,"ĠMy":3520,"ĠMCl":3521,"ĠMON":3522,"ĠMBO":3523,"Ġkmol":3524,"sinxsin":3525,"AHQ":3526,"Ġabx":3527,"148":3528,"1400":3529,"176":3530,"Ġdc":3531,"Ġdd":3532,"Ġdt":3533,"993":3534,"}}};\\":3535,"etil":3536,"AEP":3537,"ĠOAB":3538,"ĠABK":3539,".........":3540,"^{-}.":3541,"CDF":3542,"CDK":3543,"MBF":3544,"CBE":3545,"Ġ138":3546,"OBH":3547,"ĠDAB":3548,"ĠDHB":3549,"ĠDOQ":3550,"231":3551,"235":3552,"2341":3553,"BHK":3554,"BHM":3555,"BHN":3556,"BHO":3557,"CaC":3558,"ĠNI":3559,"ĠNM":3560,"056":3561,"Ġpb":3562,"ĠPH":3563,"ĠPM":3564,"ĠPt":3565,"ĠPx":3566,"365":3567,"Ġgt":3568,"ĠFeS":3569,"trÃ¬nh":3570,"408":3571,"4026":3572,"ĠECB":3573,"OAN":3574,"Ġ1001":3575,"Ġ1002":3576,"Ġ1003":3577,"ĠKF":3578,"ĠKHSO":3579,"loai":3580,"Ġ364":3581,"^{+}/":3582,"Ġ4043":3583,"Ġ1985":3584,"AKI":3585,"Äĳu":3586,"Äĳiá»ĥ":3587,"Äĳáº§u":3588,"ĠCOB":3589,"ĠCOD":3590,"4444":3591,"263":3592,"ĠADN":3593,"497":3594,"MIK":3595,"MIO":3596,"985":3597,"CEN":3598,"MDH":3599,"EFA":3600,"modn":3601,"ĠFG":3602,"ĠNHCH":3603,"ĠNaHSO":3604,"ĠBDH":3605,"BKE":3606,"0875":3607,"ĠAME":3608,"CFD":3609,"Ġ269":3610,"ĠGE":3611,"ĠGK":3612,"ddHCl":3613,"ddHNO":3614,"ĠvuÃ´ng":3615,"âĢĻ":3616,"anpha":3617,"hoáº·cb":3618,"hoáº·cy":3619,"DMG":3620,"MKH":3621,"Ã³ct":3622,"ĠClO":3623,"SinC":3624,"MEO":3625,"MEP":3626,"}}}}}{\\":3627,"789":3628,"667":3629,"OEH":3630,"PTK":3631,"DKC":3632,"nhÃ©":3633,"DFA":3634,"DFC":3635,"ĠAgCl":3636,"5731":3637,"ĠZnO":3638,"ĠÆ¯C":3639,"bda":3640,"Ġsau":3641,"Äĳá»ĥ":3642,"673":3643,"OOCC":3644,"MnCl":3645,"HOOCCH":3646,"pháº£i":3647,"slt":3648,"giÃ¡trá»ĭ":3649,"19981998":3650,"ankin":3651,"Ġ..........":3652,"Ġ...........":3653,"Ġarctan":3654,"aOc":3655,"tá»±":3656,"xAy":3657,"varepsilon":3658,"varphi":3659,"vuÃ´nggÃ³c":3660,"dpnc":3661,"Ġoo":3662,"iáº¿p":3663,"á»¥ng":3664,"SER":3665,"phenol":3666,"iá»ĥuthá»©c":3667,"lÃ½":3668,"lambda":3669,"peptit":3670,"vÃ´nghiá»ĩm":3671,"^{âĸ«}":3672,"propto":3673,"etilen":3674,"!.":3675,"))}":3676,")}}{(":3677,")}.(\\":3678,")âĢĵ":3679,",|\\":3680,".|":3681,".|\\":3682,"011":3683,"044":3684,"096":3685,"0175":3686,"1125":3687,"217":3688,"2999":3689,"4242":3690,"588":3691,"640":3692,"760":3693,"912":3694,"919":3695,"975":3696,"Aa":3697,"BJ":3698,"BNH":3699,"BJC":3700,"CJ":3701,"CIB":3702,"CPQ":3703,"DL":3704,"DIA":3705,"DOM":3706,"DHB":3707,"ECH":3708,"EMB":3709,"EHC":3710,"EAK":3711,"ECM":3712,"EMF":3713,"EKB":3714,"FCD":3715,"FBH":3716,"FED":3717,"GMN":3718,"HMA":3719,"HMC":3720,"HMN":3721,"HIE":3722,"IL":3723,"IHC":3724,"IMD":3725,"IHB":3726,"IED":3727,"IDH":3728,"INC":3729,"Ka":3730,"KCD":3731,"KMB":3732,"KOC":3733,"KMC":3734,"KBA":3735,"KAlO":3736,"Ma":3737,"Me":3738,"MDE":3739,"MHCO":3740,"MDB":3741,"MOD":3742,"MOy":3743,"MEA":3744,"NDC":3745,"NCB":3746,"NEC":3747,"NDM":3748,"OMA":3749,"OIC":3750,"OKC":3751,"PAM":3752,"PMQ":3753,"QB":3754,"QE":3755,"QF":3756,"QO":3757,"QS":3758,"QOC":3759,"RQ":3760,"Rx":3761,"RCH":3762,"RNH":3763,"SG":3764,"SH":3765,"SLT":3766,"TC":3767,"Th":3768,"Val":3769,"XCl":3770,"XÄĲ":3771,"YON":3772,"\\}(":3773,"ang":3774,"biá»ĥuthá»©c":3775,"cc":3776,"cde":3777,"dA":3778,"dC":3779,"fr":3780,"gg":3781,"gÃ³ct":3782,"hÃ¢ngiÃ¡c":3783,"kim":3784,"kmol":3785,"ká»ģ":3786,"mA":3787,"mm":3788,"mCO":3789,"nX":3790,"nCl":3791,"nCu":3792,"náº¿":3793,"nchá»¯sá»ĳ":3794,"og":3795,"ome":3796,"pB":3797,"tOx":3798,"vá»ĭ":3799,"xO":3800,"xn":3801,"xo":3802,"xBC":3803,"xmol":3804,"xCD":3805,"yH":3806,"||":3807,"}]{\\":3808,"Ġ;":3809,"Ġ)\\":3810,"^{|":3811,"^{.}":3812,"Ġ-}(":3813,"Ġ-};":3814,"Ġ-},(":3815,"Ġ-},(\\":3816,"}{...}":3817,"igÃ³c":3818,"Ġ114":3819,"Ġ1111":3820,"Ġ212":3821,"Ġ224":3822,"}}}}}{":3823,"}}|}":3824,"}}...\\":3825,"}}).(\\":3826,"}}..{.":3827,"Ġ319":3828,"Ġ345":3829,"Ġ({\\":3830,"ĠxB":3831,"ĠxOy":3832,"Ġ02":3833,"deg":3834,"Ġyt":3835,"Ġcxy":3836,"Ġam":3837,"Ġat":3838,"Ġasinx":3839,")((\\":3840,"Ġmc":3841,"ĠmNaOH":3842,"}()":3843,"}((\\":3844,"ABQ":3845,"{\\%":3846,"209":3847,"2025":3848,"Ġ671":3849,"Ġ676":3850,"CHD":3851,"CHBr":3852,"Ġ980":3853,"Ġ99999":3854,"Ġ9999":3855,"ACy":3856,"COE":3857,"COF":3858,"Ġ8000":3859,"cosb":3860,"cose":3861,"cosy":3862,"Ġ720":3863,"Ġ780":3864,"ĠnN":3865,"}^{.}":3866,"abxy":3867,"},((":3868,"Ġ1080":3869,"ĠAEB":3870,"12343":3871,"Ġ20412":3872,"ĠCAM":3873,"ĠCAH":3874,"ĠCMN":3875,"ĠCDA":3876,"moln":3877,"164":3878,"ĠHP":3879,"ĠHg":3880,"ĠHAD":3881,"ĠHCOOCH":3882,"ĠHCOONa":3883,"ĠHOOC":3884,"Ġsint":3885,"Ġtg":3886,"Ġty":3887,"1120":3888,"ĠBHC":3889,"ĠBMI":3890,"ĠBOM":3891,"ADK":3892,"181":3893,"182":3894,"186":3895,"189":3896,"nghiá»ĩm":3897,"004":3898,"007":3899,"00000":3900,"131":3901,")}{|":3902,"Ġ181":3903,"1930":3904,"1993":3905,"ĠMBD":3906,"ĠMCB":3907,"ĠMIC":3908,"NHB":3909,"Ġka":3910,"AHBC":3911,"Ġabz":3912,"^{+}}}{":3913,"}|(":3914,"}|}{":3915,"etyl":3916,"Ġ||":3917,"AEK":3918,"AEN":3919,"ĠOAC":3920,"ĠOOCH":3921,"....\\":3922,"226":3923,"227":3924,"Ġ152":3925,"Ġ154":3926,"Ġbcy":3927,"Ġ141":3928,"DCK":3929,"ĠACK":3930,"Ġ2500":3931,"306":3932,"3030":3933,"MBH":3934,"CBr":3935,"602":3936,"Ġ2450":3937,"OCI":3938,"Ġsinxcos":3939,"OBI":3940,"ĠDG":3941,"ĠDAC":3942,"ĠDEC":3943,"238":3944,"}})}{\\":3945,"BAP":3946,"BAy":3947,"BHF":3948,"05000":3949,"Ġpu":3950,"ĠPE":3951,"ĠPN":3952,"502":3953,"á»£":3954,"á»ĵ":3955,"á»Ŀ":3956,"the":3957,"thá»ıamÃ£":3958,"ptC":3959,"4025":3960,"ĠEO":3961,"ĠEAH":3962,"ĠEIB":3963,"ĠEBI":3964,"ĠII":3965,"BEK":3966,"BMK":3967,"ĠKQ":3968,"ĠKHCO":3969,"ANE":3970,"455":3971,"3333":3972,"AIH":3973,"bigcap":3974,"Ġ401":3975,"Ġ4044":3976,"Ġ1930":3977,"DEI":3978,"DEM":3979,"Ġ4500":3980,"5678":3981,"}^{-}.":3982,"}^{-},\\":3983,"Äĳkx":3984,"ÄĳÆ°á»£":3985,"Ġ-}:":3986,"AFB":3987,"294":3988,"Ġ289":3989,"ICE":3990,"ICM":3991,"Ãły":3992,"Ãłng":3993,"MIH":3994,"MDO":3995,"EFGH":3996,")^{-},(":3997,"nOz":3998,"ODM":3999,"ĠBDM":4000,"hoac":4001,"BKH":4002,"BKI":4003,"Ġ6400":4004,"378":4005,"EBO":4006,"EDM":4007,"cotC":4008,"MHF":4009,"ĠGH":4010,"ĠABCvuÃ´ng":4011,"}/\\":4012,"555":4013,"5555":4014,"20000":4015,"395":4016,"AGC":4017,"AGE":4018,"vÃła":4019,"546":4020,"Ġen":4021,"888":4022,"889":4023,"MOP":4024,"itiáº¿p":4025,"}âĢĵ(":4026,"ĠDCA":4027,"HDF":4028,"782":4029,"Ġ392":4030,"ĠAFD":4031,"MFD":4032,"MFO":4033,"IEH":4034,"'''":4035,"})^{-}}":4036,"})^{-},(":4037,"Ġuv":4038,"Ġ1990":4039,"Äĳá»ģ":4040,"ĠCOOK":4041,"999995":4042,"maxf":4043,"00000000":4044,"ĠNaClO":4045,"ĠCosx":4046,"lÃłsá»ĳ":4047,"ÄĲPCM":4048,"EGF":4049,"vÃ¬x":4050,"................................":4051,"vá»Ľim":4052,"HND":4053,"cbt":4054,"Ãºpm":4055,"ĠLys":4056,"ĠPbS":4057,"OQN":4058,"Ġ123456":4059,"aaa":4060,"202202":4061,"áº£m":4062,"áº¥t":4063,"áº¥u":4064,"Ġ................":4065,"cozo":4066,"222222":4067,"ĠCaOCl":4068,"enzim":4069,"OOCH":4070,"phanung":4071,"3154":4072,"glucose":4073,"saocho":4074,"},...,":4075,"Axit":4076,"Ġ3992":4077,"};...;\\":4078,"andau":4079,"áº¡nht":4080,"ÄĲKXÄĲ":4081,"dOb":4082,"cÃ¢ntáº¡iA":4083,"bÃłi":4084,"Ã²nl":4085,"})//(":4086,"cÃ¹ngph":4087,"ĠBCNN":4088,"minoaxit":4089,"dvC":4090,"iaphÃ¢ngiÃ¡c":4091,"ytago":4092,"16289296":4093,"pdá»¥ng":4094,"Äĳiá»ĥm":4095,"âĢĻ}":4096,"frown":4097,"náº¿u":4098,"omega":4099,"1234321":4100,"5678765":4101,"ÄĳkxÄĳ":4102,"ÄĳÆ°á»£c":4103,"()":4104,"(@":4105,"(^{":4106,")}}}":4107,")}})":4108,")}):\\":4109,")}^{-}}":4110,")}):(\\":4111,"020":4112,"014":4113,"032":4114,"064":4115,"072":4116,"1101":4117,"1102":4118,"218":4119,"380":4120,"405":4121,"572":4122,"5000":4123,"576":4124,"725":4125,"723":4126,"728":4127,"780":4128,"824":4129,"827":4130,"872":4131,"8052":4132,"902":4133,"972":4134,"9375":4135,"ANO":4136,"ANH":4137,"ASB":4138,"Aminoaxit":4139,"Bu":4140,"BPC":4141,"CR":4142,"Co":4143,"CIA":4144,"Cho":4145,"CÃ³":4146,"CPD":4147,"DCO":4148,"EOC":4149,"EBI":4150,"EOI":4151,"EKA":4152,"FAM":4153,"FBD":4154,"FIA":4155,"FCN":4156,"FOy":4157,"FDH":4158,"HDB":4159,"HEC":4160,"HEF":4161,"HDA":4162,"It":4163,"INH":4164,"IDB":4165,"IOE":4166,"JAI":4167,"KO":4168,"Kl":4169,"KCH":4170,"KCO":4171,"KAH":4172,"KAl":4173,"KBH":4174,"KAN":4175,"KBr":4176,"KEB":4177,"KCI":4178,"Khi":4179,"KMn":4180,"LA":4181,"LK":4182,"LM":4183,"Láº¡icÃ³":4184,"Mx":4185,"NJ":4186,"NR":4187,"NNa":4188,"NAM":4189,"NCD":4190,"NAK":4191,"NMK":4192,"NMP":4193,"NMF":4194,"NKC":4195,"OCl":4196,"OMB":4197,"OMC":4198,"OEF":4199,"OEA":4200,"OKH":4201,"PBC":4202,"PAO":4203,"PCN":4204,"PAQ":4205,"QD":4206,"QOP":4207,"RM":4208,"Rb":4209,"Sá»ĳ":4210,"SEG":4211,"SQA":4212,"TR":4213,"Tal":4214,"Tan":4215,"TMDK":4216,"VH":4217,"VN":4218,"VO":4219,"bandau":4220,"cr":4221,"cáº¡nht":4222,"dc":4223,"dr":4224,"dox":4225,"dkt":4226,"echo":4227,"hl":4228,"hÃ´ng":4229,"ii":4230,"kd":4231,"kl":4232,"la":4233,"lt":4234,"mC":4235,"mk":4236,"mp":4237,"mv":4238,"mCu":4239,"mtanx":4240,"men":4241,"mOz":4242,"mOn":4243,"mlnx":4244,"nF":4245,"nP":4246,"nm":4247,"nn":4248,"nCB":4249,"nÃł":4250,"om":4251,"ozo":4252,"pg":4253,"sac":4254,"sigma":4255,"to":4256,"tha":4257,"tia":4258,"táºŃn":4259,"vi":4260,"váº¿":4261,"war":4262,"xk":4263,"xAM":4264,"xOx":4265,"xÃ©t":4266,"ya":4267,"yk":4268,"yAB":4269,"yBC":4270,"yAE":4271,"yOC":4272,"yOy":4273,"ycbt":4274,"{}{":4275,"{....":4276,"|}.":4277,"|;\\":4278,"|}{(":4279,"}+":4280,"}-":4281,"³ngh":4282,"ÃĢ":4283,"Ãģ":4284,"Ġ)(":4285,"Ġphan":4286,"ķi":4287,"Ġ+}{":4288,"Ġ+})":4289,"^{^{+":4290,"Ġ-}{":4291,"Ġ-_{":4292,"Ġ-}}{":4293,"Ġ-}}\\":4294,"acchat":4295,"}{^{":4296,"Ġ113":4297,"Ġ222":4298,"Ġ233":4299,"Ġ298":4300,"Ġ231":4301,"}}}|":4302,"}}}}.\\":4303,"}}}).(":4304,"}}|.|\\":4305,"}}.....\\":4306,"Ġ343":4307,"Ġ341":4308,"Ġ384":4309,"Ġ()":4310,"Ġ(..":4311,"Ġ(((":4312,"ĠxM":4313,"Ġxa":4314,"})}.":4315,"})})^{":4316,"})}}{\\":4317,"Ġ432":4318,"Ġ4000":4319,"Ġ40000":4320,"def":4321,"Ġbb":4322,"Ġbm":4323,"Ġbt":4324,"ĠbHNO":4325,")^{(":4326,"Ġ529":4327,"Ġ5000":4328,")(|":4329,"ĠmN":4330,"ĠmCl":4331,"Ġmoi":4332,"102000":4333,"1094":4334,"Ġ651":4335,"}\\%":4336,"}.|\\":4337,"CON":4338,"tang":4339,"tamgi":4340,"Ġ721":4341,"Ġ705":4342,"Ġ736":4343,"Ġ789":4344,"ĠnA":4345,"ĠnB":4346,"Ġnb":4347,"Ġnp":4348,"ĠnOH":4349,"ĠnFe":4350,"}^{}":4351,"abb":4352,"{({\\":4353,"BCT":4354,"ĠAL":4355,"ĠAu":4356,"ĠAOE":4357,"ĠAKH":4358,"Ġzc":4359,"Ġzt":4360,"124":4361,"ĠCAK":4362,"ĠCAO":4363,"ĠCEB":4364,"ĠCMH":4365,"FexOy":4366,"1540":4367,"1501":4368,"ĠHBC":4369,"ĠHCA":4370,"ĠHFE":4371,"rceil":4372,"Ġ...)":4373,"Ġtb":4374,"NOB":4375,"NOC":4376,"NaOOC":4377,"ĠBT":4378,"ĠBx":4379,"ĠBAH":4380,"ĠBDA":4381,"ĠBED":4382,"ĠBKC":4383,"ĠBFE":4384,"ADG":4385,"ADP":4386,"ADHE":4387,"183":4388,"252":4389,"ĠCHCOOH":4390,"ĠCHCOOCH":4391,")}{...}":4392,"Ġ1800":4393,"Ġ165":4394,"Ġ166":4395,"194":4396,"1978":4397,"1994":4398,"1987":4399,"ĠMG":4400,"ĠMY":4401,"ĠMDC":4402,"ĠMTN":4403,"AMF":4404,"AMP":4405,"NHE":4406,"NHM":4407,"AHG":4408,"cosxcos":4409,"^{+})":4410,"}|}\\":4411,"Ġdf":4412,"Ġdv":4413,"Ġdy":4414,"Ġdáº§u":4415,"990":4416,"996":4417,"etic":4418,"Ġ|(":4419,"BDI":4420,"ĠABF":4421,"ĠABN":4422,"^{-}(":4423,"223":4424,"})((\\":4425,"CDH":4426,"DCN":4427,"ĠACO":4428,"Ġ258":4429,"CBK":4430,"6056":4431,"6061":4432,"6062":4433,"Ġ+}:":4434,"Ġ246":4435,"ĠDBH":4436,"Ġ6057":4437,"236":4438,"270":4439,"ĠSn":4440,"ĠSx":4441,"}}):(":4442,"BAu":4443,"CaHPO":4444,"ĠBCD":4445,"ĠBCE":4446,"ĠNE":4447,"MNA":4448,"Ġpa":4449,"Ġpm":4450,"ĠPA":4451,"ĠPy":4452,"ĠPAM":4453,"á»Ł":4454,"á»Ń":4455,"á»ķng":4456,"Ġtana":4457,"Ġtanb":4458,"tháº":4459,"ĠFeCO":4460,"353":4461,"trung":4462,"trÃ²":4463,"trÃªnt":4464,"trang":4465,"4020":4466,"ĠEQ":4467,"ĠECD":4468,"ĠEDC":4469,"ĠEMC":4470,"ĠEBA":4471,"áº»":4472,"BEO":4473,"BMF":4474,"BMH":4475,"ivÃ¬":4476,"ANP":4477,"AIN":4478,"AIt":4479,"Ġ171":4480,"Ġ172":4481,"Ġ176":4482,"loáº¡":4483,"bbb":4484,"ĠAHK":4485,"ĠAHM":4486,"ĠAHP":4487,"Ġ4042":4488,"Ġ1980":4489,"Ġ1978":4490,"Ġ1979":4491,"0225":4492,"}.((":4493,"DEK":4494,"AKH":4495,"562":4496,"565":4497,"5656":4498,"}^{-}(":4499,"}^{-},(":4500,"Äĳc":4501,"ĠCOI":4502,"Ġ20038":4503,"AFC":4504,").(...":4505,"291":4506,"DBF":4507,"DBJ":4508,"ĠVN":4509,"269":4510,"AOK":4511,"AOQ":4512,"ĠADF":4513,"ĠADK":4514,"},(|\\":4515,"ICF":4516,"PON":4517,"Ġ503":4518,"Ãłi":4519,"MID":4520,"MIP":4521,"CMO":4522,"ECK":4523,"\\%_{":4524,"\\%.(":4525,"EFB":4526,"OME":4527,"OMF":4528,")^{-}.":4529,")^{-},":4530,"nOt":4531,"HBN":4532,"CNB":4533,"CNE":4534,"CNP":4535,"BKD":4536,"BKM":4537,"085":4538,"}^{-}/":4539,"ĠAMO":4540,"3737":4541,"Ġ239":4542,"CFI":4543,"EDI":4544,"MHA":4545,"ĠCDO":4546,"ddB":4547,"ĠBaO":4548,"IME":4549,"IMK":4550,"ĠAEH":4551,"ĠAEI":4552,"ĠAEM":4553,"áº·t":4554,"chi":4555,"chuv":4556,"cháº¯":4557,"chwar":4558,"Ġqp":4559,"DHE":4560,"DHM":4561,"DHO":4562,".............":4563,"),(\\":4564,"ĠXYZ":4565,"NCI":4566,"hoáº·cp":4567,"EAP":4568,"EAQ":4569,"462":4570,"468":4571,"MKA":4572,"882":4573,"7777":4574,"MPN":4575,"MPQ":4576,"MOE":4577,"CKA":4578,"CKB":4579,"CKD":4580,"CKH":4581,"CKM":4582,"}}}}}}":4583,"Ġ3300":4584,"KHM":4585,"DKXD":4586,"nhÆ°":4587,"nhiá»ģu":4588,"nháº¥t":4589,"ĠANB":4590,"ĠANE":4591,"DFB":4592,"DFH":4593,"ĠMgCO":4594,"ĠMgSO":4595,"ĠAKC":4596,"Ġ3934":4597,"Ġ100000":4598,"792":4599,"IEM":4600,"IKC":4601,"'')":4602,"})^{-},\\":4603,"IND":4604,"IHM":4605,"{|}{":4606,"limf":4607,"limy":4608,"ĠTL":4609,"ĠTacÃ³":4610,"}};(\\":4611,"mnp":4612,"Ã¡nh":4613,"AQM":4614,"2250":4615,"Ġ387":4616,"AEFD":4617,"á»Ľi":4618,"ĠCosA":4619,"sá»ĳnguy":4620,"phÃ¢ngiÃ¡c":4621,"ĠlÃł":4622,"ĠABDvÃł":4623,"ÃŃn":4624,"ÃŃch":4625,"giam":4626,"giÃ¡c":4627,"giá»Ŀ":4628,"ntÃŃch":4629,"vÃ¬a":4630,"Glyxin":4631,"HgCl":4632,"sÄĳAM":4633,"Ġmaxf":4634,"ASQ":4635,"CTPT":4636,"ĠUCLN":4637,"ĠLHS":4638,"ĠptC":4639,"ĠPbSO":4640,"cá»§ax":4641,"Ġ8537":4642,"Æ°Æ¡ngtá»±":4643,"|.|":4644,"TNN":4645,"vá»Ľix":4646,")!^{":4647,"sdAB":4648,"{...}":4649,"Äĳá»ĵngvá»ĭ":4650,"luÃ´nÄĳu":4651,"xCn":4652,"á»Ļitiáº¿p":4653,"sai":4654,"},...,\\":4655,"arccos":4656,"cÃ¹nglÃł":4657,"Ġ3990":4658,"á»įn":4659,"////////":4660,";...;":4661,"AJI":4662,"TÃ¬m":4663,"TÃ¬mx":4664,"mgia":4665,"acbon":4666,"Ġthu":4667,"???":4668,"dOa":4669,"Ġsqrtx":4670,"but":4671,"vÃ´lÃŃ":4672,"phÆ°Æ¡ngtrÃ¬nh":4673,"OCOC":4674,"hbh":4675,"Ġ2268":4676,"thuá»ĻcZ":4677,"Anken":4678,"etanol":4679,"láº§n":4680,"}//\\":4681,"91919":4682,"gÃ³ctÆ°Æ¡ngá»©ng":4683,"Ġmcacchat":4684,"PCNV":4685,"SEGCD":4686,"dktc":4687,"thamgia":4688,"táºŃncÃ¹nglÃł":4689,"³nghÃłng":4690,"tamgiÃ¡c":4691,"tháº³nghÃłng":4692,"loáº¡ivÃ¬":4693,"chuvi":4694,"chwarz":4695,"sá»ĳnguyÃªnt":4696,"Ġmcacchatthamgia":4697,"!(":4698,"(..":4699,"(|\\":4700,")})^{":4701,")},\\":4702,")})\\":4703,")}},\\":4704,")},(\\":4705,",|":4706,",}\\":4707,".{\\":4708,"097":4709,"1100":4710,"213":4711,"214":4712,"3200":4713,"330":4714,"332":4715,"3125":4716,"388":4717,"460":4718,"423":4719,"464":4720,"517":4721,"599":4722,"545":4723,"533":4724,"528":4725,"570":4726,"597":4727,"614":4728,"623":4729,"639":4730,"678":4731,"679":4732,"692":4733,"705":4734,"784":4735,"836":4736,"8376":4737,"915":4738,"960":4739,"935":4740,"980":4741,"970":4742,"=}\\":4743,"ASO":4744,"Anot":4745,"CU":4746,"CX":4747,"Cm":4748,"CNH":4749,"CMI":4750,"DU":4751,"Do":4752,"DMN":4753,"DMI":4754,"DOy":4755,"DON":4756,"DNC":4757,"DOI":4758,"DKH":4759,"DIK":4760,"Dat":4761,"EP":4762,"EY":4763,"EOA":4764,"EOM":4765,"EBK":4766,"EID":4767,"EHD":4768,"EKC":4769,"ENM":4770,"FQ":4771,"FAC":4772,"FAH":4773,"FOB":4774,"FCM":4775,"FCE":4776,"FDM":4777,"FEA":4778,"FCI":4779,"FHE":4780,"FKE":4781,"GR":4782,"GAE":4783,"GBH":4784,"HH":4785,"HJ":4786,"HL":4787,"HCD":4788,"HOB":4789,"HAI":4790,"HIC":4791,"HEB":4792,"HID":4793,"HDM":4794,"HEA":4795,"HNA":4796,"IOH":4797,"IAH":4798,"ICD":4799,"IOC":4800,"IOA":4801,"IBE":4802,"IDE":4803,"IAF":4804,"IEF":4805,"IEB":4806,"IKH":4807,"IFE":4808,"IOK":4809,"JP":4810,"JQ":4811,"JCI":4812,"KJ":4813,"KK":4814,"KV":4815,"KAM":4816,"KMA":4817,"KAI":4818,"KDB":4819,"KMI":4820,"KMD":4821,"KOM":4822,"KDA":4823,"KHB":4824,"KCF":4825,"KIM":4826,"KEA":4827,"KME":4828,"KTM":4829,"LC":4830,"LQ":4831,"LHS":4832,"Log":4833,"MV":4834,"Mol":4835,"MNO":4836,"NAO":4837,"NBO":4838,"NAP":4839,"NKD":4840,"OJ":4841,"OX":4842,"OEB":4843,"OIM":4844,"OPQ":4845,"OKI":4846,"PU":4847,"PCD":4848,"PBM":4849,"PMI":4850,"PIM":4851,"PNC":4852,"PDM":4853,"Pytago":4854,"QNM":4855,"QAS":4856,"RC":4857,"RK":4858,"RN":4859,"Ra":4860,"Rn":4861,"RHCO":4862,"RCHO":4863,"Sr":4864,"SBC":4865,"Sabc":4866,"SBN":4867,"TK":4868,"TO":4869,"TPT":4870,"Táº¡i":4871,"UO":4872,"USER":4873,"XF":4874,"ZT":4875,"\\})":4876,"aM":4877,"asin":4878,"bn":4879,"br":4880,"bmol":4881,"bit":4882,"báºŃ":4883,"cp":4884,"cz":4885,"cab":4886,"clo":4887,"cox":4888,"cÃ¡":4889,"cÃ´ng":4890,"cÃ¡c":4891,"cáº¡nh":4892,"cAa":4893,"cÃ²nl":4894,"dH":4895,"da":4896,"dy":4897,"dac":4898,"dcba":4899,"eg":4900,"gl":4901,"hq":4902,"hs":4903,"hch":4904,"huy":4905,"hÆ°Æ¡ng":4906,"há»£":4907,"ich":4908,"kot":4909,"let":4910,"land":4911,"láº¡icÃ³":4912,"láº¥y":4913,"mX":4914,"mg":4915,"mq":4916,"mFe":4917,"mOt":4918,"mct":4919,"má»į":4920,"nA":4921,"no":4922,"nta":4923,"nNH":4924,"nAg":4925,"nnháº¥t":4926,"ná»Ļitiáº¿p":4927,"ob":4928,"pC":4929,"pOH":4930,"rp":4931,"ran":4932,"sO":4933,"sol":4934,"song":4935,"spu":4936,"ste":4937,"td":4938,"trc":4939,"tÃ¬":4940,"tpg":4941,"uN":4942,"vt":4943,"xN":4944,"xv":4945,"xCB":4946,"xOC":4947,"xpt":4948,"xOM":4949,"yA":4950,"ye":4951,"yt":4952,"yOD":4953,"{?":4954,"{}(":4955,"{{(":4956,"|,":4957,"|)\\":4958,"|};":4959,"Ä©":4960,"Ġ*":4961,"Ġ:":4962,"ĠW":4963,"Ġfrac":4964,"Ġwidehat":4965,"Ġ}}{":4966,"Ġoverset":4967,"Ġex":4968,"Ġhoáº·c":4969,"Ġ''":4970,"Ġhay":4971,"Ġoxit":4972,"Ġlnx":4973,"Ġ+_{":4974,"Ġ+}}}}":4975,"Ġ=^{\\":4976,"acd":4977,"acy":4978,"Ġ1200":4979,"_{_{":4980,"Ġ215":4981,"Ġ2100":4982,"Ġ230":4983,"Ġ22018":4984,"Ġ264":4985,"Ġ296":4986,"}}).":4987,"}})}{(":4988,"}}}.(\\":4989,"}}|}{\\":4990,"}}:(\\":4991,"Ġ336":4992,"Ġ335":4993,"Ġ396":4994,"Ġ3125":4995,"Ġ395":4996,"Ġ30000":4997,"Ġ3240":4998,"Ġ(...)":4999,"ĠxN":5000,"ĠxR":5001,"Ġxm":5002,"ĠxNO":5003,"ĠxHCl":5004,"ĠxFeO":5005,"Ġ01":5006,"})/":5007,"})}^{":5008,"})...":5009,"})/\\":5010,"})....(":5011,"han":5012,"hanh":5013,"haigÃ³c":5014,"Ġ499":5015,"Ġ405":5016,"Ġ480":5017,"Ġ4455":5018,"denta":5019,"Ġbu":5020,"Ġbtanx":5021,")^{{":5022,"ĠyA":5023,"Ġyb":5024,"Ġyc":5025,"Ġyd":5026,"Ġyk":5027,"Ġcc":5028,"ĠcÃ³":5029,"Ġchi":5030,"Ġaa":5031,"Ġaf":5032,"Ġaxy":5033,"Ġamin":5034,"Ġamino":5035,"Ġ513":5036,"Ġ519":5037,"Ġ524":5038,"Ġ560":5039,"Ġ588":5040,"Ġ577":5041,"Ġ576":5042,")(*)":5043,"ĠmO":5044,"Ġmd":5045,"Ġmq":5046,"ABb":5047,"ABDC":5048,"osÃ¡nh":5049,"sinBAK":5050,"1020":5051,"205":5052,"206":5053,"2024":5054,"2035":5055,"Ġ612":5056,"Ġ6000":5057,"Ġ670":5058,"Ġ685":5059,"Ġ666":5060,"CHCOOCH":5061,"Ġ931":5062,"Ġ972":5063,"Ġ995":5064,"}.{\\":5065,"COH":5066,"COy":5067,"OHN":5068,"otá»«":5069,"othanh":5070,"Ġ8052":5071,"taothanh":5072,"Ġ702":5073,"Ġ796":5074,"ĠnZ":5075,"Ġna":5076,"Ġnm":5077,"ĠnCH":5078,"ĠnNaOH":5079,"ĠnBa":5080,"}^{(":5081,"oli":5082,"{(}\\":5083,"},{":5084,"Ġ109":5085,"Ġ1005":5086,"Ġ(\\%)":5087,"ĠAT":5088,"ĠAm":5089,"ĠANO":5090,"ĠAOC":5091,"ĠAMD":5092,"ĠAIM":5093,"ĠAON":5094,"ĠAID":5095,"ĠANC":5096,"ĠAPD":5097,"ĠAPB":5098,"ĠATL":5099,"1296":5100,"12496":5101,"Ġ204":5102,"Ġ2023":5103,"Ġ2050":5104,"Ġ2029":5105,"Ġ2026":5106,"Ġcosb":5107,"Ġcost":5108,"{-}\\":5109,"ĠCot":5110,"ĠCBE":5111,"ĠCAI":5112,"ĠCDE":5113,"ĠCMI":5114,"ĠCBK":5115,"ĠCID":5116,"ĠCME":5117,"ĠCNA":5118,"molCO":5119,"154":5120,"157":5121,"1560":5122,"1616":5123,"1680":5124,"ĠHb":5125,"ĠHMB":5126,"ĠHMC":5127,"Ġsinb":5128,"Ġsinh":5129,"Ġtga":5130,"Ġtá»±":5131,"NOA":5132,"NOP":5133,"Ġ1250":5134,"]{}":5135,"10001":5136,"NaX":5137,"NaCO":5138,"NaHS":5139,"ĠBsin":5140,"ĠBAE":5141,"ĠBEF":5142,"ĠBOD":5143,"ĠBNC":5144,"ĠBMK":5145,"ĠBFD":5146,"ADJ":5147,"188":5148,"1890":5149,"ngÃły":5150,"254":5151,"259":5152,"0001":5153,"00125":5154,"139":5155,"ĠCHB":5156,"ĠCHCOO":5157,"ĠCHCOONa":5158,")}{{":5159,"Ġ184":5160,"Ġ185":5161,"Ġ18000":5162,"1988":5163,"1984":5164,"1979":5165,"ĠMCO":5166,"ĠMAH":5167,"ĠMOB":5168,"ĠMBA":5169,"ĠMOA":5170,"ĠMAN":5171,"ĠMAK":5172,"ĠMDA":5173,"ĠMBK":5174,"ĠMBF":5175,"ĠMNC":5176,"ĠMEA":5177,"ĠMIN":5178,"Ġkc":5179,"ĠkhÃ´ng":5180,"AHED":5181,"Ġabd":5182,"172":5183,"173":5184,"174":5185,"179":5186,"1717":5187,"^{+}}(":5188,"Ġdu":5189,"997":5190,"998":5191,"BDO":5192,"BDT":5193,"AEG":5194,"AEDF":5195,"ĠOG":5196,"ĠOn":5197,"ĠOCH":5198,"ĠOBC":5199,"ĠOAM":5200,"ĠOCB":5201,"ĠOMA":5202,"ĠOBH":5203,"ĠOIK":5204,"ĠABG":5205,"ĠABP":5206,"....)":5207,"^{-}(\\":5208,"^{-}:":5209,"Ġ155":5210,"Ġ158":5211,"Ġbcz":5212,"Ġ148":5213,"Ġ1400":5214,"244":5215,"246":5216,"ĠACF":5217,"COOHCl":5218,"Ġ253":5219,"Ġcosxcos":5220,"303":5221,"304":5222,"3010":5223,"3025":5224,"CBx":5225,"CBz":5226,"Ġ134":5227,"609":5228,"MAF":5229,"MAx":5230,"Ġ245":5231,"Ġ2401":5232,"755":5233,"OCE":5234,"ĠDD":5235,"ĠDT":5236,"ĠDBC":5237,"ĠDAM":5238,"ĠDMB":5239,"ĠDMA":5240,"ĠDIC":5241,"ĠDEF":5242,"ĠDMH":5243,"ĠDHA":5244,"Ġ6049":5245,"234":5246,"2320":5247,"2345":5248,"278":5249,"ĠSB":5250,"ĠSchwarz":5251,"}});(\\":5252,"BAQ":5253,"BHI":5254,"ĠBCA":5255,"ĠBCF":5256,"ĠBCM":5257,"ĠNL":5258,"CAP":5259,"Ġpk":5260,"Ġps":5261,"ĠPF":5262,"367":5263,"á»¯":5264,"thi":5265,"tho":5266,"tháº¿":5267,"tro":5268,"403":5269,"4018":5270,"4022":5271,"4036":5272,"4037":5273,"40723":5274,"326":5275,"3212496":5276,"ĠEAC":5277,"ĠEBC":5278,"ĠEAD":5279,"ĠEOB":5280,"ĠECA":5281,"ĠEDB":5282,"ĠEIC":5283,"OAK":5284,"áºµ":5285,"ĠIBC":5286,"ĠIMB":5287,"ĠICB":5288,"ĠIBA":5289,"ĠIEB":5290,"AgX":5291,"Ġ1004":5292,"BEI":5293,"BMQ":5294,"ĠKK":5295,"ĠKr":5296,"ĠKAB":5297,"ĠKAC":5298,"ĠKHC":5299,"ĠKEB":5300,"ĠKClO":5301,"ANF":5302,"ANK":5303,"3360":5304,"281":5305,"285":5306,"Ġ173":5307,"HCK":5308,"HCL":5309,"bigcup":5310,"ĠAHI":5311,"^{+}:\\":5312,"Ġ4016":5313,"Ġ4024":5314,"Ġ4040":5315,"Ġ4034":5316,"Ġ197":5317,"Ġ1975":5318,"Ġ1939":5319,"Ġ1981":5320,"}}{({":5321,"ZnS":5322,"Ġ.......\\":5323,"AKN":5324,"642":5325,"6429":5326,"561":5327,"}^{-})":5328,"}^{-}:":5329,"}^{-},(\\":5330,"Ġacz":5331,"ÄĳÄĳ":5332,"ĠCOE":5333,"Ġ-}/":5334,"AFO":5335,"447":5336,"2983":5337,"DBG":5338,"DBN":5339,"DBO":5340,"IBK":5341,"IAO":5342,"ĠVáºŃy":5343,"267":5344,"yzt":5345,"807":5346,"8079":5347,"AOP":5348,"AOm":5349,"AOx":5350,"Ġ286":5351,"4913":5352,"POK":5353,"Ġ507":5354,"Ġ501501":5355,"Ġaxetic":5356,"037":5357,"CMF":5358,"CEO":5359,"ECI":5360,"\\%)":5361,"651":5362,"653":5363,"6528":5364,"}}()":5365,"ĠBHD":5366,"ĠBHE":5367,"DAx":5368,"ĠFK":5369,")^{-},\\":5370,")^{-};(":5371,"Ġcota":5372,"ODI":5373,"ĠNaBr":5374,"ĠNaOOC":5375,"Ġ352":5376,"Ġ355":5377,"HBI":5378,"0625":5379,"966":5380,"hoa":5381,"CNF":5382,"BKA":5383,"084":5384,"Ġ..{.":5385,"ĠAMK":5386,"Ġ2345":5387,"CFB":5388,"CFK":5389,"EDO":5390,"cota":5391,"Ġ261":5392,"MHK":5393,"ĠCDF":5394,"ĠGJ":5395,"ĠGlu":5396,"ddA":5397,"ddNaOH":5398,"ddKMnO":5399,"ĠABCcÃ¢ntáº¡iA":5400,"200000":5401,"BND":5402,"Ġ495":5403,"AGM":5404,"chÃŃnh":5405,"BFA":5406,"BFH":5407,"Ġqa":5408,"DHI":5409,"ONB":5410,"ONF":5411,"ONM":5412,"ONP":5413,"anh":5414,"..........":5415,"vÃłB":5416,"vÃły":5417,"vÃłxy":5418,"ĠXCl":5419,"}^{+})":5420,"IDM":5421,"IDN":5422,"HOK":5423,"{+}\\":5424,"hoáº·cc":5425,"hoáº·cbáº±ng":5426,"DMK":5427,"9595":5428,"MKC":5429,"MKD":5430,"MKI":5431,"MKN":5432,"MKP":5433,"ĠeH":5434,"ĠHCK":5435,"BTC":5436,"BTe":5437,"ĠBEI":5438,"ĠBEM":5439,"MEH":5440,"ĠDCE":5441,"CIE":5442,"787":5443,"ĠQD":5444,"ĠQF":5445,"ĠQN":5446,"OEN":5447,"DNE":5448,"HFJ":5449,"PTHH":5450,"nhá»ı":5451,"nhÆ¡n":5452,"nhÃ¢n":5453,"HAQ":5454,"BOF":5455,"BOS":5456,"ĠAIK":5457,"APC":5458,"APQ":5459,"5741":5460,"ĠAKF":5461,"ĠAFE":5462,"MFA":5463,"Ġra":5464,"386":5465,"IEO":5466,"SiF":5467,"IKA":5468,"IKM":5469,"PbO":5470,"PbS":5471,"PbSO":5472,"''\\":5473,"''}{":5474,"4005":5475,"ĠCKB":5476,"}*(\\":5477,"})^{-}.":5478,"INB":5479,"hidr":5480,"hhsau":5481,"Ġ1991":5482,")^{+}.":5483,")^{+},":5484,")^{+},\\":5485,")^{+}/":5486,"ĠTan":5487,"FEI":5488,"Äĳá»ģu":5489,"Äĳá»ķi":5490,"6726":5491,"6748":5492,"ĠCOOR":5493,"99999":5494,"CosA":5495,"CosC":5496,"HKM":5497,"sinBsinC":5498,"EMQ":5499,")|)":5500,")|))":5501,"NTMg":5502,"000000":5503,"ĠCosB":5504,"MQC":5505,"bazo":5506,"cÃ³nghiá»ĩm":5507,"giÃºpm":5508,"Ġgnk":5509,"EIO":5510,"lÃłb":5511,"ÄĲá»ĥ":5512,"ÄĲáº·t":5513,"ntá»±":5514,"tgC":5515,"tga":5516,"})^{+}}":5517,"})^{+},":5518,"mic":5519,"HgSO":5520,"sÄĳBD":5521,"sÄĳAN":5522,"vá»Ľia":5523,"12345":5524,"amino":5525,"metan":5526,"ĠUSER":5527,"ĠSinx":5528,"QPy":5529,"Ġ??":5530,"Ġ57120":5531,"cá»§ac":5532,"Ġ11111":5533,"}},...":5534,"abcdeg":5535,"ĠsÄĳBC":5536,"ĠsÄĳBD":5537,"ĠsÄĳCD":5538,"ĠsÄĳBM":5539,"ĠsÄĳAN":5540,"ktm":5541,"ĠHOCH":5542,"ĠSiO":5543,"ChÆ°":5544,"LiOH":5545,"coz":5546,"tmdk":5547,"thÃ¬phÆ°Æ¡ngtrÃ¬nh":5548,"cungAM":5549,"tá»ī":5550,"acosx":5551,"111111":5552,"glucozo":5553,"ĠJQ":5554,"hiá»ĩu":5555,"RCOOR":5556,"OHCCH":5557,"979797":5558,"***":5559,"cuá»ĳi":5560,"Ġ399984":5561,"ĠMinA":5562,"chá»ī":5563,"khÃ´ngÄĳá»ķi":5564,"0165":5565,"ĠthÃ¬":5566,"ĠABIvÃł":5567,"TEX":5568,"Ġ450241":5569,"áº¯t":5570,"PVC":5571,"ocacbon":5572,"TÃŃnhgiÃ¡trá»ĭ":5573,"hcn":5574,"vÃ´lÃ½":5575,"ĠMaxP":5576,"á»ģn":5577,"ÄĳÆ°á»ĿngtrÃ²":5578,"XOY":5579,"cÃ¢ua":5580,"Theo":5581,"cOd":5582,"lá»Ľnnháº¥t":5583,"lá»ĽnhÆ¡n":5584,"Ġancol":5585,"00946":5586,"444444":5587,"Äĳá»ĥA":5588,"199819981998":5589,"vuÃ´nggÃ³cvá»Ľi":5590,"MeV":5591,"xoy":5592,"CHBrCH":5593,"á»ĵi":5594,"hoacx":5595,"vá»Ľimá»į":5596,"áº£mÆ¡n":5597,"cÃ¹ngphá»¥":5598,"8271":5599,"Sá»ĳHS":5600,"cáº¡nhtÆ°Æ¡ngá»©ng":5601,"nÃło":5602,"Ãģpdá»¥ng":5603,"Ġdfcm":5604,"cháº¯n":5605,"sá»ĳnguyÃªntá»ĳ":5606,"69220":5607,"970200":5608,"báºŃc":5609,"hchc":5610,"huyá»ģn":5611,"tpgu":5612,"Ġ2029105":5613,"161699":5614,"tháº¿áº¡":5615,"4072323":5616,"hidrocacbon":5617,"lá»ĽnhÆ¡nhoáº·cbáº±ng":5618,"!)":5619,"!)(":5620,"!.(\\":5621,"!)...(":5622,"(*\\":5623,"){":5624,"))(":5625,"))_{":5626,")|\\":5627,")})}":5628,"))}{(":5629,")}}^{":5630,")....(":5631,"*|":5632,"*}":5633,"*^{":5634,"*(\\":5635,",,":5636,",{":5637,",}":5638,",^{":5639,",..":5640,",...)":5641,".)":5642,".}{":5643,"010":5644,"018":5645,"019":5646,"060":5647,"036":5648,"040":5649,"028":5650,"077":5651,"076":5652,"0192":5653,"01875":5654,"212":5655,"219":5656,"2200":5657,"230":5658,"264":5659,"21212":5660,"310":5661,"312":5662,"318":5663,"317":5664,"340":5665,"345":5666,"348":5667,"31313":5668,"419":5669,"414":5670,"424":5671,"432":5672,"445":5673,"428":5674,"480":5675,"465":5676,"472":5677,"434":5678,"470":5679,"4999":5680,"4183":5681,"510":5682,"515":5683,"522":5684,"530":5685,"560":5686,"535":5687,"544":5688,"529":5689,"531":5690,"534":5691,"539":5692,"578":5693,"5333":5694,"612":5695,"615":5696,"660":5697,"632":5698,"645":5699,"626":5700,"665":5701,"696":5702,"6000":5703,"677":5704,"60000":5705,"718":5706,"719":5707,"714":5708,"724":5709,"704":5710,"790":5711,"7273":5712,"7224":5713,"810":5714,"899":5715,"805":5716,"856":5717,"8125":5718,"842":5719,"895":5720,"863":5721,"868":5722,"920":5723,"925":5724,"929":5725,"931":5726,"943":5727,":^{":5728,"AV":5729,"AZ":5730,"Am":5731,"Acos":5732,"APO":5733,"Anh":5734,"ARQ":5735,"BR":5736,"BY":5737,"BZ":5738,"Bi":5739,"Bq":5740,"Bx":5741,"BSO":5742,"BOB":5743,"BBT":5744,"BPD":5745,"BÄĲ":5746,"BSM":5747,"Benzen":5748,"BÃłi":5749,"Cx":5750,"Cy":5751,"Crac":5752,"CCH":5753,"CÃ¢":5754,"CPA":5755,"CPB":5756,"CÄĥn":5757,"DD":5758,"Dp":5759,"DIE":5760,"DIN":5761,"DOz":5762,"DGM":5763,"DPA":5764,"EX":5765,"ECO":5766,"EOH":5767,"ENH":5768,"EMH":5769,"EIM":5770,"EAG":5771,"EHO":5772,"EMK":5773,"EMP":5774,"EMO":5775,"EHA":5776,"EIN":5777,"ENA":5778,"EOx":5779,"EKD":5780,"EQC":5781,"EQM":5782,"Este":5783,"FJ":5784,"FOH":5785,"FCA":5786,"FOA":5787,"FBM":5788,"FAN":5789,"FHC":5790,"FAO":5791,"FIC":5792,"FMD":5793,"FHB":5794,"FNC":5795,"FME":5796,"FIE":5797,"FAS":5798,"FKM":5799,"FQA":5800,"Fru":5801,"GL":5802,"GAD":5803,"GCD":5804,"GOC":5805,"GBM":5806,"GHB":5807,"GBI":5808,"GFD":5809,"GPN":5810,"GTNN":5811,"HCH":5812,"HAO":5813,"HIM":5814,"HMF":5815,"HIK":5816,"HMG":5817,"HGF":5818,"IV":5819,"ICO":5820,"IMB":5821,"IOM":5822,"IHE":5823,"Ion":5824,"JM":5825,"JBC":5826,"JMI":5827,"JIM":5828,"KQ":5829,"Kp":5830,"KOB":5831,"KMN":5832,"KOA":5833,"KBE":5834,"KIB":5835,"KIC":5836,"KCr":5837,"KCN":5838,"KBI":5839,"KMH":5840,"KBN":5841,"KDM":5842,"KHD":5843,"KFD":5844,"KTMDK":5845,"LD":5846,"LG":5847,"LP":5848,"ML":5849,"Mb":5850,"MAl":5851,"MCu":5852,"MMg":5853,"MIC":5854,"NV":5855,"Ne":5856,"Nq":5857,"NBE":5858,"NDE":5859,"NDB":5860,"NCE":5861,"NEF":5862,"NID":5863,"NEA":5864,"NEH":5865,"NFH":5866,"NEO":5867,"NFI":5868,"NFM":5869,"NClCH":5870,"NLA":5871,"OR":5872,"ONH":5873,"OAH":5874,"ODE":5875,"Oyz":5876,"OMI":5877,"OMD":5878,"Oxz":5879,"OKB":5880,"OSM":5881,"OLB":5882,"PX":5883,"Pa":5884,"Po":5885,"Px":5886,"POH":5887,"PAE":5888,"PMA":5889,"POB":5890,"PAI":5891,"PMD":5892,"PBK":5893,"PHO":5894,"PNM":5895,"PEM":5896,"PEO":5897,"PKF":5898,"PJB":5899,"Poli":5900,"QH":5901,"QT":5902,"QAD":5903,"QAE":5904,"QBA":5905,"QCA":5906,"QON":5907,"QDM":5908,"QCK":5909,"QEM":5910,"QOK":5911,"QUO":5912,"RJ":5913,"RP":5914,"Rr":5915,"RSO":5916,"RCOOCH":5917,"RsinB":5918,"RsinC":5919,"SP":5920,"SQ":5921,"ST":5922,"So":5923,"Sac":5924,"SCD":5925,"SEF":5926,"SCN":5927,"SHF":5928,"SABE":5929,"SFA":5930,"SADHE":5931,"StamgiÃ¡c":5932,"SosÃ¡nh":5933,"TA":5934,"TD":5935,"TF":5936,"TT":5937,"TZ":5938,"Ti":5939,"TBC":5940,"TÆ°":5941,"TNM":5942,"TPA":5943,"Thay":5944,"TQA":5945,"Tá»«":5946,"Tá»ķng":5947,"UCT":5948,"VI":5949,"VNH":5950,"Vdd":5951,"VID":5952,"VÃ¬":5953,"VIN":5954,"Vá»Ľ":5955,"VNI":5956,"Xx":5957,"XON":5958,"XME":5959,"XEM":5960,"Yx":5961,"YCl":5962,"ZX":5963,"[]{(":5964,"aq":5965,"aCO":5966,"aFe":5967,"amol":5968,"athá»©c":5969,"aCuFeS":5970,"aNq":5971,"bt":5972,"bpt":5973,"bÃ¡":5974,"bÄĥ":5975,"bÃ¹":5976,"bÃ¬nh":5977,"boc":5978,"ctan":5979,"cáº·":5980,"cáº§":5981,"ckhÃ¡c":5982,"cáº¯t":5983,"dB":5984,"dn":5985,"dung":5986,"dáº¥":5987,"diá»ģu":5988,"dáº¥u":5989,"dich":5990,"er":5991,"eCl":5992,"fmá»į":5993,"gn":5994,"goxit":5995,"hd":5996,"hÃº":5997,"háº¡ng":5998,"hing":5999,"iz":6000,"ilin":6001,"ien":6002,"ion":6003,"ichá»ī":6004,"jup":6005,"kA":6006,"kB":6007,"kJ":6008,"kn":6009,"kq":6010,"kz":6011,"kvs":6012,"kiá»ĩ":6013,"king":6014,"lk":6015,"lá»":6016,"lÃº":6017,"mB":6018,"mK":6019,"mM":6020,"mR":6021,"mb":6022,"md":6023,"mcos":6024,"mCl":6025,"met":6026,"mAl":6027,"mÄĳ":6028,"mOx":6029,"mHg":6030,"mMin":6031,"mÃ¬nh":6032,"mon":6033,"nM":6034,"nS":6035,"nY":6036,"nq":6037,"nMg":6038,"nong":6039,"nZn":6040,"nHOOC":6041,"nRT":6042,"oo":6043,"ou":6044,"oáº·":6045,"oon":6046,"pb":6047,"pk":6048,"pol":6049,"pchat":6050,"pKa":6051,"pytago":6052,"qc":6053,"qp":6054,"qy":6055,"rax":6056,"ráº±ng":6057,"ric":6058,"rá»ĵi":6059,"sole":6060,"tO":6061,"tn":6062,"tÄĥ":6063,"tOm":6064,"táºŃ":6065,"um":6066,"ur":6067,"uoc":6068,"vn":6069,"vp":6070,"vin":6071,"vol":6072,"váº":6073,"xR":6074,"xS":6075,"xd":6076,"xp":6077,"xq":6078,"xCH":6079,"xab":6080,"xAE":6081,"xBH":6082,"xDB":6083,"xCos":6084,"xlnx":6085,"yb":6086,"yc":6087,"yd":6088,"ym":6089,"yAC":6090,"yOP":6091,"yAx":6092,"yÄĳá»ĥA":6093,"zk":6094,"zOx":6095,"zOn":6096,"{)}":6097,"{.......":6098,"{=}\\":6099,"|},":6100,"}*)":6101,"}........................":6102,"}////////":6103,"âĤ":6104,"âĬ":6105,"âĶ":6106,"ï¼":6107,"Ġ^{":6108,"Ġ}{":6109,"Ġ}{\\":6110,"Ġ):":6111,"Ġ);(":6112,"ĠLN":6113,"Ġ):(":6114,"ĠÄĲPCM":6115,"Ġhiá»ĩu":6116,"ĭnh":6117,"Ĺi":6118,"Ġ+^{\\":6119,"Ġ+}}}":6120,"Ġ+}})":6121,"Ġ+};(":6122,"Ġ=_{-}^{+}":6123,"^{...":6124,"Ġ-})":6125,"Ġ-})}":6126,"acO":6127,"}{+":6128,"htá»":6129,"Ġ1125":6130,"_{{\\":6131,"Ġ218":6132,"Ġ219":6133,"Ġ299":6134,"Ġ223":6135,"Ġ235":6136,"Ġ228":6137,"Ġ2222":6138,"rtan":6139,"}}}(":6140,"}}}.":6141,"}}}^{":6142,"}}^{+":6143,"}}})(":6144,"}}}}{(":6145,"}}^{-}":6146,"}}})^{-":6147,"}}}}{{":6148,"Ġ310":6149,"Ġ315":6150,"Ġ340":6151,"Ġ333":6152,"Ġ326":6153,"Ġ380":6154,"Ġ398":6155,"Ġ331":6156,"Ġ372":6157,"Ġ385":6158,"Ġ3456":6159,"Ġ(:":6160,"ĠxC":6161,"ĠxO":6162,"Ġxb":6163,"Ġxe":6164,"Ġxk":6165,"Ġxn":6166,"Ġxmol":6167,"ĠxNa":6168,"ĠxKHSO":6169,"Ġxáº£":6170,"})*":6171,"})}(":6172,"}))}":6173,"}))\\":6174,"}){.":6175,"})/(":6176,"})*(":6177,"})......":6178,"}).....(":6179,"harp":6180,"Ġ4200":6181,"Ġ424":6182,"Ġ436":6183,"Ġ444":6184,"Ġ498":6185,"Ġ470":6186,"Ġ481":6187,"Ġ4160":6188,"Ġ4995":6189,"Ġbp":6190,"Ġban":6191,"Ġbsinxcosx":6192,"ĠyO":6193,"Ġyp":6194,"Ġymol":6195,"Ġycosx":6196,"ĠyOM":6197,"ĠyOt":6198,"Ġyhoáº·cx":6199,"ĠyOz":6200,"Ġck":6201,"Ġcn":6202,"Ġcox":6203,"Ġcbx":6204,"ĠcÃ¢n":6205,"inha":6206,"inÃły":6207,"}}{^{":6208,"}}{{\\":6209,"ĠaPT":6210,"..(":6211,"..\\":6212,"Ġ520":6213,"Ġ575":6214,"Ġ528":6215,"Ġ580":6216,"Ġ570":6217,"Ġ5750":6218,"Ġ5376":6219,"Ġ55555":6220,")({":6221,")(...":6222,")(....)":6223,"ĠmA":6224,"ĠmC":6225,"Ġmz":6226,"Ġmab":6227,"ĠmFe":6228,"ĠmNO":6229,"ĠmNa":6230,"Ġmtan":6231,"ĠmAl":6232,"Ġmabc":6233,"ĠmMg":6234,"Ġmod":6235,"ĠmMgO":6236,"Ġmct":6237,"Ġmkhi":6238,"Ġmkettua":6239,"Ġmetyl":6240,"}({":6241,"}(|":6242,"ABL":6243,"ABd":6244,"ABy":6245,"ABz":6246,"ABOM":6247,"osac":6248,")_{\\":6249,"sinacos":6250,"10101":6251,"2060":6252,"2023":6253,"2050":6254,"2048":6255,"2090":6256,"2039":6257,"2077":6258,"2047":6259,"Ġ675":6260,"Ġ6300":6261,"Ġ669":6262,"Ġ6993":6263,"CHF":6264,"Ġ919":6265,"Ġ960":6266,"Ġ936":6267,"Ġ949":6268,"Ġ965":6269,"Ġ990":6270,"Ġ996":6271,"Ġ9000":6272,"Ġ992":6273,"Ġ986":6274,"Ġ90000":6275,"Ġ9889":6276,"}.|(":6277,"ACm":6278,"ACDB":6279,"ACvÃł":6280,"rightharp":6281,"COC":6282,"COG":6283,"COS":6284,"COVID":6285,"OHE":6286,"OHK":6287,"OHM":6288,"OHQ":6289,"Ġ840":6290,"Ġ888":6291,"cosi":6292,"cosu":6293,"cosOAM":6294,"cosOAN":6295,"tao":6296,"talet":6297,"tamic":6298,"Ġ716":6299,"Ġ711":6300,"Ġ765":6301,"Ġ784":6302,"Ġnd":6303,"ĠnCl":6304,"ĠnAl":6305,"ĠnCa":6306,"ĠnHCl":6307,"ĠnHO":6308,"ĠnKOH":6309,"ĠnÃªn":6310,"abd":6311,"abba":6312,"abiáº¿t":6313,"oláº¡i":6314,"{(}{":6315,"BCQ":6316,"BCm":6317,"BCn":6318,"BCDE":6319,"BCtáº¡i":6320,"dotg":6321,"picosx":6322,"},..":6323,"},....":6324,"Ġ1025":6325,"Ġ1058":6326,"Ġ1089":6327,"ĠAS":6328,"ĠAs":6329,"ĠAt":6330,"ĠAcos":6331,"ĠANH":6332,"ĠAMI":6333,"ĠAOI":6334,"ĠAPM":6335,"1225":6336,"1275":6337,"1250":6338,"1234":6339,"xyt":6340,"Ġ203":6341,"Ġ209":6342,"Ġ2025":6343,"Ġ2048":6344,"Ġ2037":6345,"Ġ20000":6346,"Ġ2068":6347,"...;(":6348,"})_{_{":6349,"ĠCJ":6350,"ĠCd":6351,"ĠCMB":6352,"ĠCMA":6353,"ĠCBM":6354,"ĠCIB":6355,"ĠCIA":6356,"ĠCEF":6357,"ĠCBI":6358,"ĠCED":6359,"ĠCIM":6360,"ĠCBF":6361,"ĠCKH":6362,"ĠCBO":6363,"ĠCPQ":6364,"ĠCIK":6365,"ĠCFE":6366,"ĠCPD":6367,"ĠCPA":6368,"ĠCPB":6369,"ĠCÄĥn":6370,"ĠCTPT":6371,"FeOH":6372,"molK":6373,"molm":6374,"1520":6375,"1550":6376,"1545":6377,"1572":6378,"1577":6379,"15625":6380,"1505000":6381,"1656":6382,"16000":6383,"1666":6384,"16153":6385,"ClNH":6386,"ĠHJ":6387,"ĠHS":6388,"ĠHBD":6389,"ĠHAE":6390,"ĠHDC":6391,"ĠHPO":6392,"ĠHEC":6393,"ĠHOD":6394,"ĠHCHO":6395,"ĠHMK":6396,"ĠHNB":6397,"Ġsinc":6398,"Ġsind":6399,"SOQ":6400,"Ġ...}}":6401,"Ġ...;\\":6402,"Ġte":6403,"Ġtm":6404,"NOE":6405,"NOOC":6406,"Ġ1225":6407,"Ġ1222":6408,"Ġ1231":6409,"Ġ1296":6410,"Ġ1295":6411,"Ġ12132":6412,"1196":6413,"10002":6414,"NaA":6415,"NaY":6416,"NaSiO":6417,"ĠBJ":6418,"ĠBS":6419,"ĠBb":6420,"ĠBPO":6421,"ĠBMD":6422,"ĠBIM":6423,"ĠBID":6424,"ĠBEA":6425,"ĠBME":6426,"ĠBNM":6427,"ADQ":6428,"ADBK":6429,"1825":6430,"ngtu":6431,"ngBBT":6432,"ngpb":6433,"}.\\%":6434,"258":6435,"0015":6436,"0016":6437,"0025":6438,"0004":6439,"00204":6440,"1300":6441,"1360":6442,"1333":6443,"13084":6444,"ĠCHC":6445,"ĠCHD":6446,"ĠCHE":6447,"ĠCHI":6448,"ĠCHCN":6449,"ĠCHCHO":6450,"ĠCHCOOC":6451,"Ġ183":6452,"Ġ187":6453,"Ġ161":6454,"1905":6455,"1944":6456,"1972":6457,"19800":6458,".({":6459,"ĠML":6460,"ĠMR":6461,"ĠMAC":6462,"ĠMOH":6463,"ĠMBC":6464,"ĠMAD":6465,"ĠMAE":6466,"ĠMOC":6467,"ĠMBH":6468,"ĠMCA":6469,"ĠMCN":6470,"ĠMED":6471,"ĠMBN":6472,"ĠMHO":6473,"ĠMIH":6474,"ĠMDO":6475,"NHF":6476,"1428":6477,"1431":6478,"1729":6479,"^{+}.":6480,"^{+}}}":6481,"^{+};\\":6482,"^{+})}":6483,"tanb":6484,"tany":6485,"tanz":6486,"}|;":6487,"}|)_{":6488,"}|.\\":6489,"}{((":6490,"Ġdm":6491,"Ġdab":6492,"ĠdFe":6493,"ĠdNO":6494,"Ġdau":6495,"etrong":6496,"BDP":6497,"AEHF":6498,"ĠOJ":6499,"ĠOR":6500,"ĠOT":6501,"ĠONa":6502,"ĠOCD":6503,"ĠOBA":6504,"ĠOMN":6505,"ĠOIA":6506,"ĠOCN":6507,"ĠOMH":6508,"ĠOGB":6509,"ĠOCI":6510,"ĠOFC":6511,"ĠONP":6512,"ĠONM":6513,"ĠOEI":6514,"ĠOEK":6515,"ĠOQM":6516,"AlF":6517,"AlH":6518,"Alpu":6519,"ĠABCD":6520,".......\\":6521,"^{-};":6522,"^{-}}\\":6523,"221":6524,"228":6525,"Ġ153":6526,"Ġ1500":6527,"Ġ1560":6528,"Ġ1521":6529,"})({\\":6530,"Ġ1120":6531,"Ġ1112":6532,"Ġ112000":6533,"Ġbca":6534,"Ġbcc":6535,"Ġbcd":6536,"Ġfn":6537,"CuCO":6538,"Ġ142":6539,"Ġ1405":6540,"Ġ1444":6541,"2475":6542,"2401":6543,"2448":6544,"ĠACA":6545,"ĠACP":6546,"COOHH":6547,"Ġ255":6548,"Ġ2550":6549,"305":6550,"3024":6551,"MBK":6552,"MBb":6553,"ĠmolH":6554,"Ġmolm":6555,"CBt":6556,"bcyz":6557,"Ġ131":6558,"Ġ1333":6559,"Ġ130000":6560,"601":6561,"6057":6562,"man":6563,"mant":6564,"Ġ248":6565,"OCF":6566,"OCK":6567,"MCF":6568,"MCG":6569,"MCQ":6570,"MCS":6571,"Ġsinxsin":6572,"OBE":6573,"OBF":6574,"ĠDL":6575,"ĠDAE":6576,"ĠDOC":6577,"ĠDIA":6578,"ĠDBF":6579,"ĠDHF":6580,"ĠDHK":6581,"Ġ606":6582,"Ġ6030":6583,"Ġ6060":6584,"Ġ6043":6585,"2313":6586,"2391":6587,"2369":6588,"2709":6589,"27134":6590,"ĠSD":6591,"ĠSN":6592,"ĠSt":6593,"ĠSabc":6594,"}})/":6595,"}})|":6596,"}});\\":6597,"}}),(\\":6598,"BAG":6599,"BAr":6600,"CaSiO":6601,"ĠBCK":6602,"Ġ303":6603,"Ġ304":6604,"ĠNCB":6605,"ĠNCE":6606,"ĠNDO":6607,"054":6608,"0525":6609,"0585":6610,"MNI":6611,"MNK":6612,"MNCB":6613,"ĠPS":6614,"ĠPCI":6615,"506":6616,"508":6617,"364":6618,"3611":6619,"3625":6620,"Ġgo":6621,"Ġglu":6622,"thbb":6623,"thá»ĥ":6624,"them":6625,"ongung":6626,"ptr":6627,"upu":6628,"uparrow":6629,"ĠFeBr":6630,"355":6631,"358":6632,"3576":6633,"trÆ°á»Ŀng":6634,"truoc":6635,"402":6636,"406":6637,"409":6638,"4016":6639,"4011":6640,"4021":6641,"4023":6642,"4040":6643,"4045":6644,"4031":6645,"4096":6646,"328":6647,"ĠEP":6648,"ĠEMB":6649,"ĠEAI":6650,"ĠEHC":6651,"ĠEBF":6652,"ĠEID":6653,"ĠEOI":6654,"ĠEHD":6655,"ĠIS":6656,"ĠIAD":6657,"ĠIOC":6658,"ĠIBM":6659,"ĠICE":6660,"ĠIOM":6661,"ĠIBK":6662,"ĠIBN":6663,"ĠINC":6664,"ĠIEA":6665,"ĠIMO":6666,"ĠIPH":6667,"AgBr":6668,"BEQ":6669,"BEFC":6670,"BMG":6671,"BMP":6672,"ivá»Ľ":6673,"ĠKR":6674,"ĠKe":6675,"ĠKCH":6676,"ĠKBD":6677,"ĠKDC":6678,"ĠKMA":6679,"ĠKMC":6680,"ĠKIC":6681,"ĠKCE":6682,"ĠKED":6683,"ĠKDH":6684,"})}:\\":6685,"ANI":6686,"ANQ":6687,"AIF":6688,"AIQ":6689,"286":6690,"2857":6691,"28238":6692,"Ġ177":6693,"Ġ1705":6694,"Ġ1728":6695,"Ġ1729":6696,"Ġ1786":6697,"Ġ17600":6698,"HCF":6699,"HCN":6700,"lozo":6701,"Ġ365":6702,"ĠAHG":6703,"Ġ403":6704,"Ġ4025":6705,"Ġ4030":6706,"Ġ4023":6707,"Ġ4096":6708,");...;(":6709,"Ġ191":6710,"Ġ195":6711,"Ġ1986":6712,"Ġ1982":6713,"ora":6714,"orm":6715,"0265":6716,"Ġ2789":6717,"}.({\\":6718,"}.(...":6719,"DEG":6720,"DEMNH":6721,"Ġ455":6722,"Ġ459":6723,"axby":6724,"Ġ....;":6725,"Ġ....\\":6726,"Ġ............................":6727,"}}}{-":6728,"}}}{{":6729,"644":6730,"6400":6731,"568":6732,"56000":6733,"}^{-}}}":6734,"}^{-}}}{":6735,",((":6736,"Ġacc":6737,"Ġacr":6738,"Äĳi":6739,"Äĳk":6740,"Äĳv":6741,"Äĳáº¡":6742,"Äĳathá»©c":6743,"Äĳivá»Ľ":6744,"ĠCOF":6745,"ĠCON":6746,"Ġ20037":6747,"Ġ-}:\\":6748,"AFI":6749,"AFK":6750,"AFM":6751,"AFN":6752,").(....":6753,"292":6754,"295":6755,"2900":6756,"simeq":6757,"IAP":6758,"ĠVÃ¬":6759,"2658":6760,"//\\":6761,"///\\":6762,"BrCH":6763,"AOF":6764,"AOy":6765,"ĠRCOOH":6766,"ĠRCOONa":6767,"ĠADI":6768,"ĠADJ":6769,"ĠADO":6770,"Ġ287":6771,"Ġ28561":6772,"490":6773,"4949":6774,"49755":6775,"CrSO":6776,"CrBr":6777,"Ãłm":6778,"Ãłn":6779,"MIF":6780,"ĠOHC":6781,"Ġaxeta":6782,"amu":6783,"amgiÃ¡c":6784,"034":6785,"039":6786,"CMH":6787,"CMT":6788,"ĠCuCO":6789,"CEI":6790,"oxi":6791,"0431":6792,"0468":6793,"0483":6794,"0115":6795,"ECN":6796,"cao":6797,"487":6798,"4846":6799,"480000":6800,"MDF":6801,"MDN":6802,"MDP":6803,"\\%/":6804,"\\%:":6805,"\\%}^{+":6806,"6516":6807,"6524":6808,"OMG":6809,"ĠBHM":6810,"ĠBHO":6811,"DAP":6812,"DAQ":6813,"DAy":6814,"modab":6815,"ĠFN":6816,"ĠFR":6817,"ĠFBC":6818,"ĠFAD":6819,"ĠFAM":6820,"ĠFCD":6821,"ĠFDC":6822,"ĠFEC":6823,"ĠFEB":6824,"Ġcotb":6825,"ĠNaI":6826,"exan":6827,"Ġ359":6828,"Ġ3500":6829,"HBF":6830,"HBL":6831,"HBO":6832,"Ġabcx":6833,"hopchat":6834,"CNA":6835,"BKO":6836,"BKP":6837,"BKx":6838,"0826":6839,"7212":6840,"7225":6841,"3721":6842,"3741":6843,"BIT":6844,"CFE":6845,"CFN":6846,"CFO":6847,"120000":6848,"EBN":6849,"EBx":6850,"}}^{}":6851,"}}^{})":6852,")}})^{":6853,")}};\\":6854,")}}.(\\":6855,")}}|}":6856,"Ġ262":6857,"Ġ2618":6858,"MHE":6859,"ĠCDG":6860,"ĠCDN":6861,"ĠGF":6862,"ĠGI":6863,"ĠGL":6864,"ĠGTNN":6865,"ddX":6866,"ddY":6867,"ddBa":6868,"ddBr":6869,"ddAgNO":6870,"ddMgCl":6871,"ddMgSO":6872,"ddspu":6873,"CHOCH":6874,"ĠABCnÃªn":6875,"ĠABCÄĳá»ĵngdáº¡ng":6876,"Ġvt":6877,"ĠvÃ¬":6878,"Ġvá»Ľi":6879,"adbc":6880,"558":6881,"20001":6882,"BNA":6883,"BNI":6884,"BNK":6885,"ĠAEN":6886,"Ġ4950":6887,"Ġ2212":6888,"3476":6889,"392":6890,"AGB":6891,"AGF":6892,"AGH":6893,"chox":6894,"chá»©":6895,"cháºµ":6896,"BFI":6897,"BFM":6898,"BFN":6899,"20092009":6900,"Ġqx":6901,"DHN":6902,"ONC":6903,"ONE":6904,"ONBr":6905,"andx":6906,"Ġbxz":6907,"...........":6908,"............":6909,"...............":6910,"............\\":6911,"vÃło":6912,"vÃłot":6913,"vÃłab":6914,"ĠXe":6915,"ĠXÃ©t":6916,"IDF":6917,"NCK":6918,"547":6919,"HONO":6920,"DMP":6921,"467":6922,"4632":6923,"4667":6924,"MKE":6925,"ĠeA":6926,"ĠeB":6927,"857":6928,"4325":6929,"OIH":6930,"Ã³Äĳivá»Ľ":6931,"779":6932,"msá»ĳ":6933,"Ġ294":6934,"Ġ2937":6935,"MPI":6936,"MPK":6937,"MEQ":6938,"itÆ°Æ¡ngtá»±":6939,"ĠDCB":6940,"ĠDCF":6941,"}}}}.":6942,"}}}}*\\":6943,"Ġ7500":6944,"CIH":6945,"CIK":6946,"HEI":6947,"áº¡ntá»±":6948,"áº¡itÆ°Æ¡ngtá»±":6949,"HDK":6950,"662":6951,"ĠQB":6952,"ĠQP":6953,"OEI":6954,"OEM":6955,"OEQ":6956,"DNA":6957,"DNM":6958,"Ġ562":6959,"KHS":6960,"HFB":6961,"PTE":6962,"Ġ+},(\\":6963,"ĠMNP":6964,"DKE":6965,"nháºŃn":6966,"nhá»įn":6967,"Æ¯C":6968,"ĠANF":6969,"HAJ":6970,"HAx":6971,"0254":6972,"BOG":6973,"BOP":6974,"BOm":6975,"BOt":6976,"BOx":6977,"ĠAIF":6978,"ĠAIT":6979,"APD":6980,"APN":6981,"DFG":6982,"DFI":6983,"ĠBMF":6984,"092":6985,"579":6986,"enlu":6987,"SAA":6988,"SAOC":6989,"ĠAKB":6990,"ĠAKE":6991,"ĠAKM":6992,"ĠAKN":6993,"Ġ3936":6994,"ĠAFC":6995,"ĠAFI":6996,"MFB":6997,"MFnt":6998,"Ġ1000000":6999,"3860":7000,"SiH":7001,"IKN":7002,"IKy":7003,"PbCl":7004,"'',":7005,"4001":7006,"4004":7007,"40000":7008,"400000":7009,"ĠZnSO":7010,"})^{-}/":7011,"Ã´nglÃł":7012,"Ã´lÃ½":7013,"5932":7014,"5955":7015,"IHK":7016,"30000":7017,"58125":7018,"{|(":7019,"689":7020,"6875":7021,"OFD":7022,"OFE":7023,"OFK":7024,"OFM":7025,"hhY":7026,"Ġ1993":7027,"Ġ1996":7028,"(||":7029,"ĠTG":7030,"ĠTH":7031,"ĠThe":7032,"FEx":7033,"Äĳá»ĭnh":7034,"015625":7035,"sinAsinBsinC":7036,"36081":7037,"6775":7038,"893":7039,"[]{(\\":7040,"Cosi":7041,"NBy":7042,"NPC":7043,"Ġhv":7044,"Ġ9600":7045,"puvs":7046,"Ã¡n":7047,"Ã¡pdá»¥ng":7048,"_{-}":7049,"maxu":7050,"AQB":7051,"AQD":7052,"AQE":7053,"AQN":7054,"7340":7055,"NMQ":7056,"ungoáº·":7057,"EHM":7058,"DOK":7059,"HOOCC":7060,"Ġ20092009":7061,"KLC":7062,"KLM":7063,"ratacÃ³":7064,"mlX":7065,"DIF":7066,"DIP":7067,"Ã¢y":7068,"0000000":7069,"á»Ľiv":7070,"Oxi":7071,"HCOOK":7072,"ĠCosC":7073,"MQE":7074,"MQP":7075,"bacá»§":7076,"bachai":7077,"sá»ĳsá»ĳ":7078,"sá»ĳbáº±ng":7079,"sá»ĳbÃł":7080,"sá»ĳcuá»ĳi":7081,"}^{*};":7082,"}^{*},(":7083,"Ġ140307":7084,"cosBcosC":7085,"ĠBKM":7086,"Ġmathbb":7087,"12800000":7088,"ĠCrCl":7089,"OKD":7090,"cÃ³giÃ¡trá»ĭ":7091,"cÃ³sai":7092,"ÃŃa":7093,"giÃ¹":7094,"giÃ¢y":7095,"EIF":7096,"EIG":7097,"lÃłmt":7098,"lÃłtrung":7099,"lÃłphÃ¢ngiÃ¡c":7100,"PMS":7101,"ÄĲÆ°á»Ŀng":7102,"Ġ\\%\\":7103,"^{-},_{":7104,"backsim":7105,"tgá»įn":7106,"ĠBIF":7107,"choP":7108,"chof":7109,"ĠCIO":7110,"HIO":7111,"Ġ11212":7112,"HCOOCCH":7113,"vÃ¬b":7114,"vÃ¬t":7115,"vÃ¬cÃ¹ngphá»¥":7116,"Ġ1107":7117,"hayy":7118,"})^{+}(":7119,"})^{+}\\":7120,"})^{+},\\":7121,"})^{+},(":7122,"mikvs":7123,"130307":7124,"ĠMnCl":7125,".......................":7126,"CGH":7127,"CGV":7128,"GlyAla":7129,"sÄĳAB":7130,"sÄĳAC":7131,"Ġ400000":7132,"Ġmaxg":7133,"Ġminf":7134,"BPE":7135,"CTA":7136,"HNI":7137,"khx":7138,"khac":7139,"khÃ´nglÃł":7140,"khicos":7141,"CPN":7142,"EBCF":7143,"cÃ¢y":7144,"Ãºtgá»įn":7145,"ĠLB":7146,"ĠLK":7147,"ĠLog":7148,"ĠABMvÃł":7149,"QPN":7150,"Ġ???":7151,"^{*},":7152,"Ġ6724":7153,"ĠABHvÃł":7154,"OQM":7155,"}},(\\":7156,"ABND":7157,"ĠAPH":7158,"abcdef":7159,"ĠsÄĳAB":7160,"ĠsÄĳAD":7161,"ĠsÄĳCE":7162,"0352":7163,"NIO":7164,"CAHOF":7165,"Miny":7166,"Ġcda":7167,"BQH":7168,"BQK":7169,"BQR":7170,"Ã©p":7171,"1010101":7172,"1006009":7173,"ĠIEO":7174,"IFO":7175,"Ġ6001":7176,"Ġ600000":7177,"ĠHAJ":7178,"ĠSiF":7179,"tronggÃ³c":7180,"trongcÃ¹ngph":7181,"áº§n":7182,"vá»Ľiáº¡":7183,")!}{":7184,")!.(":7185,"HBrO":7186,"LiAlH":7187,"sdIC":7188,"sdAP":7189,"{...}{":7190,"}.......\\":7191,"}......\\":7192,"ĠcÄĥnx":7193,"Ġ8955":7194,"Ġ2733212496":7195,"CQK":7196,"CQN":7197,"nst":7198,"Ġbaz":7199,"0238":7200,"6009":7201,"KFM":7202,"nothing":7203,"Ġ...................":7204,"MaxA":7205,"PHQ":7206,"aOd":7207,"xCy":7208,"thÃ¬P":7209,"thÃ¬m":7210,")//(\\":7211,"ALK":7212,"ALM":7213,"GFN":7214,"cungMN":7215,"tá»Ń":7216,"tá»ķng":7217,"NEP":7218,"glucoz":7219,"saotá»«":7220,"saoláº¡i":7221,"saupu":7222,"varnothing":7223,"ĠJN":7224,"ĠJPG":7225,"Ġbnv":7226,"arctan":7227,"Æ°á»Ŀichá»ī":7228,"Axetilen":7229,"DQK":7230,"cÄĥnxy":7231,"sprt":7232,"Ã£n":7233,"ABFP":7234,"ĠOOCC":7235,"ĠOOCCH":7236,"***\\":7237,"0652":7238,"GTLN":7239,"HQK":7240,"PdCO":7241,"dpdd":7242,"nÃªna":7243,"ĠMinP":7244,"};...;":7245,"///////\\":7246,",...,":7247,"PFCD":7248,"nhan":7249,"nhau":7250,"tinh":7251,"|}{|(\\":7252,"Ġoh":7253,"Ġtháº±ng":7254,"ĠENMF":7255,"ÄĲKXD":7256,"luÃ´nÄĳÃºngvÃ¬a":7257,"dok":7258,"nlÆ°á»£":7259,"nláº»":7260,"(.)":7261,"71035":7262,"Ancol":7263,"BLA":7264,"váºŃyP":7265,"Ġcpw":7266,"ĠAMNcÃ¢n":7267,"suyraa":7268,"suyraÄĳc":7269,"cotAcotB":7270,"ctuongung":7271,"iá»ģukiá»ĩ":7272,"áº£ijup":7273,"CdSO":7274,"TÃŃnhV":7275,"butan":7276,"goctuongung":7277,"rua":7278,"ruou":7279,"vsx":7280,"}}...{.":7281,"Ġ1600000":7282,"ĠgÃ³cBAC":7283,"ĠgÃ³cnhá»įn":7284,"Ġsá»ĳÄĳáº§u":7285,"(*)(":7286,"(*);(":7287,"EQB":7288,"ytag":7289,"ĠcungPC":7290,"16289292":7291,"nghÄ©":7292,"canbachai":7293,"lÃłmcÃ¢u":7294,"lÃłtiap":7295,"lÃłtiaphÃ¢ngiÃ¡c":7296,"iá»ĩntÃŃch":7297,"nguyÃªnthÃ¬":7298,"áº¥ybÃ¡":7299,"á»ıamÃ£n":7300,"Ankan":7301,"!!!":7302,"AsO":7303,"Glucozo":7304,"SABGE":7305,"Theopt":7306,"ixer":7307,"tÃŃnhnhÃ©":7308,"}........\\":7309,"ĠhaigÃ³c":7310,"igiÃ¡":7311,"igiÃ¡trá»ĭ":7312,"ingÆ°á»Ŀichá»ī":7313,"oleum":7314,"98526":7315,"ĠvuÃ´ngABC":7316,"ĠvuÃ´ngBHM":7317,"vuÃ´nggÃ³cAB":7318,"5886":7319,"97595":7320,"CPQD":7321,"Maxy":7322,"SLTAB":7323,"kimloai":7324,"ká»ģbÃ¹":7325,"xOk":7326,"xoz":7327,"Ġ99993":7328,"á»£p":7329,"theo":7330,"thá»ıamÃ£n":7331,"ĠABCvuÃ´ngcÃ¢n":7332,"'''}":7333,"Äĳá»ģrá»ĵi":7334,"0000000000000000":7335,"lÃłsá»ĳchÃŃnh":7336,"áº£mÃ£n":7337,"bÃłiratacÃ³":7338,"iaphÃ¢ngiÃ¡ccá»§a":7339,"náº¿ux":7340,"(@)":7341,"Butan":7342,"CÃ³M":7343,"Talet":7344,"Tales":7345,"nnÃ³Äĳivá»Ľ":7346,"á»Ńa":7347,"trÃªntia":7348,"Ġ20038005":7349,"Ġ20038007":7350,"chiax":7351,"nhÆ°váºŃy":7352,"nhÆ°tháº¿áº¡":7353,"Ġthuc":7354,"???)":7355,"loáº¡ivÃ¬khÃ´nglÃł":7356,"chuviOAB":7357,"(..)":7358,"IEFJ":7359,"MVB":7360,"Táº¡isaotá»«":7361,"ZTI":7362,"clorua":7363,"cÃ¡ch":7364,"cÃ´ngthá»©c":7365,"cáº¡nhhuyá»ģn":7366,"cÃ²nláº¡i":7367,"glixer":7368,"hqBC":7369,"hÆ°Æ¡ngtrÃ¬nh":7370,"koth":7371,"láº¡icÃ³thá»ĥ":7372,"láº¥yÄĳiá»ĥm":7373,"soletrong":7374,"vtpt":7375,"{?}{\\":7376,"Ġoversett":7377,"hanol":7378,"haigÃ³ctrongcÃ¹ngph":7379,"Ġchia":7380,"Ġ5778":7381,"Ġtá»±lÃłm":7382,"thoáº£mÃ£n":7383,"giÃºpmÃ¬nh":7384,"ÄĲá»ĥA":7385,"ChÆ°abiáº¿t":7386,"TÃŃnhgiÃ¡trá»ĭcá»§a":7387,"ÄĳÆ°á»ĿngtrÃ²n":7388,"vá»Ľimá»įix":7389,"áº£mÆ¡nnhiá»ģu":7390,"Sá»ĳHScÃ²nláº¡i":7391,"nÃłocá»§ax":7392,"cháº¯ncung":7393,"báºŃcbacá»§":7394,"21212121":7395,"31313131":7396,"615384":7397,"Anháº¥ybÃ¡":7398,"BÄĲT":7399,"Cracking":7400,"CÃ¢u":7401,"CÄĥnx":7402,"FOHF":7403,"QUOTE":7404,"SABEG":7405,"TZI":7406,"XxYx":7407,"cáº·p":7408,"dáº¥ungoáº·":7409,"fmá»įingÆ°á»Ŀichá»ī":7410,"lá»Ĺi":7411,"lÃºc":7412,"methanol":7413,"monosac":7414,"oonup":7415,"tÄĥngBBT":7416,"vinyl":7417,"voly":7418,"váº½":7419,"}///////////////\\":7420,"âĤ¬":7421,"âĶĤ":7422,"^{...^{":7423,"Ġxáº£yra":7424,"})......(":7425,"Ġ555557":7426,"Ġmetylbut":7427,"Ġ91908":7428,"Ġ94905000":7429,"Ġ96500":7430,"rightharpoonup":7431,"Ġ206877":7432,"ĠCÄĥnbáºŃcbacá»§":7433,"11969":7434,"mantozo":7435,"27091":7436,"Ġglutamic":7437,"trÆ°á»Ŀnghá»£":7438,"DEMNHK":7439,"Ġ...............................":7440,"Äĳáº¡t":7441,"26582":7442,"Ġaxetat":7443,"amgiÃ¡cABC":7444,"cháºµnláº»":7445,"enlulozo":7446,"ĠTheopt":7447,"puvsA":7448,"sá»ĳsá»ĳháº¡ng":7449,"ĠmathbbZ":7450,"giÃ¹m":7451,"lÃłtrungÄĳiá»ĥm":7452,"vÃ¬cÃ¹ngphá»¥vá»Ľi":7453,"mikvsnha":7454,"nlÆ°á»£t":7455,"suyraÄĳcnhÆ°tháº¿áº¡":7456,"áº£ijupmikvsnha":7457,"lÃłmcÃ¢ufmá»įingÆ°á»Ŀichá»ī":7458,"lÃłsá»ĳchÃŃnhphÆ°Æ¡ng":7459,"nnÃ³Äĳivá»ĽigiÃ¡":7460,"loáº¡ivÃ¬khÃ´nglÃłsá»ĳnguyÃªntá»ĳ":7461,"glixerol":7462,"láº¡icÃ³thá»ĥsuyraÄĳcnhÆ°tháº¿áº¡":7463,"haigÃ³ctrongcÃ¹ngphÃŃa":7464,"ChÆ°abiáº¿tlÃłmcÃ¢ufmá»įingÆ°á»Ŀichá»ī":7465,"Anháº¥ybÃ¡nnÃ³Äĳivá»ĽigiÃ¡":7466,"XxYxZ":7467,"dáº¥ungoáº·c":7468,"tÄĥngBBTf":7469,"ĠCÄĥnbáºŃcbacá»§a":7470,"ChÆ°abiáº¿tlÃłmcÃ¢ufmá»įingÆ°á»Ŀichá»īgiÃ¹m":7471,"!:":7472,"!})":7473,"!}(":7474,"!}.":7475,"!)}":7476,"!.\\":7477,"!}{(":7478,"!)}{(":7479,"%),\\":7480,"(...":7481,"(;\\":7482,"()\\":7483,"(^{-":7484,"(???)":7485,")},":7486,")})_{":7487,")....":7488,")).":7489,"))(\\":7490,"));":7491,")}.(":7492,")}}}{":7493,")}^{-":7494,"))}{\\":7495,")})(\\":7496,"))}}":7497,")})}{(":7498,")):(":7499,"))((":7500,").......":7501,")......":7502,")....\\":7503,")}.((":7504,"*,":7505,"*;":7506,"*})":7507,"*)\\":7508,"*):":7509,"***)":7510,"+\\":7511,"+}}}{":7512,",_{":7513,",},":7514,",)\\":7515,"-\\":7516,"-}^{":7517,".)(":7518,"/^{":7519,"017":7520,"099":7521,"021":7522,"033":7523,"098":7524,"090":7525,"079":7526,"0135":7527,"0224":7528,"0204":7529,"0787":7530,"0199819981998":7531,"1160":7532,"2100":7533,"22018":7534,"22011":7535,"21000":7536,"2160":7537,"2197":7538,"2123":7539,"2199":7540,"2202":7541,"3100":7542,"325":7543,"319":7544,"314":7545,"321":7546,"396":7547,"385":7548,"3150":7549,"3144":7550,"3136":7551,"3131":7552,"410":7553,"415":7554,"411":7555,"418":7556,"413":7557,"433":7558,"426":7559,"4125":7560,"439":7561,"478":7562,"479":7563,"4224":7564,"4243":7565,"4142":7566,"4808":7567,"4343":7568,"420000":7569,"516":7570,"511":7571,"519":7572,"524":7573,"521":7574,"536":7575,"532":7576,"556":7577,"526":7578,"548":7579,"537":7580,"5125":7581,"585":7582,"538":7583,"5300":7584,"5130":7585,"5145":7586,"5404":7587,"5146":7588,"5985":7589,"5227":7590,"622":7591,"624":7592,"630":7593,"650":7594,"636":7595,"664":7596,"680":7597,"698":7598,"695":7599,"697":7600,"674":7601,"6008":7602,"6224":7603,"6501":7604,"6138":7605,"6186":7606,"6306":7607,"6102000":7608,"6565":7609,"712":7610,"7200":7611,"730":7612,"727":7613,"736":7614,"735":7615,"740":7616,"726":7617,"798":7618,"748":7619,"706":7620,"737":7621,"734":7622,"770":7623,"746":7624,"788":7625,"738":7626,"70000":7627,"7404":7628,"7408":7629,"7644":7630,"7400000":7631,"820":7632,"812":7633,"815":7634,"816":7635,"818":7636,"813":7637,"814":7638,"860":7639,"821":7640,"850":7641,"835":7642,"845":7643,"829":7644,"865":7645,"890":7646,"855":7647,"851":7648,"885":7649,"841":7650,"878":7651,"892":7652,"862":7653,"867":7654,"873":7655,"8126":7656,"8133":7657,"8224":7658,"8565":7659,"930":7660,"921":7661,"936":7662,"928":7663,"956":7664,"926":7665,"903":7666,"904":7667,"948":7668,"9120":7669,"9000":7670,"942":7671,"951":7672,"946":7673,"938":7674,"9300":7675,"90000":7676,"9187":7677,"91800":7678,":}":7679,":_{":7680,":((":7681,";,":7682,";/":7683,";{\\":7684,";}\\":7685,";;^{":7686,";..{.":7687,"<}":7688,"=}(\\":7689,"?\\":7690,"?}":7691,"@)":7692,"@@":7693,"AR":7694,"AU":7695,"AY":7696,"Ab":7697,"Ad":7698,"Ai":7699,"Ap":7700,"At":7701,"Axy":7702,"AAD":7703,"AOA":7704,"AvÃł":7705,"ASC":7706,"Akhi":7707,"AXE":7708,"BU":7709,"BX":7710,"Bt":7711,"Bz":7712,"Bcos":7713,"Bxy":7714,"BNO":7715,"BIB":7716,"BGA":7717,"BPQ":7718,"BGD":7719,"BSC":7720,"BGM":7721,"BPM":7722,"BJA":7723,"BÃ¬nh":7724,"BÃĢ":7725,"CY":7726,"Ce":7727,"Cs":7728,"CNO":7729,"CCM":7730,"Cox":7731,"CGA":7732,"CCHO":7733,"CIM":7734,"CSA":7735,"CnH":7736,"CSi":7737,"Chi":7738,"CÃ´":7739,"CSB":7740,"CÃ´ng":7741,"CPM":7742,"CCHCH":7743,"CQP":7744,"CQM":7745,"CxH":7746,"CdO":7747,"CÃ²nl":7748,"Cacbon":7749,"Ctháº³nghÃłng":7750,"CchÃŃnh":7751,"Cáº£mÆ¡nnhiá»ģu":7752,"DR":7753,"DS":7754,"DY":7755,"Dx":7756,"DOH":7757,"Dot":7758,"Dpcm":7759,"DPT":7760,"DIH":7761,"DOF":7762,"DPC":7763,"DPM":7764,"DPN":7765,"DQM":7766,"DddH":7767,"DJB":7768,"DTE":7769,"Dáº¥u":7770,"DXF":7771,"Dlá»Ĺi":7772,"EE":7773,"ET":7774,"Ea":7775,"Eb":7776,"Et":7777,"Etan":7778,"EMI":7779,"EMD":7780,"EGC":7781,"ENC":7782,"ESB":7783,"EHK":7784,"EKI":7785,"EPA":7786,"EKM":7787,"EOQ":7788,"EJB":7789,"Etil":7790,"Esaocho":7791,"EacO":7792,"EAgBr":7793,"FP":7794,"FR":7795,"FX":7796,"Ft":7797,"FCl":7798,"FMB":7799,"FMA":7800,"FOC":7801,"FMC":7802,"FBE":7803,"FAI":7804,"FDB":7805,"FIB":7806,"FOM":7807,"FEB":7808,"FAG":7809,"FCK":7810,"FHD":7811,"FDK":7812,"FHA":7813,"FBO":7814,"FIK":7815,"FMG":7816,"FNB":7817,"FNA":7818,"FAQ":7819,"FDO":7820,"FKI":7821,"FMQ":7822,"FOK":7823,"FOHB":7824,"FXD":7825,"GJ":7826,"Ga":7827,"Ge":7828,"Gh":7829,"Gi":7830,"GCO":7831,"GBC":7832,"GAH":7833,"GCA":7834,"Gpt":7835,"GBE":7836,"GDE":7837,"GIB":7838,"GDM":7839,"GHF":7840,"GDF":7841,"GOF":7842,"GKB":7843,"GÃ³c":7844,"GTN":7845,"HT":7846,"HOH":7847,"Hpt":7848,"HOA":7849,"HIB":7850,"HMD":7851,"HvÃł":7852,"HNC":7853,"HGB":7854,"HMP":7855,"HMO":7856,"HIJ":7857,"HPC":7858,"HQC":7859,"HQM":7860,"Hco":7861,"HJA":7862,"Hso":7863,"HÃ£":7864,"IR":7865,"IZ":7866,"Ix":7867,"ICl":7868,"IMA":7869,"IAN":7870,"IHO":7871,"IHD":7872,"IHA":7873,"IFC":7874,"IOP":7875,"IFB":7876,"IPA":7877,"IABK":7878,"IQA":7879,"IHCE":7880,"IVN":7881,"JG":7882,"JI":7883,"JNO":7884,"JCD":7885,"JABC":7886,"JMN":7887,"JIA":7888,"JEF":7889,"JBK":7890,"JMO":7891,"JIK":7892,"JFC":7893,"JKI":7894,"JFB":7895,"JKN":7896,"JPG":7897,"JIL":7898,"KT":7899,"Kb":7900,"Kc":7901,"Kh":7902,"Kk":7903,"Km":7904,"KDE":7905,"KAF":7906,"KIA":7907,"KAO":7908,"KED":7909,"KBF":7910,"KDH":7911,"KID":7912,"KHO":7913,"KOI":7914,"KIE":7915,"KAA":7916,"KOF":7917,"KCrO":7918,"KNA":7919,"KEH":7920,"KDI":7921,"Káº¿":7922,"KPC":7923,"KMgCl":7924,"KQC":7925,"KOQ":7926,"KPF":7927,"KQO":7928,"KhÃ´ng":7929,"KST":7930,"LE":7931,"LH":7932,"LJ":7933,"LR":7934,"La":7935,"Lx":7936,"Lin":7937,"LCH":7938,"LAC":7939,"LNC":7940,"LEA":7941,"LCI":7942,"LOE":7943,"LKH":7944,"LÄĲ":7945,"Láº¥y":7946,"MR":7947,"MY":7948,"MZ":7949,"Mc":7950,"My":7951,"MÃ":7952,"MABC":7953,"MPO":7954,"MACB":7955,"MHNO":7956,"MNaCl":7957,"MSC":7958,"Mkhi":7959,"Mchung":7960,"MJC":7961,"MÃ¬nh":7962,"MJB":7963,"MJK":7964,"Mkc":7965,"Mva":7966,"Msaocho":7967,"MÃŃn":7968,"Mtháº³nghÃłng":7969,"MLQ":7970,"MRK":7971,"MhhY":7972,"MlÃłtrungÄĳiá»ĥm":7973,"NL":7974,"NS":7975,"Nh":7976,"No":7977,"Nx":7978,"NCl":7979,"NAD":7980,"NBD":7981,"NBA":7982,"NAN":7983,"NAI":7984,"NIB":7985,"NBr":7986,"NIC":7987,"Nilon":7988,"NMD":7989,"NBK":7990,"NBI":7991,"NED":7992,"NME":7993,"NDK":7994,"NDF":7995,"NIH":7996,"NFE":7997,"NFC":7998,"NKB":7999},"merges":["Ġ +","Ġ \\","Ġ =","^ {","č Ċ","Ġ -","a c","r ac","} {","f rac","r r","i g","h t","ig ht","Ġ 1","_ {","o w","a rr","arr ow","ight arrow","Ġ 2","r t","q rt","s qrt","} }","Ġ 3","v e","o ve","Ġ (","rr ightarrow","ove rrightarrow","Ġ x","Ġ 0","r ightarrow","} )","h a","Ġ 4","f t","e ft","d e","ha t","i de","w ide","wide hat","e q","R ightarrow","Ġ b",") ^{","Ġ y","eft rightarrow","L eftrightarrow","Ġ c","i n","} }{","Ġ a",". .","Ġ 5","Ġ >",") (","Ġ m","} (","A B","o s","g eq",") _{","s in","{ \\","1 0","2 0","Ġ 6","b rac","brac k","} \\","C H","Ġ <","Ġ 9","} .","l eq","( \\","A C","l eft","r ight","C O","}{ \\","i m","O H","o t","im e","Ġ 8","c os","p r","t a","Ġ 7","Ġ n","pr ime","} ^{","a b","}) ^{","o l","{ (","B C","d ot","p i","} ,","Ġ1 0","Ġ( \\","l brack","Ġ A","r brack","Ġ z","1 2","x y","Ġ2 0",") }",".. .","Ġc os","}) _{","{ -","Ġ C","e l","F e","m ol","1 5","D el","Del ta","1 6","; \\","C l","Ġ H","Ġ sin","S O","r c","^{ \\","Ġ ...","c i","Ġ t","ci rc","N O","Ġ1 2","] {","1 1","10 0","N a","Ġ B","A D",". \\",") \\","a l","1 8","n g","dot s","}. \\","2 5","0 0","1 3","v dots","Ġ CH","Ġ9 0",") }{","Ġ1 8","Ġ1 6","ove r","1 9",". (","Ġ M","A M","}, \\","N H","Ġ k","sin x","20 0","A H","} ;","Ġa b","c dot","cos x",", \\","1 4","1 7","p ha","^{ +","ta n","al pha","} |","}{ (","Ġ d","9 9","}} }","Ġx y","e t","Ġ |","B D","A E","Ġ O","A l","Ġ AB",".. ..","}}{ \\","s et","^{ -","} ;\\","2 2","}( \\","Ġ1 5","}) (","ng l","Ġ1 1","a ngl","Ġb c","angl e","Ġ f","C D","C u","n eq","Ġ1 4","CO O","ab c","_{ (","over set","2 4","D C","Ġ18 0",") .","Ġ AC","CO OH","Ġ2 5","Ġcos x","3 0","M B","Ġm ol","C B","AB C","b c","Ġ1 3","6 0",")( \\","Ġ+ }","c m","2 1","m a",": \\","M A","l in","over lin","overlin e","Ġ2 4","7 5","O C","M C","Ġsin x","a r","O B","Ġ D","Ġ6 0","| \\","2 3","s u","2 7","Ġ S","}} )","B A","B H","C a","Ġ čĊ","Ġ BC","Ġ3 0","Ġ N","Na OH","su m","0 5","al l","C A","M N","Ġ p","{ (\\","Ġ P","5 0","3 6","á »","Ġ tan","Ġc a","Ġ g","t h","M g","o ng","p t","u p","Ġ Fe","3 5","t r","4 0","B a","3 2","Ġ E","O A","á º","Ġ I","A g","Ġ10 0","H Cl","m x","L ong","Long rightarrow","\\ }","B E","B M","i v","Ġ K","}) }","A N","4 5","}{ .","3 3","A I","2 8","Ġ1 7","H C","l o","b ig","tr i","angle up","big tri","bigtri angleup","Ġ3 6","Ġ| \\","ma th","b b","p m","ĠA H","t ime","time s","^{+ }","20 18","Ġ4 0",") ;","Ġ1 9","o r","math bb","0 2","\\ {","u iv","eq uiv","Ġ2 7","}}{ (","Z n","}. (","20 19","D E","b ar","Ġ4 5","a x","Ġ ....","H CO","}} }{","A K","6 4","5 6","}^{ -",", (","Ġ ac","}) \\","Ä ĳ","Ġ {","Ġ CO","Ġy z","ft y","in fty","20 17","}} \\","10 1","Ġ20 0","Ġ- }","A F","4 4",") .(","( (","2 9","D B","I B","s im","I A","Ġ V","b ot","o d","2 6","y z","n de","/ /","B r","8 0","A O","Ġ R","_{ \\","f or","B AC","ĠA D","for all","}, (","u nde","unde r","Ġ3 2","18 0",") ,\\","Ġ2 8","4 9","Ġm x",") :","I C","} :","C r","Ġ2 1","P O","Ġ5 0","Ã ł","M I","Ġ OH","Ġa x","^{- }","a m","i lo","p s","ilo n","0 3","9 8","C M","e ps","eps ilon","ĠC u","C E","o x","0 4","0 1","AC B","E C","xy z","c a","20 16","}) }{","4 8",")}{ (","M D","\\ %","6 5","E F","ĠA l","3 1","O M","}} (","ĠB H","9 0","D A","m od","Ġ F","20 13","p ar","all el","par allel","Ġ NH","H NO",")^{ -","Ġc ot",") }{\\","n O","20 15","O D","Ġ Na","e x","a p","Ġ3 5","H B","ĠB D","Ġab c","0 6","20 20","9 6","h o","}) (\\","C N","COO CH","B K","20 12","pr ox","ap prox","0 8","Ġ ..","7 2","Ġ COOH","Ġ6 4","}^{- }","Ġ1 20","Ġ20 18","ĠC a","}} .\\","}} ,\\","ĠA M","l eftrightarrow","Ġ Z","3 7","B I","Ġ2 3",". (\\","} :\\","Ġz x","20 10","C F","}{ -","tan x","1 20","under set","E B","}} ^{","E D","G A","c ot",") }}","] {\\","20 14","Fe Cl","Ġ2 6","12 5","M H","ĠC D",") .\\","] {(","Ġ G","d d","CH O","ĠB a","p cm","ĠAB C","} /",") )","Ġ v","20 11","}. (\\","I M","a d","5 5","â Ģ","20 00","Ġt ex","B N","ĠA E","( )_{","Ġ4 9","Ġ2 2","áº ·","3 4","}} )^{","âĢ ĵ","3 9","A G","c h","Ġ20 20","B F","COO Na","200 9","M nO","O y","Ġ q","Ġ8 0","* \\","D H","Ġ20 17",") ;\\","O N","Ġ NO","a n","ho áº·",") )^{","G C","Ġb x",".... ....","v Ãł","00 0",") ,","Ġ X","Ġ20 19","7 0","}^{ +","* )","4 2","Ġ20 15","200 5","I D","COO C","N C","V T","200 4","5 1","}{ (\\","G B","5 4","H O","Ġ20 16","8 1","100 0","Ca CO","{ +","hoáº· c","D M","E A","Ag NO","x z","AB D","| }","4 6","9 5","M K",")^{ \\","9 7","B AD","Ġ e","8 5","brac e","q u","Ġx z","m in","Ġ4 8","qu ad","ve e","ĠH C","Na Cl","); (","4 3","200 8","4 1","O I","Ã ³","Ġ3 1","Ġ20 14","8 8","B T","ĠC l","ĠB E","^{+ }\\","7 7","m s","K OH","Ġ NaOH","Ġ2 9","5 2","^{+ }}","M P","S in","z x","11 1","8 4","M O","C K","Ġ20 13","200 3","M E","i t","} âĢĵ","Ġ DC","}} }}","Ġ7 5","C I","H E","{ .","Ġ3 3","áº ¡","H D","Ġ4 2","AD B","Ġtan x","7 8","Ġ7 2","ĠO A",") ,(","6 6","Ġ Q","200 7","ĠH Cl","A OB","O E","Cu O","under brace","D N","}} .","}) .","Ġ5 6","ĠD E","K H","^{ {","}) :","Ġ7 0","Ġ20 12","sinx cosx","H F","P T","{ }","Ġ SO","Ġ+ },","16 0","200 6","7 1","K MnO","Ġ+ }}","ĠM N","Ġg am","6 3","7 6","D K","n h","Æ ¯","Ġ( (","}} }{\\","}} ;\\","}) .(","ĠA N","Cu SO","Ġ }","H A","Ã ¬",".. ...","0 25","B O","20 21","ĠA I","19 99","200 1","A P","e ta","g am","10 2","Al O","D F","O t","Ġ\\ {","ĠA g","ĠB M","! }","Ġ8 1","lo g","0 9","5 7","l dots","Ġ20 10","ĠM g","Ġ.. ...","}) )^{","AD C","P Q","e n","Ġ )","Ġ3 7","Ġ20 11","S A","Ġ3 4","^{- }}","B OC","K Cl","x cos","ĠA K","AM B","Ġxy z","á» ĳ","n H","Ġ3 9","ĠM C","; (","P i","}) .\\","ĠA F","200 2","}| .","Al Cl","M F","Ġ r","Ġ10 00","3 8","7 9","I E","g t","Ġ5 4","Äĳ pcm","D AC","S i","ĠH B","ĠO B","6 1","I K","P b","hoáº·c x","' '","4 00","B AM","Ġ Zn","AD E","AB M","ĠC K","0 75","A A","G D","x Oy","} *","})^{ -","I N","h i","Ã ´","}( (","ĠC E","/ (","9 2","H SO","K C","Ġ u","}} _{","dot eq","Fe O","Fe S","33 3","5 9","I H","t ht","Ġ Æ¯","ma tht","Ba CO","matht t","3 00","5 8","6 2","D AB","b eta","{ |","Na HCO","0 7","6 8","b d","Ġ s","AC D","O F","Ġ4 4","Fe SO","15 0","Ġ15 0","B AH","Ġ5 5","D AE","M AB","h h","}{ |","Ġ1 99",")^{ +","AB CD","^{+ },","^{- }\\","M G","N CH","l im","}}{ (\\","Ġ9 9","( |","A OC","S C","d pcm","Ġ T","Ġ3 60","BC A","ĠH NO","ĠM B","F E","O z","Ġ- }}","cm t","Äĳ á»","Cr O","0 15","7 4","9 1","S B","l n","F C","c up","}} ;","sin A","pr od","3 60","5 3","6 7","8 9","O OC","[ ]{","l y","Æ °","Ġ COO","99 99","AE D",": (","C os","N B","N P","Ġ h","10 8","G M","H K","H COOCH","m n","Ġ16 0","Ba SO","Ġcot x","8 6","M n","c dots","Ġ9 6","Ġ20 21","ĠO C","Mg O","}|. |\\","M AC","N A","p u","Ã ¡","_{ -","sin B","sin a","ma x","A Q","... \\",")}{ (\\","Ca O","áº¡ i","6 9","7 3","B G","N M","u ng","x t","Ġ+ },(","Ġb y","}, (\\","ĠO M","Si O","K B","AB H","Ġ9 8","ĠM A","3 75","E H","I J","Ġ12 5","AM N","2 25","D O","}^{ {","Ġ10 5","... (","ĠC M","Na NO","HO OC","E M","in t","Ġ6 5","Ġ7 8","ĠC A","99 9","abc d","Ġ200 9","ĠV P",") :\\","C AD","K L","r a","Ġ :\\","Ġc x","ĠD H","( *)",") |","C AB","M BC","N T","c d","m l","Ġ )_{","Ġ+ },\\","Ġ14 4","D I","H M","Ã ¢","Ġ {\\","Ġ3 8","}) }{\\","left arrow","cos a","ĠM E","ĠE F","}^{+ }","D BC","O AB","c ol","Ġ4 7","ĠC F","00 00","ĠE C","ĠI A","ĠCa CO","5 00","d iv","| ^{","}} (\\","AB E","Ġ8 4","Ġn H","Ġ10 8","}; (","AE F","á» Ľ","áº ¿","ĠNa Cl","H AB","V P","n CO","| }{","Ġ Y","Ġ5 8","14 4","ĠI M",") }.\\","B AE","K I","O x","k m","}} )(","Ġ4 3","Ġ4 6","Ġ5 2","ĠH D",")^{- }","H COO","c t","Ġ( (\\","}) :\\","Ġ6 3","ĠC os","ĠM H","AM C","8 3","9 4","M Q","P C","b x","b ac","d x","l u","p H","s á»ĳ","sin C","10 3","Ġ20 05","})_{ (","BD C",") *\\","1 12","H AC","b a","{ |\\","| )","| }{\\","}^{ *","Ġ20 00","AE B","Ġ14 0","Mg Cl","an col","})^{- }","Ã´ ng","( (\\","4 7","9 3","O P","a s","p h","Ġ l","Ġ6 6","cos B","Ġn CO","Na AlO","AH C","). (\\","Ag Cl","Ä ĥ","AC E","ĠA r","ĠB K","27 3","ĠV T","A CH","E AB","F B","K A","s l","Ġm a","Ġ6 2","12 1","12 8","ĠC r","ĠM D","ĠAB D","Ġ200 7","L N","N i","O K","P D","c Ã³","Ã Ń","Ġ3 00","Cu Cl","Ġ13 5","cot x","}/ (","F D","H COOH","P A","g i","k g","Ġ+ }\\","}) )","Ġ4 1","AC M","Ġ10 1","}| }","ĠD B","ĠN C","Ġg n","E I","l Ãł","p q","}) }{(",") /","1 10","B B","C AM","H PO","K D","P B","P M","a u","t ex","Ä Ĳ","Ġ\\ %","}) .(\\","ĠCH O","^{- },","Ġ.... ..","Ġ200 4",")^{- }}","bac k",") }\\","n t","t g","}}{ -","Ġa d","ĠB I","19 7","^{+ },\\","}| \\","Äĥ n",") })","0 45","E G","K NO","c x","c ho","e d","{ _{","Ã ª","}) ;","Ġ5 1","Ġ7 6","ĠC I","ĠH M","ĠH CO","ĠCH Cl","19 98","Ġsinx cosx","ĠD F","AO D","as h","sl ash","back slash","C C","H I","O G","t e","Ġ log","Ġ1 12","ĠC N","ĠFe Cl","ĠI B","ĠI C","AI B","DE C","8 2","C BD","C LN","D G","H COOC","S I","v Ã¬","Æ ¡","Ġ- },","Ġ1 10","Ġ( *)","ha y","10 5","})^{ +","ĠB A","ĠD M","Ca Cl","): (","( ))^{","; (\\","H CHO","O m","a y","d u","m i","} *\\","Ġ7 1","16 2","13 0","ĠM n","17 5","BD A","AE C","_{( }","ĠK C","........ ........","C G","E AC","G ly","H g","s Äĳ","ig ma","Ġ4 00",")( (","Ġm ax","}( ))^{","CH CH","Ġ7 4","BC D","100 9","AH B","ĠO y","DC B","áº Ń","KCl O","A S","Q C","u y","v á»Ľ","} ...\\","Ġ- }\\","Ġm in","cos A","}^{ \\","12 3","ĠB F","ĠM I","ĠO D","CB A","Ba Cl","Ġ200 3","Ġ200 8","am in","ca p","ĠG ly","an k","}^{+ }\\","Ã³ c","Ã¡ c",") }}{","B P","C T","E N","H N","O Na","i a","i á»","k h","k hi","m e","Ġ U","Ġ COONa","}} :\\","Ġ6 8","ĠH E","ĠH K","AD M","19 96","ĠO I","AI C","ĠBa SO","}^{+ }}","gam ma","9 65","C P","E BC","K N","{ {","Ġ ,\\","^{ (","Ġ8 8","Ġ20 22","ĠC B","ĠB N","13 5","24 0","ĠS in","ĠE D","Ġ200 1","AF E","AO M","BT NT",")^{+ }","* *)","6 25","D BA","F A","G E","O BC","S igma","c b","c Ã¢","i l","y Ot","Ã º","Ġ L","Ġ5 9","... )","ĠM K","ĠAB M","COO NH","BE C","ĠK OH","Zn O","ĠCu O","* (","/ \\","8 7","B IC","H BC","I BC","K M","M AD","O AC","Q P","c g","t u","Ġ ?","^{ *","Ġ6 7","})^{ \\","Ġcos a","AM H","ĠAB H","MA N","ĠD A","BH C","á» §","á» ©","ax it","}^{- },","Ġ200 6","ox it","BT KL","mi d","965 00",") }(\\",") ...(",": (\\","D AH","E AD","} ...","}} }}}","}) }}","Ġ5 7","AB O","cos C","12 6","12 7","ng uy","NH CH","ĠO N","DC A","Ġp t","ĠP b","Mg CO","ĠE B","Zn Cl","Ġ.... ...","Ġ.... ....","}^{- }}","Cr Cl","8 00","D AM","E K","O Q","c á»§","k x","Ġ Äĳpcm","Ġ1 11","Ġ2 25","}} ,","Ġ5 3","AB N","20 22","Ġ6 1","Ġ8 2","Ġ8 5","{( (","ĠA P","Ġ12 1","ĠB r","Ġk x","14 0","abc de","ĠAC B","lo áº¡i","ĠBa CO","ĠAg NO","Ġs Äĳ","áº¿ t","Ãª n","0 35","2 16","E BD","E DC","I I","N I","O n","R T","T M","m u","o i","Ġ( |","}) ,\\","Ġb d","Ġc m","Ġa rc","CO D","ĠH N","13 4","ĠM nO","22 2","ĠI K","BE D","ĠAH B","BF C","}): (\\","7 00","C AH","E CB","F H","H S","K E","K AC","M in","M AH","a su","s au","ac Ã³","Ġ1 30","}} })","}} .(\\","Ġc d","Ġa y","AC K","ĠA DE","Na HSO","Ġ16 2","over brace","19 9","ĠO K","MB A","Ġp H","ĠE H","BM D","ĠK B","AN M","}^{- }\\","Æ° Æ¡","Æ°Æ¡ ng","1 15","; ^{","B Q","H AD","N D","P N","e arrow","k t","n C","r ed","Ã ©","Ġ+ };","^{ ^{","Ġx CO","}) ,","10 10","20 1","Ġ9 5","Ġ20 02","Fe CO","100 6","25 6","13 3","ĠM F","}; (\\","14 3","}| )^{","Al a","ĠD K","BA I","ĠI E","BE F","ĠAl a","Ġv c","KH SO","_{- }^{+}\\","}^{* }","me asu","red angle","measu redangle","B MA","B MC","B OD","C AE","G H","I F","I O","S M","^ \\","x sin","x Ot","{ ^\\","| .","Ġ COOCH","Ġm n","}( )_{","10 6","CH OH","Ġ9 7","Ġ9 99","AC I","Ġ10 6","Ġ12 3","00 5","Ġ16 9","19 90","ĠM O","BD E","CD A","MC A","ĠD I","CA N","Mg SO","}: (","ĠF C","min y","8 75","D P","Q M","T N","a a","h e","k a","m t","s ta","t b","u v","y Oz","Ġ }\\","}{ |\\","Ġ3 333","AB K","10 4","20 2","Ġ6 00","Ġ7 9","Ġ10 2","ĠH A","ĠH O","100 7","00 8","13 6","19 91","14 9","BD M","ĠO E","CB F","ĠS i","}}) :\\","tr ong","áº £","áº ¥","áº §","AN B","AK B","ĠCu SO","Äĳá» Ļ","Æ° á»","vá»Ľ i","sta r",") !",") }(","C h","H Br","I G","I P","I CB","L i","M CB","M OC","N K","e s","f ra","n CH","s d","u Ã´ng","{ ...","} ....","Ġ+ }}{","}} )}","Ġc b","Ġc Äĥn","Ġ8 9","Ġ7 7","{( }","BC E","BC N","})_{ \\","Ġ12 8","]{ (\\","100 8","AD H","19 2","AH M","AE H","22 4","CD E","Ġ24 0","ĠD N","BA K","BA O","Ca SO","ĠP Q","math fra","Ġ27 3","DE F","dd H","BN M","|}{ |\\","ÃŃ nh","áºŃ y","mathfra k",") /(","C Q","E O","E BA","G I","G K","I AB","O AM","k k","n s","x cosx","| )^{","ĵ ng","Ġ1 17","}} }\\","}} .(","Ġb a","Ġ6 25","AC O","ĠC P","100 00","ĠB AC","25 0","19 6","ĠM P","AM O","AH E","24 3","ĠN Q","ĠN e","ĠE G","44 4","Ġcot g","Ã´ n","0 23","2 99","6 00","B OA","E CD","K F","O CB","P t","R COOH","T H","Z E","b k","d m","g ra","g Ã³c","n p","n x","n ot","x Oz","z Ot","Ã ¹","}} )(\\","Ġc h","}}{ {","Ġ5 12","AC N","CO CH","ĠH F","Ġsin a","Ġ12 6","14 2","Ġd pcm","ĠO P","CD B","ĠAC M","ma xy","ĠN A","Ġp q","á» ĭ","ĠFe O","ĠE I","ĠI H","ĠI N","BM E","Ġ27 0","Ġ.... ........",")^{- }\\","Ġabc d","ĠG M","ch ung","BT E","}): (","á»ĳ i","Äĳá» ĵng","OOC CH","lu Ã´n","gra ve","( **)",", (\\","3 000","4 000","6 76","E AM","H AE","J C","K AB","M CD","M DC","M OB","M ax","M HB","P H","S D","a O","c o","n Fe","n NO","t m","x C","} .....","}) ;\\","Ġc z","Ġm l","}\\ }","ab x","ĠA MB","Ġcos C","Cl O","Na Br","ĠCH CH","AH D","tan C","22 22","Ġ25 6","CB H","á» Ļ","th Ã¬","AI K","\\% }{","BK C","08 2","ĠCa O","EB F","Ġv Ãł","BO K","en z","ln x","Mn SO","}^{* })","ank en","Ãº ng","cg v","mu oi","es te",") //","2 60","A L","E MC","G F","G X","H AM","H CA","I BA","K HCO","N Q","N AC","O O","] {-","c ung","d h","d t","h áº¿t","k b","t á»","u ch","x A","± ng","ac os","Ġ1 16","}) ;(","{( (\\","BC F","BC K","ĠA O","16 9","Ġ... \\","11 11","100 5","AD O","25 00","00 1","pha n","tan B","ĠO x","ĠO z",".... ...","Ġ15 77","DC E","Ġ13 6","Ġ+} /","MA O","BA x","BH A","50 1","á» ĩ","ĠE K","ĠK H","45 6","ĠF B","ch ia","vÃł x","ms t","tg pu","nguy en","cá»§ a",") *","3 15","7 29","A T","D MB","G N","H e","J A","K BC","K CB","M S","N E","S N","b y","g lu","s a","s o","v ar","x Fe","z Oy","| ;","Ġ J","Ġb n","}}{ |\\","Ġ5 00","Ġm t","Ġm y","Ġm sin","sin t","Ġ9 2","AC F","}, ...","ĠA EF","ĠC C","100 1","AM D","}| }{|\\","BD F","AE M","^{- }}}{","CB M","Ġ13 2","}}) .\\","ĠFe SO","ĠE A","ĠE M","áº ±ng","ĠI D","BE A","ĠK M","AI E","DE A","Äĳ Ãºng","29 6","AO E","03 75","CE D","Ġcot C","66 6","Æ¯ CLN","Ã¬ nh","'' (","'' _{","Ġ199 5","uch y","chia háº¿t",") }.",". }","2 10","4 99","9 00","B CH","B OI","C MA","D OC","D BE","D AK","G O","I MC","M ON","N BC","O CD","P E","\\ };\\","a rc","c y","i c","n earrow","u te","x a","x AB","z o","Ġ i","ac ute","Ġ2 16","}} }}{","Ġ( ...","Ġm sinx","10 7","Ġ6 9","BC M","Ġ10 10","ĠA MC","... }","ĠH Br","Ġ12 4","18 5","Ġ18 9","19 95","AH F","Ġd x","BD H",".... ..","24 5","ĠAC D","Ġ25 0","MB N","60 5","Ġ24 3","}}) :(\\","Ca uchy","ĠN B","CA K","BE M","ĠK N","AK D","\\% }","mod p","ĠCa Cl","ĠBa Cl","BF E","min u","NaCl O","ĠMg Cl","hi á»ĩ","NT K","á»© ng","Ã© t","Æ°á» Ŀ","\\};\\ {","! }{",") ...","3 44","4 36","5 25","6 75","A x","B MN","D Q","D AN","D HC","E AN","E AF","F I","F M","G G","H BA","H AK","H COONa","K AE","M CO","O S","R COO","c Äĥn","c Ã¹","d k","o n","p hi","s m","s p","t Oy","t Ot","t Oz","v uÃ´ng","x x","x sinx","y x","Ã £","ģ u","Ġ+ ^{","}} :","}} |","}} }.\\","Ġ3 20","}) ...(","AB F","AB I","Ġ9 1","OH C","Ġ8 00","Ġ7 3","Ġ7 50","Ġn e","Ġn x","BC I","ĠA A","ĠA G",")} :\\","})_{ (\\","ĠC AB","15 5","ĠB B","ĠB AD","AD F","18 7","00 3","ĠCH OH","ĠCH Br","19 5","19 80","19 86","14 7","ĠO OC","Ġbc x","Cu S","Ġ14 3","Ġ14 7","COO K","DC M","ĠAC E","30 1","ĠD O","BA F","ĠN i","CA F","MN P","ĠP T","á» ĥ","th eta","Ba O","ĠK D","ĠK Cl","DE B","Äĳ á»ĳi","AF D","CM D","xyz t","BI D","cot B","DH A","97 97","áº¡ ng","Ġ199 2","9999 999","375 9","HCOO NH","iá» ĥ","not in","nguyen tu",") {.","* *","0 65","3 99","6 72","B S","B OM","E AH","E BM","F BC","G T","H Q","I AC","I AD","I DC","J B","M BD","O DC","P d","Q A","b ox","c u","d p","f lo","l ÃŃ","m sin","m dd","n a","n Al","n Ãªn","y s","y Ox","y Om","| (","Ġ {(","^{ _{","}{ }","Ġ3 99","Ġ3 000","Ġ( {","Ġx t","}) }\\","Ġc y","AB P","CH A","Ġ9 4","Ġ10 4","Ġ10 000","ĠA Q","ĠA DC","ĠC AD","15 8","Cl H","Ġsin B","ĠB O","ĠB Q","ĠB IC","25 5","13 2",")}{ -","19 8","19 75","19 85","ĠM in","AM E","AM I","AM K","NH C","}; ...","14 5","ĠO F","ĠAB E","set minu","^{- },\\","CD M","30 7","30 8","MA I","MC N","OB A","23 3","ĠS I","BA N","all setminu","CA I","CA x","á» į","á» ı","ĠK A","ĠK I","AN C","AI D","28 9","Ġ40 36","Ġ19 2","Zn SO","AK C","AK M","// //","ĠAD M","CE A","MD A","EF D","ĠG n","BN C","ch á»","an d","ĠZn Cl","AQ P","})^{+ }","kh Ã´ng","^{* }","chiaháº¿t cho","Æ°á»Ŀ ng","436 2","sm allsetminu","box ed","flo or","smallsetminu s",") }^{",") ...\\",", ...","0 12","0 16","0 24","1 200","4 20","4 50","4 35","5 12","5 13","6 605","8 96","; ...","A J","C MN","D CH","D OB","E CA","F AE","H G","H P","I S","I AM","M X","M OA","N AB","O CH","P F","T Ã¬","[ ]{\\","b áº±ng","m gi","n ha","n SO","t in","t il","t acÃ³","x H","x i","x OB","x Om","y ra","| }{|","Ġ o","Ġ }(","Ġ or","Ġ ln","Ġ= ^{","ac b","Ġ1 75","Ġx H","Ġx x","Ġa k",".. {.",")( ...)","10 9","CH K","Ġ9 00","CO B","Ġ8 7","Ġn C","Ġ10 7","ĠA HC","ĠA DB","ĠC Cl","15 00","Ġt h","11 9","Na H","ĠB P","18 75","00 2","00 6","00 75","13 8","Ġ18 8","AH N","17 0","et e","ĠO t","ĠAB I","24 2","30 2","CB N","OC A","BH D","BH E","05 0","MN B","MN C","th á»©","ĠE N","ĠI F","ĠI O","BE H","BM I","ĠK P","Ġ19 8","44 1","ĠV al","80 8","AO N","}: (\\","MD I","\\% .","\\% \\","CN M","ĠAM H","ĠG B","Sin x","áº¡ n","Ġ199 7","ÄĲ K","ĠMn SO","Ġarc sin","BCN N","luÃ´n ÄĳÃºng","enz en",")// (","cy c","hiá»ĩ m","thá»© c","% )",") !}","0 125","3 24","3 84","4 25","? ?","B GC","C Cl","D IC","D IM","E OB","E AI","E DA","F G","H CB","H OC","H AN","I Q","K DC","M M","M OH","M Cl","P G","Q N","Q R","S K","T B","T E","b O","c ba","d O","d o","d áº¡ng","e il","m O","n N","n l","n y","n HCl","o pt","r ong","t x","x f","x On","y l","| .\\","Ġ .","Ġ\\ {\\","}{ {\\","ht he","Ġ1 18","_{ (\\","}} })^{","}} )\\","Ġ3 75","Ġ( |\\","Ġx Fe","}) }.\\","}) }(\\","Ġ4 50","wide til","Ġm g","}( *)","20 3","CH B","CH Cl","CO A","CO M","OH B","Ġ8 3","Ġ10 3","Ġ10 24","ĠA ED","Ġcos B","{- }{","ĠC MK","15 9","ĠH COOH","ĠH BA","Ġsin A","100 4","ĠB G","ĠB EC","ng i","25 7","Ġ18 2","19 97","ĠM AB","AH I","^{+ };","99 26","Ġ15 6","Ġ14 5","DC I","30 9","Ġ13 7","MC K","OB M","}}) .(","CA O","50 4","th u","40 4","áº ¯","Ġ100 8","BM O","ĠK E","AI O","28 0","ĠAH D","Ġ19 6","Ġ19 83","Ġac y","Ġac os","IC K","ĠCu Cl","EC F","})}{ (\\","EF H","ĠAl Cl","ĠF H","Ġcot B","ĠNa NO","BI K","BI M","MH N","ĠG D","}^{+ },","HO CH","77 7","ĠMg O","}* (","})^{- }\\","Ġ199 8","Cos x","nt áº¡i","^{( }","cÃ¢ ntáº¡i","cg c","CHOH CH","áº§ u","Äĳá»ĵng dáº¡ng","}..... \\","widetil de","( .",") }}{\\",") *(","* ...",". ^{","/ (\\","0 22","2 15","3 36","4 12","4 75","7 10","7 65","A n","A r","A u","B L","B ON","C S","C ID","D MA","D BH","E DB","E IB","G Q","H BE","H KC","I DA","J D","K P","K AD","M CH","M HC","M EC","M EF","M EB","M ED","O DB","P I","P S","P V","R Cl","S n","T S","U CLN","X D","X Y","b set","b Ãł","g a","i s","i áº¿","i áº¿t","l it","m H","m Oy","n Na","o c","p V","p x","s earrow","t áº¡i","v áºŃy","x AC","Ã ²","Ġ /","Ġ sqrt","Ġ }}","Ġ pi","Ġ lim","ī nh","Ġ\\ {(","Ġ= _{-}^{+}\\","Ġ- },\\","}{ {","}} }{(","Ġ3 24","}) |","}) }}{","}) ,(","}) //","Ġy H","Ġc p","}}{ .","Ġa z","Ġ5 050","AB G",")_{ (","sin b","Ġ6 50","}. |","AC x","CO NHCH","OH D","Ġ8 6","}^{ }\\","ĠA MN","ĠA EC","ĠA OD","12 2","12 12","Ġcos A","15 2","16 1","16 8","ĠH e","ĠH AB","Ġ12 2","11 4","100 3","ĠB OC","ĠB MC","AD N",")\\ }","al ph","18 00","19 3","ĠM Q","ĠM T","Ġk m","sinx cos","14 6","tan a","Ġd k","99 4","99 5","AE I","ĠO Q","ĠAB O","CD O","Ġ14 9","ĠAC I","MB I","Ġmol n","ĠD P","su yra","su bset","27 2","ĠN F","ĠN K","ĠP B","ĠP C","ĠP D","50 3","á» ¥","Ġtan B","tr á»ĭ","ĠE BD","Ġ100 7","Ġ100 9","ĠK MnO","28 8","HC I","HC M","Ġ40 33","Ġ40 26","); (\\","Ġ27 2","AK E","29 7","DB I","Ġ28 8","EF M","mod m","ĠF D","ĠNa AlO","120 1","cot A","cot g","MH D","ĠG C","34 3","hoáº· ca","DM E","Sin A","MO Q","ĠHCl O","HF E","IN M","Äĳá» īnh","9999 99","Ã¡ trá»ĭ","Ġ)_{ (","Ã¢ ngi","ct u","SI ZE","Æ¡ n","ank an","iá» ģu","kh Ã¡c","khi x","^{* })","|. |\\","áº£ i","}.... \\","á»Ļ c","cÃ¹ ng","Äĳá»ĳi Äĳá»īnh","ĠSI ZE","tin hthe","Ġacos x","alph acos","Ã¢ngi Ã¡c","2 75","3 20","3 16","3 50","; |","B CO","C d","D T","D AF","D MH","E OD","E HB","E OF","F N","F EC","H BD","H MB","H DE","H MK","I BD","I BH","I BM","I AK","K CA","L T","L eft","M T","M SO","M AE","N MC","O BD","O DA","O COCH","Q K","Q AC","R A","S E","T acÃ³","T ÃŃnh","V áºŃy","b u","b enzen","c hat","g o","h c","h it","k et","m Ãł","n b","n Ba","p A","r u","v s","v Ã´","x b","¯ sá»ĳ","Ġ ,","Ġ .\\","Ġ- }.","Ġ1 102","Ġ2 10","Ġ2 32","Ġ2 65","Ġ2 97","}} ...","}} )}{","Ġy B","Ġy x","Ġy CO","}}{ |","Ġm cosx","AB x","10 24","20 4","20 7","CH I","Ġ7 00","Ġn SO","ĠA IB","ĠA OM","Ġ20 2","ĠC BD","ĠC MD","Cl CH","ĠH I","ĠH AC","Na I","ĠB DC","Ġ16 00","19 45","19 92","19 89","ĠM ax","AH O","Ġab y","^{+ }(","^{+ }}\\","^{+ },(","tan A","Ġd a","Ġd b","Ġ| (\\","BD N",".... (","^{- }}{","})( (","Cu FeS","COO R","24 1","24 99","MB O","CB I","Ġ13 3","MA K","Ġ24 2","75 0","OC M","}}) ...(","ĠBC N","Ġ30 21","ĠN D","05 5","MN PQ","ĠP R","36 00","á» ±","á» ģ","Ġg Ã³c","ĠE AB","OA I","ĠI G","Ġ100 6","AN D","33 1","Ġ17 0","ĠAH E","Ġ19 3","or x","DE H","Ġac x","Äĳ Æ°á»Ŀng","AF H","44 8","nde hit","AO I","49 6","49 01","): (\\","Ġ50 4","CM R","CE M","04 8","})}{ -","ĠAl O","ĠF E","ĠF M",")^{- }}}{","ĠNa HCO","37 6","BI H","BI O","ED F","ED H","ĠG N","min f","min o","ĠQ I","DK A","..... (","DF E","Ġs á»ĳ","_{- }^{+}","ph Æ°Æ¡ng","Ġl g",")/ \\","Ãª nt","hay x","................ ........","cÃ¢ n","Æ°Æ¡ng á»©ng","arc sin","lÃŃ t","chá» ¯sá»ĳ","bO c","Left arrow","( *",") )}{",") }}(","1 16","4 40","5 75","5 05","6 70","7 20","7 75","8 64","8 000","; |\\","A OH","B e","B Oy","B OE","C ot","C MB","D AI","D OE","E Q","E MA","E IA","E PD","F AB","G S","H BM","H ED","I AE","I CA","J K","K BD","K HC","K CE","K EC","L ys","M NH","M IB","N G","N MB","N MA","N CA","N BM","O CO","O NO","O AD","O AE","P K","P R","P CB","R OH","X E","X O","Y Z","a h","a i","a t","b z","d v","d Æ°","e m","g v","h b","i ap","k c","l ta","m y","n c","n OH","n Ca","n NaOH","o H","o k","t s","v a","x CO","x BA","y y","y ta","y On","{ {\\","| }}","Ġ ;\\","Ġ /\\","Ġ+ }.","Ġ+ };\\","Ġ2 20","Ġ2 26","Ġ2 90","}} })}","Ġ3 50","Ġ( ....","Ġx A","}) })","Ġ4 41","de lta","Ġb sinx","Ġb cosx","Ġc ung","Ġc gv","Ġ5 40","Ġm H","Ġm cos","}( {\\","AB AC","sin AOB","20 8","CH M","Ġ9 3","(\\ %)","AC P","OH CH","cos t","Ġ7 29","Ġn t","Ġn y","Ġn NO","ab z","BC y","ĠA CH","12 9","Ġ20 1","ĠC BA","Fe Br","15 1","15 3","15 6","16 3","16 5","16 289","ĠH SO","Ġt rong","Ġ12 7","11 3","11 7","Na CrO","ĠB L","ng h","13 7","Ġ16 8","Ġk b","Ġk g","Ġk hi","AH K","17 1","17 7","^{+ }}{","BD K","AE O","ngl Ãł","CD N","Ġ14 6","DC F","ĠAC N","Ġ25 2","Ġ25 9","MB E","CB O","bc a","bc x","Ġ+} :\\","MC E","ĠD Q","23 2","ĠS C","ĠN P","05 2","Ġp x","ĠP I","ĠP O","á» «","Ġtan A","Ġtan C","pt m","ĠI J","ĠI P","HCl O","ĠK NO","})} _{","AI M","28 7","HC E","Ġ.... .....","56 25","Äĳ Ã³","ĠCO NH","DB K","26 5","ĠAD H","PO Q","MI N","Ġax it","am Ã£","98 4","CM E","CM K","CE B","CE F","CE H","ca n","MD K","65 17","EF C","ĠBH A","ĠF A","ĠF I","nO m","OD H","ex is","HB K","CN I","ĠCa SO","BI E",")) )","34 2","BF D","Ġ80 72","an in","hoáº· cm","vÃł b","hoáº·c t","43 75","BT DT","ms n","Sin B","MO x","CK E","ĠDC M","CI N","áº¡ nh","ĠQ C","ĠQ K","ĠQ M","HF C","DK B","..... \\","ĠAI E","ĠAI N","MF C","Pb CO","ĠÆ¯ CLN","Ġs d","Ġ199 9",")^{+ }}",")^{+ },(","FE H","ĠCOO NH","áº¡i cÃ³","Ã¢ n","ph en","Ġma xy","ĠCr O","lÃł m","lÃł t","áºŃ n","123 456","iá» ĩ","cÃ¢ u","tu a","nguy Ãªn","II I","Ġarc cos","áº¥ y","Æ°á» £","aO b",")... (\\","9797 98","iá»ĥ u","á»ı amÃ£","thu á»Ļc","*... *","An k","ket tua","exis ts","! !","! .(","( {","( ...)",") )\\",") }}\\",") }).\\",") .....(","0 13","0 95","2 20","3 35","5 40","6 88","6 71","8 25","A s","B OH","B IA","C L","D MC","D OA","D BM","D IB","D AO","E BH","E MN","E AO","E IC","E HF","F K","F O","F CH","F AD","F DC","F CB","F BA","F DE","F AK","F DA","G P","G lu","H DC","H AF","H NM","I CH","I OB","I MN","I EC","I EA","K BM","K CM","L B","M J","M IA","M Ãł","M OI","N F","N CO","N OH","N AH","N AE","N BH","N MI","N CM","N MH","O T","O MN","O IA","O ID","P AC","P Cl","P CM","Q I","R O","R CO","R COONa","S AB","S ABC","T L","T he","X Ã©t","[ {","a sinx","a tm","a ndehit","b á»ĥ","b áº¡n","b iáº¿t","c O","c eil","c ctu","e tan","e pt","i x","k y","l Ã","l am","l á»Ľ","l áº§","l floor","l ceil","m sinx","n HNO","o cho","p d","p ept","q t","r floor","t t","t ÃŃnh","v Ã´ng","x B","x M","x m","x in","x OA","x ON","y OB","z Om","{ ..","{ ^{\\","| (\\","} ?","} ^","} //","} ........","« }","â ĸ","Ġ w","Ġ ha","Ġ GA","Ġ COOC","ķ ng","Ġ+ }(","^{ âĸ","Ġ- ^{","ig i","Ġ1 15","Ġ1 19","ow n","Ġ2 75","Ġ2 80","}} };","}} }}{\\","}} }(\\","}} *\\","}} |}{|\\","Ġ3 42","}) }}^{","}) /(\\","ha i","Ġ4 224","Ġb k","Ġc ho","in g","Ġa n","Ġm b","Ġm Ãł","}( **)","AB t","Ġ6 61","CH N","CO I","CO NH","pr opt","Ġn O","})^{ {","ol e","ĠA x","ĠA OB","Ġz y","Ġ20 5","Ġ20 8","Ġ20 30","ĠC G","ĠC Q","Fe I","16 6","ĠH G","ĠH Q","Ġsin C","Ġ... (","Ġ... }}}","Ġt x","NO y","11 8","11 111","100 2","100 000","ĠB DE","ĠB MH","AD I","al anin","18 4","00 9","13 13","ĠCH A","Ġ18 162","Ġ16 7","19 0","19 83","ĠM y","ĠM Cl","ĠM ON","ĠM BO","Ġk mol","sinx sin","AH Q","Ġab x","14 8","14 00","17 6","Ġd c","Ġd d","Ġd t","99 3","}}} ;\\","et il","AE P","ĠO AB","ĠAB K",".... .....","^{- }.","CD F","CD K","MB F","CB E","Ġ13 8","OB H","ĠD AB","ĠD HB","ĠD OQ","23 1","23 5","23 41","BH K","BH M","BH N","BH O","Ca C","ĠN I","ĠN M","05 6","Ġp b","ĠP H","ĠP M","ĠP t","ĠP x","36 5","Ġg t","ĠFe S","tr Ã¬nh","40 8","40 26","ĠE CB","OA N","Ġ100 1","Ġ100 2","Ġ100 3","ĠK F","ĠK HSO","lo ai","Ġ36 4","^{+} /","Ġ40 43","Ġ19 85","AK I","Äĳ u","Äĳ iá»ĥ","Äĳ áº§u","ĠCO B","ĠCO D","44 44","26 3","ĠAD N","49 7","MI K","MI O","98 5","CE N","MD H","EF A","mod n","ĠF G","ĠNH CH","ĠNa HSO","ĠBD H","BK E","08 75","ĠAM E","CF D","Ġ26 9","ĠG E","ĠG K","dd HCl","dd HNO","Ġv uÃ´ng","âĢ Ļ","an pha","hoáº·c b","hoáº·c y","DM G","MK H","Ã³ ct","ĠCl O","Sin C","ME O","ME P","}}}} }{\\","78 9","66 7","OE H","PT K","DK C","nh Ã©","DF A","DF C","ĠAg Cl","57 31","ĠZn O","ĠÆ¯ C","bd a","Ġs au","Äĳá» ĥ","67 3","OOC C","Mn Cl","HOOC CH","ph áº£i","sl t","gi Ã¡trá»ĭ","1998 1998","ank in","Ġ........ ..","Ġ........ ...","Ġarc tan","aO c","tá» ±","xA y","var epsilon","var phi","vuÃ´ng gÃ³c","dp nc","Ġo o","iáº¿ p","á»¥ ng","SE R","phen ol","iá»ĥu thá»©c","lÃ ½","lam bda","pept it","vÃ´ng hiá»ĩm","^{âĸ «}","propt o","etil en","! .",") )}",") }}{(",") }.(\\",") âĢĵ",", |\\",". |",". |\\","0 11","0 44","0 96","0 175","1 125","2 17","2 999","4 242","5 88","6 40","7 60","9 12","9 19","9 75","A a","B J","B NH","B JC","C J","C IB","C PQ","D L","D IA","D OM","D HB","E CH","E MB","E HC","E AK","E CM","E MF","E KB","F CD","F BH","F ED","G MN","H MA","H MC","H MN","H IE","I L","I HC","I MD","I HB","I ED","I DH","I NC","K a","K CD","K MB","K OC","K MC","K BA","K AlO","M a","M e","M DE","M HCO","M DB","M OD","M Oy","M EA","N DC","N CB","N EC","N DM","O MA","O IC","O KC","P AM","P MQ","Q B","Q E","Q F","Q O","Q S","Q OC","R Q","R x","R CH","R NH","S G","S H","S LT","T C","T h","V al","X Cl","X ÄĲ","Y ON","\\ }(","a ng","b iá»ĥuthá»©c","c c","c de","d A","d C","f r","g g","g Ã³ct","h Ã¢ngiÃ¡c","k im","k mol","k á»ģ","m A","m m","m CO","n X","n Cl","n Cu","n áº¿","n chá»¯sá»ĳ","o g","o me","p B","t Ox","v á»ĭ","x O","x n","x o","x BC","x mol","x CD","y H","| |","} ]{\\","Ġ ;","Ġ )\\","^{ |","^{ .}","Ġ- }(","Ġ- };","Ġ- },(","Ġ- },(\\","}{ ...}","ig Ã³c","Ġ1 14","Ġ1 111","Ġ2 12","Ġ2 24","}} }}}{","}} |}","}} ...\\","}} ).(\\","}} ..{.","Ġ3 19","Ġ3 45","Ġ( {\\","Ġx B","Ġx Oy","Ġ0 2","de g","Ġy t","Ġc xy","Ġa m","Ġa t","Ġa sinx",")( (\\","Ġm c","Ġm NaOH","}( )","}( (\\","AB Q","{\\ %","20 9","20 25","Ġ6 71","Ġ6 76","CH D","CH Br","Ġ9 80","Ġ9 9999","Ġ9 999","AC y","CO E","CO F","Ġ8 000","cos b","cos e","cos y","Ġ7 20","Ġ7 80","Ġn N","}^{ .}","ab xy","}, ((","Ġ10 80","ĠA EB","12 343","Ġ20 412","ĠC AM","ĠC AH","ĠC MN","ĠC DA","mol n","16 4","ĠH P","ĠH g","ĠH AD","ĠH COOCH","ĠH COONa","ĠH OOC","Ġsin t","Ġt g","Ġt y","11 20","ĠB HC","ĠB MI","ĠB OM","AD K","18 1","18 2","18 6","18 9","ng hiá»ĩm","00 4","00 7","00 000","13 1",")}{ |","Ġ18 1","19 30","19 93","ĠM BD","ĠM CB","ĠM IC","NH B","Ġk a","AH BC","Ġab z","^{+ }}}{","}| (","}| }{","et yl","Ġ| |","AE K","AE N","ĠO AC","ĠO OCH",".... \\","22 6","22 7","Ġ15 2","Ġ15 4","Ġbc y","Ġ14 1","DC K","ĠAC K","Ġ25 00","30 6","30 30","MB H","CB r","60 2","Ġ24 50","OC I","Ġsinx cos","OB I","ĠD G","ĠD AC","ĠD EC","23 8","}}) }{\\","BA P","BA y","BH F","05 000","Ġp u","ĠP E","ĠP N","50 2","á» £","á» ĵ","á» Ŀ","th e","th á»ıamÃ£","pt C","40 25","ĠE O","ĠE AH","ĠE IB","ĠE BI","ĠI I","BE K","BM K","ĠK Q","ĠK HCO","AN E","45 5","33 33","AI H","big cap","Ġ40 1","Ġ40 44","Ġ19 30","DE I","DE M","Ġ45 00","56 78","}^{- }.","}^{- },\\","Äĳ kx","Äĳ Æ°á»£","Ġ-} :","AF B","29 4","Ġ28 9","IC E","IC M","Ãł y","Ãł ng","MI H","MD O","EF GH",")^{- },(","nO z","OD M","ĠBD M","ho ac","BK H","BK I","Ġ64 00","37 8","EB O","ED M","cot C","MH F","ĠG H","ĠABC vuÃ´ng","}/ \\","55 5","55 55","2000 0","39 5","AG C","AG E","vÃł a","54 6","Ġe n","88 8","88 9","MO P","it iáº¿p","}âĢĵ (","ĠDC A","HD F","78 2","Ġ39 2","ĠAF D","MF D","MF O","IE H","'' '","})^{- }}","})^{- },(","Ġu v","Ġ199 0","Äĳá» ģ","ĠCOO K","9999 95","max f","0000 0000","ĠNaCl O","ĠCos x","lÃł sá»ĳ","ÄĲ PCM","EG F","vÃ¬ x","................ ................","vá»Ľ im","HN D","cb t","Ãº pm","ĠL ys","ĠPb S","OQ N","Ġ123 456","aa a","202 202","áº£ m","áº¥ t","áº¥ u","Ġ............ ....","co zo","2222 22","ĠCaO Cl","enz im","OO CH","phan ung","315 4","glu cose","sa ocho","},... ,","Ax it","Ġ399 2","};... ;\\","and au","áº¡n ht","ÄĲK XÄĲ","dO b","cÃ¢ntáº¡i A","bÃł i","Ã² nl","})// (","cÃ¹ng ph","ĠBCN N","mino axit","dv C","iap hÃ¢ngiÃ¡c","yta go","16289 296","pd á»¥ng","Äĳiá»ĥ m","âĢĻ }","fr own","náº¿ u","ome ga","12343 21","5678 765","Äĳkx Äĳ","ÄĳÆ°á»£ c","( )","( @","( ^{",") }}}",") }})",") }):\\",") }^{-}}",") }):(\\","0 20","0 14","0 32","0 64","0 72","1 101","1 102","2 18","3 80","4 05","5 72","5 000","5 76","7 25","7 23","7 28","7 80","8 24","8 27","8 72","8 052","9 02","9 72","9 375","A NO","A NH","A SB","A minoaxit","B u","B PC","C R","C o","C IA","C ho","C Ã³","C PD","D CO","E OC","E BI","E OI","E KA","F AM","F BD","F IA","F CN","F Oy","F DH","H DB","H EC","H EF","H DA","I t","I NH","I DB","I OE","J AI","K O","K l","K CH","K CO","K AH","K Al","K BH","K AN","K Br","K EB","K CI","K hi","K Mn","L A","L K","L M","L áº¡icÃ³","M x","N J","N R","N Na","N AM","N CD","N AK","N MK","N MP","N MF","N KC","O Cl","O MB","O MC","O EF","O EA","O KH","P BC","P AO","P CN","P AQ","Q D","Q OP","R M","R b","S á»ĳ","S EG","S QA","T R","T al","T an","T MDK","V H","V N","V O","b andau","c r","c áº¡nht","d c","d r","d ox","d kt","e cho","h l","h Ã´ng","i i","k d","k l","l a","l t","m C","m k","m p","m v","m Cu","m tanx","m en","m Oz","m On","m lnx","n F","n P","n m","n n","n CB","n Ãł","o m","o zo","p g","s ac","s igma","t o","t ha","t ia","t áºŃn","v i","v áº¿","w ar","x k","x AM","x Ox","x Ã©t","y a","y k","y AB","y BC","y AE","y OC","y Oy","y cbt","{ }{","{ ....","| }.","| ;\\","| }{(","} +","} -","³ ngh","Ã Ģ","Ã ģ","Ġ )(","Ġ phan","ķ i","Ġ+ }{","Ġ+ })","^{ ^{+","Ġ- }{","Ġ- _{","Ġ- }}{","Ġ- }}\\","ac chat","}{ ^{","Ġ1 13","Ġ2 22","Ġ2 33","Ġ2 98","Ġ2 31","}} }|","}} }}.\\","}} }).(","}} |.|\\","}} .....\\","Ġ3 43","Ġ3 41","Ġ3 84","Ġ( )","Ġ( ..","Ġ( ((","Ġx M","Ġx a","}) }.","}) })^{","}) }}{\\","Ġ4 32","Ġ4 000","Ġ4 0000","de f","Ġb b","Ġb m","Ġb t","Ġb HNO",")^{ (","Ġ5 29","Ġ5 000",")( |","Ġm N","Ġm Cl","Ġm oi","10 2000","10 94","Ġ6 51","}\\ %","}. |\\","CO N","ta ng","ta mgi","Ġ7 21","Ġ7 05","Ġ7 36","Ġ7 89","Ġn A","Ġn B","Ġn b","Ġn p","Ġn OH","Ġn Fe","}^{ }","ab b","{( {\\","BC T","ĠA L","ĠA u","ĠA OE","ĠA KH","Ġz c","Ġz t","12 4","ĠC AK","ĠC AO","ĠC EB","ĠC MH","Fe xOy","15 40","15 01","ĠH BC","ĠH CA","ĠH FE","rc eil","Ġ... )","Ġt b","NO B","NO C","Na OOC","ĠB T","ĠB x","ĠB AH","ĠB DA","ĠB ED","ĠB KC","ĠB FE","AD G","AD P","AD HE","18 3","25 2","ĠCH COOH","ĠCH COOCH",")}{ ...}","Ġ18 00","Ġ16 5","Ġ16 6","19 4","19 78","19 94","19 87","ĠM G","ĠM Y","ĠM DC","ĠM TN","AM F","AM P","NH E","NH M","AH G","cosx cos","^{+ })","}| }\\","Ġd f","Ġd v","Ġd y","Ġd áº§u","99 0","99 6","et ic","Ġ| (","BD I","ĠAB F","ĠAB N","^{- }(","22 3","})( (\\","CD H","DC N","ĠAC O","Ġ25 8","CB K","60 56","60 61","60 62","Ġ+} :","Ġ24 6","ĠD BH","Ġ60 57","23 6","27 0","ĠS n","ĠS x","}}) :(","BA u","Ca HPO","ĠBC D","ĠBC E","ĠN E","MN A","Ġp a","Ġp m","ĠP A","ĠP y","ĠP AM","á» Ł","á» Ń","á» ķng","Ġtan a","Ġtan b","th áº","ĠFe CO","35 3","tr ung","tr Ã²","tr Ãªnt","tr ang","40 20","ĠE Q","ĠE CD","ĠE DC","ĠE MC","ĠE BA","áº »","BE O","BM F","BM H","iv Ã¬","AN P","AI N","AI t","Ġ17 1","Ġ17 2","Ġ17 6","lo áº¡","bb b","ĠAH K","ĠAH M","ĠAH P","Ġ40 42","Ġ19 80","Ġ19 78","Ġ19 79","02 25","}.( (","DE K","AK H","56 2","56 5","56 56","}^{- }(","}^{- },(","Äĳ c","ĠCO I","Ġ200 38","AF C",").( ...","29 1","DB F","DB J","ĠV N","26 9","AO K","AO Q","ĠAD F","ĠAD K","},( |\\","IC F","PO N","Ġ50 3","Ãł i","MI D","MI P","CM O","EC K","\\% _{","\\% .(","EF B","OM E","OM F",")^{- }.",")^{- },","nO t","HB N","CN B","CN E","CN P","BK D","BK M","08 5","}^{-} /","ĠAM O","37 37","Ġ23 9","CF I","ED I","MH A","ĠCD O","dd B","ĠBa O","IM E","IM K","ĠAE H","ĠAE I","ĠAE M","áº· t","ch i","ch uv","ch áº¯","ch war","Ġq p","DH E","DH M","DH O","........ .....","), (\\","ĠX YZ","NC I","hoáº·c p","EA P","EA Q","46 2","46 8","MK A","88 2","77 77","MP N","MP Q","MO E","CK A","CK B","CK D","CK H","CK M","}}}} }}","Ġ33 00","KH M","DK XD","nh Æ°","nh iá»ģu","nh áº¥t","ĠAN B","ĠAN E","DF B","DF H","ĠMg CO","ĠMg SO","ĠAK C","Ġ39 34","Ġ1000 00","79 2","IE M","IK C","'' )","})^{- },\\","IN D","IH M","{| }{","lim f","lim y","ĠT L","ĠT acÃ³","}}; (\\","mn p","Ã¡ nh","AQ M","225 0","Ġ38 7","AEF D","á»Ľ i","ĠCos A","sá»ĳ nguy","ph Ã¢ngiÃ¡c","Ġl Ãł","ĠABD vÃł","ÃŃ n","ÃŃ ch","gi am","gi Ã¡c","gi á»Ŀ","nt ÃŃch","vÃ¬ a","Gly xin","Hg Cl","sÄĳ AM","Ġmax f","AS Q","CT PT","ĠU CLN","ĠL HS","Ġpt C","ĠPb SO","cá»§ ax","Ġ85 37","Æ°Æ¡ng tá»±","|. |","TN N","vá»Ľi x",")! ^{","sd AB","{... }","Äĳá»ĵng vá»ĭ","luÃ´n Äĳu","xC n","á»Ļ itiáº¿p","sa i","},... ,\\","arc cos","cÃ¹ nglÃł","Ġ399 0","á»į n","//// ////",";... ;","AJ I","TÃ¬ m","TÃ¬ mx","mgi a","acb on","Ġth u","?? ?","dO a","Ġsqrt x","bu t","vÃ´ lÃŃ","phÆ°Æ¡ng trÃ¬nh","OCO C","hb h","Ġ226 8","thuá»Ļc Z","Ank en","etan ol","láº§ n","}// \\","919 19","gÃ³ct Æ°Æ¡ngá»©ng","Ġmc acchat","PCN V","SEG CD","dkt c","tha mgia","táºŃn cÃ¹nglÃł","³ngh Ãłng","tamgi Ã¡c","tháº ³nghÃłng","loáº¡ ivÃ¬","chuv i","chwar z","sá»ĳnguy Ãªnt","Ġmcacchat thamgia","! (","( ..","( |\\",") })^{",") },\\",") })\\",") }},\\",") },(\\",", |",", }\\",". {\\","0 97","1 100","2 13","2 14","3 200","3 30","3 32","3 125","3 88","4 60","4 23","4 64","5 17","5 99","5 45","5 33","5 28","5 70","5 97","6 14","6 23","6 39","6 78","6 79","6 92","7 05","7 84","8 36","8 376","9 15","9 60","9 35","9 80","9 70","= }\\","A SO","A not","C U","C X","C m","C NH","C MI","D U","D o","D MN","D MI","D Oy","D ON","D NC","D OI","D KH","D IK","D at","E P","E Y","E OA","E OM","E BK","E ID","E HD","E KC","E NM","F Q","F AC","F AH","F OB","F CM","F CE","F DM","F EA","F CI","F HE","F KE","G R","G AE","G BH","H H","H J","H L","H CD","H OB","H AI","H IC","H EB","H ID","H DM","H EA","H NA","I OH","I AH","I CD","I OC","I OA","I BE","I DE","I AF","I EF","I EB","I KH","I FE","I OK","J P","J Q","J CI","K J","K K","K V","K AM","K MA","K AI","K DB","K MI","K MD","K OM","K DA","K HB","K CF","K IM","K EA","K ME","K TM","L C","L Q","L HS","L og","M V","M ol","M NO","N AO","N BO","N AP","N KD","O J","O X","O EB","O IM","O PQ","O KI","P U","P CD","P BM","P MI","P IM","P NC","P DM","P ytago","Q NM","Q AS","R C","R K","R N","R a","R n","R HCO","R CHO","S r","S BC","S abc","S BN","T K","T O","T PT","T áº¡i","U O","U SER","X F","Z T","\\ })","a M","a sin","b n","b r","b mol","b it","b áºŃ","c p","c z","c ab","c lo","c ox","c Ã¡","c Ã´ng","c Ã¡c","c áº¡nh","c Aa","c Ã²nl","d H","d a","d y","d ac","d cba","e g","g l","h q","h s","h ch","h uy","h Æ°Æ¡ng","h á»£","i ch","k ot","l et","l and","l áº¡icÃ³","l áº¥y","m X","m g","m q","m Fe","m Ot","m ct","m á»į","n A","n o","n ta","n NH","n Ag","n nháº¥t","n á»Ļitiáº¿p","o b","p C","p OH","r p","r an","s O","s ol","s ong","s pu","s te","t d","t rc","t Ã¬","t pg","u N","v t","x N","x v","x CB","x OC","x pt","x OM","y A","y e","y t","y OD","{ ?","{ }(","{ {(","| ,","| )\\","| };","Ä ©","Ġ *","Ġ :","Ġ W","Ġ frac","Ġ widehat","Ġ }}{","Ġ overset","Ġ ex","Ġ hoáº·c","Ġ ''","Ġ hay","Ġ oxit","Ġ lnx","Ġ+ _{","Ġ+ }}}}","Ġ= ^{\\","ac d","ac y","Ġ1 200","_{ _{","Ġ2 15","Ġ2 100","Ġ2 30","Ġ2 2018","Ġ2 64","Ġ2 96","}} ).","}} )}{(","}} }.(\\","}} |}{\\","}} :(\\","Ġ3 36","Ġ3 35","Ġ3 96","Ġ3 125","Ġ3 95","Ġ3 0000","Ġ3 240","Ġ( ...)","Ġx N","Ġx R","Ġx m","Ġx NO","Ġx HCl","Ġx FeO","Ġ0 1","}) /","}) }^{","}) ...","}) /\\","}) ....(","ha n","ha nh","ha igÃ³c","Ġ4 99","Ġ4 05","Ġ4 80","Ġ4 455","de nta","Ġb u","Ġb tanx",")^{ {","Ġy A","Ġy b","Ġy c","Ġy d","Ġy k","Ġc c","Ġc Ã³","Ġc hi","Ġa a","Ġa f","Ġa xy","Ġa min","Ġa mino","Ġ5 13","Ġ5 19","Ġ5 24","Ġ5 60","Ġ5 88","Ġ5 77","Ġ5 76",")( *)","Ġm O","Ġm d","Ġm q","AB b","AB DC","os Ã¡nh","sin BAK","10 20","20 5","20 6","20 24","20 35","Ġ6 12","Ġ6 000","Ġ6 70","Ġ6 85","Ġ6 66","CH COOCH","Ġ9 31","Ġ9 72","Ġ9 95","}. {\\","CO H","CO y","OH N","ot á»«","ot hanh","Ġ8 052","ta othanh","Ġ7 02","Ġ7 96","Ġn Z","Ġn a","Ġn m","Ġn CH","Ġn NaOH","Ġn Ba","}^{ (","ol i","{( }\\","}, {","Ġ10 9","Ġ10 05","Ġ(\\ %)","ĠA T","ĠA m","ĠA NO","ĠA OC","ĠA MD","ĠA IM","ĠA ON","ĠA ID","ĠA NC","ĠA PD","ĠA PB","ĠA TL","12 96","12 496","Ġ20 4","Ġ20 23","Ġ20 50","Ġ20 29","Ġ20 26","Ġcos b","Ġcos t","{- }\\","ĠC ot","ĠC BE","ĠC AI","ĠC DE","ĠC MI","ĠC BK","ĠC ID","ĠC ME","ĠC NA","mol CO","15 4","15 7","15 60","16 16","16 80","ĠH b","ĠH MB","ĠH MC","Ġsin b","Ġsin h","Ġt ga","Ġt á»±","NO A","NO P","Ġ12 50","]{ }","100 01","Na X","Na CO","Na HS","ĠB sin","ĠB AE","ĠB EF","ĠB OD","ĠB NC","ĠB MK","ĠB FD","AD J","18 8","18 90","ng Ãły","25 4","25 9","00 01","00 125","13 9","ĠCH B","ĠCH COO","ĠCH COONa",")}{ {","Ġ18 4","Ġ18 5","Ġ18 000","19 88","19 84","19 79","ĠM CO","ĠM AH","ĠM OB","ĠM BA","ĠM OA","ĠM AN","ĠM AK","ĠM DA","ĠM BK","ĠM BF","ĠM NC","ĠM EA","ĠM IN","Ġk c","Ġk hÃ´ng","AH ED","Ġab d","17 2","17 3","17 4","17 9","17 17","^{+ }}(","Ġd u","99 7","99 8","BD O","BD T","AE G","AE DF","ĠO G","ĠO n","ĠO CH","ĠO BC","ĠO AM","ĠO CB","ĠO MA","ĠO BH","ĠO IK","ĠAB G","ĠAB P",".... )","^{- }(\\","^{- }:","Ġ15 5","Ġ15 8","Ġbc z","Ġ14 8","Ġ14 00","24 4","24 6","ĠAC F","COOH Cl","Ġ25 3","Ġcosx cos","30 3","30 4","30 10","30 25","CB x","CB z","Ġ13 4","60 9","MA F","MA x","Ġ24 5","Ġ24 01","75 5","OC E","ĠD D","ĠD T","ĠD BC","ĠD AM","ĠD MB","ĠD MA","ĠD IC","ĠD EF","ĠD MH","ĠD HA","Ġ60 49","23 4","23 20","23 45","27 8","ĠS B","ĠS chwarz","}}) ;(\\","BA Q","BH I","ĠBC A","ĠBC F","ĠBC M","ĠN L","CA P","Ġp k","Ġp s","ĠP F","36 7","á» ¯","th i","th o","th áº¿","tr o","40 3","40 18","40 22","40 36","40 37","40 723","32 6","32 12496","ĠE AC","ĠE BC","ĠE AD","ĠE OB","ĠE CA","ĠE DB","ĠE IC","OA K","áº µ","ĠI BC","ĠI MB","ĠI CB","ĠI BA","ĠI EB","Ag X","Ġ100 4","BE I","BM Q","ĠK K","ĠK r","ĠK AB","ĠK AC","ĠK HC","ĠK EB","ĠK ClO","AN F","AN K","33 60","28 1","28 5","Ġ17 3","HC K","HC L","big cup","ĠAH I","^{+} :\\","Ġ40 16","Ġ40 24","Ġ40 40","Ġ40 34","Ġ19 7","Ġ19 75","Ġ19 39","Ġ19 81","}}{( {","Zn S","Ġ.... ...\\","AK N","64 2","64 29","56 1","}^{- })","}^{- }:","}^{- },(\\","Ġac z","Äĳ Äĳ","ĠCO E","Ġ-} /","AF O","44 7","29 83","DB G","DB N","DB O","IB K","IA O","ĠV áºŃy","26 7","yz t","80 7","80 79","AO P","AO m","AO x","Ġ28 6","49 13","PO K","Ġ50 7","Ġ50 1501","Ġax etic","03 7","CM F","CE O","EC I","\\% )","65 1","65 3","65 28","}}( )","ĠBH D","ĠBH E","DA x","ĠF K",")^{- },\\",")^{- };(","Ġcot a","OD I","ĠNa Br","ĠNa OOC","Ġ35 2","Ġ35 5","HB I","06 25","96 6","ho a","CN F","BK A","08 4","Ġ.. {.","ĠAM K","Ġ23 45","CF B","CF K","ED O","cot a","Ġ26 1","MH K","ĠCD F","ĠG J","ĠG lu","dd A","dd NaOH","dd KMnO","ĠABC cÃ¢ntáº¡iA","2000 00","BN D","Ġ49 5","AG M","ch ÃŃnh","BF A","BF H","Ġq a","DH I","ON B","ON F","ON M","ON P","an h","........ ..","vÃł B","vÃł y","vÃł xy","ĠX Cl","}^{+ })","ID M","ID N","HO K","{+ }\\","hoáº·c c","hoáº·c báº±ng","DM K","95 95","MK C","MK D","MK I","MK N","MK P","Ġe H","ĠHC K","BT C","BT e","ĠBE I","ĠBE M","ME H","ĠDC E","CI E","78 7","ĠQ D","ĠQ F","ĠQ N","OE N","DN E","HF J","PT HH","nh á»ı","nh Æ¡n","nh Ã¢n","HA Q","BO F","BO S","ĠAI K","AP C","AP Q","57 41","ĠAK F","ĠAF E","MF A","Ġr a","38 6","IE O","Si F","IK A","IK M","Pb O","Pb S","Pb SO","'' \\","'' }{","400 5","ĠCK B","}* (\\","})^{- }.","IN B","hi dr","hh sau","Ġ199 1",")^{+ }.",")^{+ },",")^{+ },\\",")^{+ }/","ĠT an","FE I","Äĳá» ģu","Äĳá» ķi","67 26","67 48","ĠCOO R","9999 9","Cos A","Cos C","HK M","sinB sinC","EM Q",")| )",")| ))","NT Mg","0000 00","ĠCos B","MQ C","ba zo","cÃ³ nghiá»ĩm","gi Ãºpm","Ġgn k","EI O","lÃł b","ÄĲ á»ĥ","ÄĲ áº·t","nt á»±","tg C","tg a","})^{+ }}","})^{+ },","mi c","Hg SO","sÄĳ BD","sÄĳ AN","vá»Ľ ia","123 45","amin o","me tan","ĠU SER","ĠSin x","QP y","Ġ? ?","Ġ57 120","cá»§ ac","Ġ111 11","}}, ...","abcde g","ĠsÄĳ BC","ĠsÄĳ BD","ĠsÄĳ CD","ĠsÄĳ BM","ĠsÄĳ AN","kt m","ĠHO CH","ĠSi O","Ch Æ°","Li OH","co z","tm dk","thÃ¬ phÆ°Æ¡ngtrÃ¬nh","cung AM","tá» ī","acos x","1111 11","glu cozo","ĠJ Q","hiá»ĩ u","RCOO R","OHC CH","9797 97","** *","cu á»ĳi","Ġ399 984","ĠMin A","chá» ī","khÃ´ng Äĳá»ķi","016 5","Ġth Ã¬","ĠABI vÃł","TE X","Ġ450 241","áº¯ t","PV C","oc acbon","TÃŃnh giÃ¡trá»ĭ","hc n","vÃ´ lÃ½","ĠMax P","á»ģ n","ÄĳÆ°á»Ŀng trÃ²","XO Y","cÃ¢u a","The o","cO d","lá»Ľ nnháº¥t","lá»Ľ nhÆ¡n","Ġan col","009 46","4444 44","Äĳá»ĥ A","19981998 1998","vuÃ´nggÃ³c vá»Ľi","Me V","xo y","CHBr CH","á»ĵ i","hoac x","vá»Ľim á»į","áº£m Æ¡n","cÃ¹ngph á»¥","827 1","Sá»ĳ HS","cáº¡nht Æ°Æ¡ngá»©ng","nÃł o","Ãģ pdá»¥ng","Ġdf cm","cháº¯ n","sá»ĳnguyÃªnt á»ĳ","692 20","970 200","báºŃ c","hch c","huy á»ģn","tpg u","Ġ2029 105","1616 99","tháº¿ áº¡","40723 23","hidr ocacbon","lá»ĽnhÆ¡n hoáº·cbáº±ng","! )","! )(","! .(\\","! )...(","( *\\",") {",") )(",") )_{",") |\\",") })}",") )}{(",") }}^{",") ....(","* |","* }","* ^{","* (\\",", ,",", {",", }",", ^{",", ..",", ...)",". )",". }{","0 10","0 18","0 19","0 60","0 36","0 40","0 28","0 77","0 76","0 192","0 1875","2 12","2 19","2 200","2 30","2 64","2 1212","3 10","3 12","3 18","3 17","3 40","3 45","3 48","3 1313","4 19","4 14","4 24","4 32","4 45","4 28","4 80","4 65","4 72","4 34","4 70","4 999","4 183","5 10","5 15","5 22","5 30","5 60","5 35","5 44","5 29","5 31","5 34","5 39","5 78","5 333","6 12","6 15","6 60","6 32","6 45","6 26","6 65","6 96","6 000","6 77","6 0000","7 18","7 19","7 14","7 24","7 04","7 90","7 273","7 224","8 10","8 99","8 05","8 56","8 125","8 42","8 95","8 63","8 68","9 20","9 25","9 29","9 31","9 43",": ^{","A V","A Z","A m","A cos","A PO","A nh","A RQ","B R","B Y","B Z","B i","B q","B x","B SO","B OB","B BT","B PD","B ÄĲ","B SM","B enzen","B Ãłi","C x","C y","C rac","C CH","C Ã¢","C PA","C PB","C Äĥn","D D","D p","D IE","D IN","D Oz","D GM","D PA","E X","E CO","E OH","E NH","E MH","E IM","E AG","E HO","E MK","E MP","E MO","E HA","E IN","E NA","E Ox","E KD","E QC","E QM","E ste","F J","F OH","F CA","F OA","F BM","F AN","F HC","F AO","F IC","F MD","F HB","F NC","F ME","F IE","F AS","F KM","F QA","F ru","G L","G AD","G CD","G OC","G BM","G HB","G BI","G FD","G PN","G TNN","H CH","H AO","H IM","H MF","H IK","H MG","H GF","I V","I CO","I MB","I OM","I HE","I on","J M","J BC","J MI","J IM","K Q","K p","K OB","K MN","K OA","K BE","K IB","K IC","K Cr","K CN","K BI","K MH","K BN","K DM","K HD","K FD","K TMDK","L D","L G","L P","M L","M b","M Al","M Cu","M Mg","M IC","N V","N e","N q","N BE","N DE","N DB","N CE","N EF","N ID","N EA","N EH","N FH","N EO","N FI","N FM","N ClCH","N LA","O R","O NH","O AH","O DE","O yz","O MI","O MD","O xz","O KB","O SM","O LB","P X","P a","P o","P x","P OH","P AE","P MA","P OB","P AI","P MD","P BK","P HO","P NM","P EM","P EO","P KF","P JB","P oli","Q H","Q T","Q AD","Q AE","Q BA","Q CA","Q ON","Q DM","Q CK","Q EM","Q OK","Q UO","R J","R P","R r","R SO","R COOCH","R sinB","R sinC","S P","S Q","S T","S o","S ac","S CD","S EF","S CN","S HF","S ABE","S FA","S ADHE","S tamgiÃ¡c","S osÃ¡nh","T A","T D","T F","T T","T Z","T i","T BC","T Æ°","T NM","T PA","T hay","T QA","T á»«","T á»ķng","U CT","V I","V NH","V dd","V ID","V Ã¬","V IN","V á»Ľ","V NI","X x","X ON","X ME","X EM","Y x","Y Cl","Z X","[ ]{(","a q","a CO","a Fe","a mol","a thá»©c","a CuFeS","a Nq","b t","b pt","b Ã¡","b Äĥ","b Ã¹","b Ã¬nh","b oc","c tan","c áº·","c áº§","c khÃ¡c","c áº¯t","d B","d n","d ung","d áº¥","d iá»ģu","d áº¥u","d ich","e r","e Cl","f má»į","g n","g oxit","h d","h Ãº","h áº¡ng","h ing","i z","i lin","i en","i on","i chá»ī","j up","k A","k B","k J","k n","k q","k z","k vs","k iá»ĩ","k ing","l k","l á»","l Ãº","m B","m K","m M","m R","m b","m d","m cos","m Cl","m et","m Al","m Äĳ","m Ox","m Hg","m Min","m Ã¬nh","m on","n M","n S","n Y","n q","n Mg","n ong","n Zn","n HOOC","n RT","o o","o u","o áº·","o on","p b","p k","p ol","p chat","p Ka","p ytago","q c","q p","q y","r ax","r áº±ng","r ic","r á»ĵi","s ole","t O","t n","t Äĥ","t Om","t áºŃ","u m","u r","u oc","v n","v p","v in","v ol","v áº","x R","x S","x d","x p","x q","x CH","x ab","x AE","x BH","x DB","x Cos","x lnx","y b","y c","y d","y m","y AC","y OP","y Ax","y Äĳá»ĥA","z k","z Ox","z On","{ )}","{ .......","{ =}\\","| },","} *)","} ........................","} ////////","â Ĥ","â Ĭ","â Ķ","ï ¼","Ġ ^{","Ġ }{","Ġ }{\\","Ġ ):","Ġ );(","Ġ LN","Ġ ):(","Ġ ÄĲPCM","Ġ hiá»ĩu","ĭ nh","Ĺ i","Ġ+ ^{\\","Ġ+ }}}","Ġ+ }})","Ġ+ };(","Ġ= _{-}^{+}","^{ ...","Ġ- })","Ġ- })}","ac O","}{ +","ht á»","Ġ1 125","_{ {\\","Ġ2 18","Ġ2 19","Ġ2 99","Ġ2 23","Ġ2 35","Ġ2 28","Ġ2 222","rt an","}} }(","}} }.","}} }^{","}} ^{+","}} })(","}} }}{(","}} ^{-}","}} })^{-","}} }}{{","Ġ3 10","Ġ3 15","Ġ3 40","Ġ3 33","Ġ3 26","Ġ3 80","Ġ3 98","Ġ3 31","Ġ3 72","Ġ3 85","Ġ3 456","Ġ( :","Ġx C","Ġx O","Ġx b","Ġx e","Ġx k","Ġx n","Ġx mol","Ġx Na","Ġx KHSO","Ġx áº£","}) *","}) }(","}) )}","}) )\\","}) {.","}) /(","}) *(","}) ......","}) .....(","ha rp","Ġ4 200","Ġ4 24","Ġ4 36","Ġ4 44","Ġ4 98","Ġ4 70","Ġ4 81","Ġ4 160","Ġ4 995","Ġb p","Ġb an","Ġb sinxcosx","Ġy O","Ġy p","Ġy mol","Ġy cosx","Ġy OM","Ġy Ot","Ġy hoáº·cx","Ġy Oz","Ġc k","Ġc n","Ġc ox","Ġc bx","Ġc Ã¢n","in ha","in Ãły","}}{ ^{","}}{ {\\","Ġa PT",".. (",".. \\","Ġ5 20","Ġ5 75","Ġ5 28","Ġ5 80","Ġ5 70","Ġ5 750","Ġ5 376","Ġ5 5555",")( {",")( ...",")( ....)","Ġm A","Ġm C","Ġm z","Ġm ab","Ġm Fe","Ġm NO","Ġm Na","Ġm tan","Ġm Al","Ġm abc","Ġm Mg","Ġm od","Ġm MgO","Ġm ct","Ġm khi","Ġm kettua","Ġm etyl","}( {","}( |","AB L","AB d","AB y","AB z","AB OM","os ac",")_{ \\","sin acos","10 101","20 60","20 23","20 50","20 48","20 90","20 39","20 77","20 47","Ġ6 75","Ġ6 300","Ġ6 69","Ġ6 993","CH F","Ġ9 19","Ġ9 60","Ġ9 36","Ġ9 49","Ġ9 65","Ġ9 90","Ġ9 96","Ġ9 000","Ġ9 92","Ġ9 86","Ġ9 0000","Ġ9 889","}. |(","AC m","AC DB","AC vÃł","right harp","CO C","CO G","CO S","CO VID","OH E","OH K","OH M","OH Q","Ġ8 40","Ġ8 88","cos i","cos u","cos OAM","cos OAN","ta o","ta let","ta mic","Ġ7 16","Ġ7 11","Ġ7 65","Ġ7 84","Ġn d","Ġn Cl","Ġn Al","Ġn Ca","Ġn HCl","Ġn HO","Ġn KOH","Ġn Ãªn","ab d","ab ba","ab iáº¿t","ol áº¡i","{( }{","BC Q","BC m","BC n","BC DE","BC táº¡i","dot g","pi cosx","}, ..","}, ....","Ġ10 25","Ġ10 58","Ġ10 89","ĠA S","ĠA s","ĠA t","ĠA cos","ĠA NH","ĠA MI","ĠA OI","ĠA PM","12 25","12 75","12 50","12 34","xy t","Ġ20 3","Ġ20 9","Ġ20 25","Ġ20 48","Ġ20 37","Ġ20 000","Ġ20 68","... ;(","})_{ _{","ĠC J","ĠC d","ĠC MB","ĠC MA","ĠC BM","ĠC IB","ĠC IA","ĠC EF","ĠC BI","ĠC ED","ĠC IM","ĠC BF","ĠC KH","ĠC BO","ĠC PQ","ĠC IK","ĠC FE","ĠC PD","ĠC PA","ĠC PB","ĠC Äĥn","ĠC TPT","Fe OH","mol K","mol m","15 20","15 50","15 45","15 72","15 77","15 625","15 05000","16 56","16 000","16 66","16 153","Cl NH","ĠH J","ĠH S","ĠH BD","ĠH AE","ĠH DC","ĠH PO","ĠH EC","ĠH OD","ĠH CHO","ĠH MK","ĠH NB","Ġsin c","Ġsin d","SO Q","Ġ... }}","Ġ... ;\\","Ġt e","Ġt m","NO E","NO OC","Ġ12 25","Ġ12 22","Ġ12 31","Ġ12 96","Ġ12 95","Ġ12 132","11 96","100 02","Na A","Na Y","Na SiO","ĠB J","ĠB S","ĠB b","ĠB PO","ĠB MD","ĠB IM","ĠB ID","ĠB EA","ĠB ME","ĠB NM","AD Q","AD BK","18 25","ng tu","ng BBT","ng pb","}.\\ %","25 8","00 15","00 16","00 25","00 04","00 204","13 00","13 60","13 33","13 084","ĠCH C","ĠCH D","ĠCH E","ĠCH I","ĠCH CN","ĠCH CHO","ĠCH COOC","Ġ18 3","Ġ18 7","Ġ16 1","19 05","19 44","19 72","19 800",".( {","ĠM L","ĠM R","ĠM AC","ĠM OH","ĠM BC","ĠM AD","ĠM AE","ĠM OC","ĠM BH","ĠM CA","ĠM CN","ĠM ED","ĠM BN","ĠM HO","ĠM IH","ĠM DO","NH F","14 28","14 31","17 29","^{+ }.","^{+ }}}","^{+ };\\","^{+ })}","tan b","tan y","tan z","}| ;","}| )_{","}| .\\","}{( (","Ġd m","Ġd ab","Ġd Fe","Ġd NO","Ġd au","et rong","BD P","AE HF","ĠO J","ĠO R","ĠO T","ĠO Na","ĠO CD","ĠO BA","ĠO MN","ĠO IA","ĠO CN","ĠO MH","ĠO GB","ĠO CI","ĠO FC","ĠO NP","ĠO NM","ĠO EI","ĠO EK","ĠO QM","Al F","Al H","Al pu","ĠAB CD",".... ...\\","^{- };","^{- }}\\","22 1","22 8","Ġ15 3","Ġ15 00","Ġ15 60","Ġ15 21","})( {\\","Ġ11 20","Ġ11 12","Ġ11 2000","Ġbc a","Ġbc c","Ġbc d","Ġf n","Cu CO","Ġ14 2","Ġ14 05","Ġ14 44","24 75","24 01","24 48","ĠAC A","ĠAC P","COOH H","Ġ25 5","Ġ25 50","30 5","30 24","MB K","MB b","Ġmol H","Ġmol m","CB t","bc yz","Ġ13 1","Ġ13 33","Ġ13 0000","60 1","60 57","ma n","ma nt","Ġ24 8","OC F","OC K","MC F","MC G","MC Q","MC S","Ġsinx sin","OB E","OB F","ĠD L","ĠD AE","ĠD OC","ĠD IA","ĠD BF","ĠD HF","ĠD HK","Ġ60 6","Ġ60 30","Ġ60 60","Ġ60 43","23 13","23 91","23 69","27 09","27 134","ĠS D","ĠS N","ĠS t","ĠS abc","}}) /","}}) |","}}) ;\\","}}) ,(\\","BA G","BA r","Ca SiO","ĠBC K","Ġ30 3","Ġ30 4","ĠN CB","ĠN CE","ĠN DO","05 4","05 25","05 85","MN I","MN K","MN CB","ĠP S","ĠP CI","50 6","50 8","36 4","36 11","36 25","Ġg o","Ġg lu","th bb","th á»ĥ","th em","ong ung","pt r","up u","up arrow","ĠFe Br","35 5","35 8","35 76","tr Æ°á»Ŀng","tr uoc","40 2","40 6","40 9","40 16","40 11","40 21","40 23","40 40","40 45","40 31","40 96","32 8","ĠE P","ĠE MB","ĠE AI","ĠE HC","ĠE BF","ĠE ID","ĠE OI","ĠE HD","ĠI S","ĠI AD","ĠI OC","ĠI BM","ĠI CE","ĠI OM","ĠI BK","ĠI BN","ĠI NC","ĠI EA","ĠI MO","ĠI PH","Ag Br","BE Q","BE FC","BM G","BM P","iv á»Ľ","ĠK R","ĠK e","ĠK CH","ĠK BD","ĠK DC","ĠK MA","ĠK MC","ĠK IC","ĠK CE","ĠK ED","ĠK DH","})} :\\","AN I","AN Q","AI F","AI Q","28 6","28 57","28 238","Ġ17 7","Ġ17 05","Ġ17 28","Ġ17 29","Ġ17 86","Ġ17 600","HC F","HC N","lo zo","Ġ36 5","ĠAH G","Ġ40 3","Ġ40 25","Ġ40 30","Ġ40 23","Ġ40 96","); ...;(","Ġ19 1","Ġ19 5","Ġ19 86","Ġ19 82","or a","or m","02 65","Ġ27 89","}.( {\\","}.( ...","DE G","DE MNH","Ġ45 5","Ġ45 9","ax by","Ġ.... ;","Ġ.... \\","Ġ.... ........................","}}}{ -","}}}{ {","64 4","64 00","56 8","56 000","}^{- }}}","}^{- }}}{",",( (","Ġac c","Ġac r","Äĳ i","Äĳ k","Äĳ v","Äĳ áº¡","Äĳ athá»©c","Äĳ ivá»Ľ","ĠCO F","ĠCO N","Ġ200 37","Ġ-} :\\","AF I","AF K","AF M","AF N",").( ....","29 2","29 5","29 00","sim eq","IA P","ĠV Ã¬","26 58","// \\","// /\\","Br CH","AO F","AO y","ĠR COOH","ĠR COONa","ĠAD I","ĠAD J","ĠAD O","Ġ28 7","Ġ28 561","49 0","49 49","49 755","Cr SO","Cr Br","Ãł m","Ãł n","MI F","ĠOH C","Ġax eta","am u","am giÃ¡c","03 4","03 9","CM H","CM T","ĠCu CO","CE I","ox i","04 31","04 68","04 83","01 15","EC N","ca o","48 7","48 46","48 0000","MD F","MD N","MD P","\\% /","\\% :","\\% }^{+","65 16","65 24","OM G","ĠBH M","ĠBH O","DA P","DA Q","DA y","mod ab","ĠF N","ĠF R","ĠF BC","ĠF AD","ĠF AM","ĠF CD","ĠF DC","ĠF EC","ĠF EB","Ġcot b","ĠNa I","ex an","Ġ35 9","Ġ35 00","HB F","HB L","HB O","Ġabc x","ho pchat","CN A","BK O","BK P","BK x","08 26","72 12","72 25","37 21","37 41","BI T","CF E","CF N","CF O","120 000","EB N","EB x","}}^{ }","}}^{ })",")}} )^{",")}} ;\\",")}} .(\\",")}} |}","Ġ26 2","Ġ26 18","MH E","ĠCD G","ĠCD N","ĠG F","ĠG I","ĠG L","ĠG TNN","dd X","dd Y","dd Ba","dd Br","dd AgNO","dd MgCl","dd MgSO","dd spu","CHO CH","ĠABC nÃªn","ĠABC Äĳá»ĵngdáº¡ng","Ġv t","Ġv Ã¬","Ġv á»Ľi","ad bc","55 8","2000 1","BN A","BN I","BN K","ĠAE N","Ġ49 50","Ġ22 12","34 76","39 2","AG B","AG F","AG H","ch ox","ch á»©","ch áºµ","BF I","BF M","BF N","2009 2009","Ġq x","DH N","ON C","ON E","ON Br","an dx","Ġbx z","........ ...","........ ....","........ .......","........ ....\\","vÃł o","vÃł ot","vÃł ab","ĠX e","ĠX Ã©t","ID F","NC K","54 7","HO NO","DM P","46 7","46 32","46 67","MK E","Ġe A","Ġe B","85 7","43 25","OI H","Ã³ Äĳivá»Ľ","77 9","ms á»ĳ","Ġ29 4","Ġ29 37","MP I","MP K","ME Q","it Æ°Æ¡ngtá»±","ĠDC B","ĠDC F","}}}} .","}}}} *\\","Ġ75 00","CI H","CI K","HE I","áº¡ ntá»±","áº¡ itÆ°Æ¡ngtá»±","HD K","66 2","ĠQ B","ĠQ P","OE I","OE M","OE Q","DN A","DN M","Ġ56 2","KH S","HF B","PT E","Ġ+}, (\\","ĠMN P","DK E","nh áºŃn","nh á»įn","Æ¯ C","ĠAN F","HA J","HA x","025 4","BO G","BO P","BO m","BO t","BO x","ĠAI F","ĠAI T","AP D","AP N","DF G","DF I","ĠBM F","09 2","57 9","en lu","SA A","SA OC","ĠAK B","ĠAK E","ĠAK M","ĠAK N","Ġ39 36","ĠAF C","ĠAF I","MF B","MF nt","Ġ1000 000","38 60","Si H","IK N","IK y","Pb Cl","'' ,","400 1","400 4","400 00","400 000","ĠZn SO","})^{- }/","Ã´ nglÃł","Ã´ lÃ½","59 32","59 55","IH K","300 00","58 125","{| (","68 9","68 75","OF D","OF E","OF K","OF M","hh Y","Ġ199 3","Ġ199 6","(| |","ĠT G","ĠT H","ĠT he","FE x","Äĳá» ĭnh","015 625","sinA sinBsinC","360 81","67 75","89 3","[]{ (\\","Cos i","NB y","NP C","Ġh v","Ġ96 00","pu vs","Ã¡ n","Ã¡ pdá»¥ng","_{- }","max u","AQ B","AQ D","AQ E","AQ N","73 40","NM Q","ung oáº·","EH M","DO K","HOOC C","Ġ2009 2009","KL C","KL M","ra tacÃ³","ml X","DI F","DI P","Ã¢ y","0000 000","á»Ľ iv","Ox i","HCOO K","ĠCos C","MQ E","MQ P","bac á»§","bac hai","sá»ĳ sá»ĳ","sá»ĳ báº±ng","sá»ĳ bÃł","sá»ĳ cuá»ĳi","}^{* };","}^{* },(","Ġ140 307","cosB cosC","ĠBK M","Ġma thbb","128 00000","ĠCr Cl","OK D","cÃ³ giÃ¡trá»ĭ","cÃ³ sai","ÃŃ a","gi Ã¹","gi Ã¢y","EI F","EI G","lÃł mt","lÃł trung","lÃł phÃ¢ngiÃ¡c","PM S","ÄĲ Æ°á»Ŀng","Ġ\\% \\","^{-}, _{","back sim","tg á»įn","ĠBI F","cho P","cho f","ĠCI O","HI O","Ġ112 12","HCOOC CH","vÃ¬ b","vÃ¬ t","vÃ¬ cÃ¹ngphá»¥","Ġ110 7","hay y","})^{+ }(","})^{+ }\\","})^{+ },\\","})^{+ },(","mi kvs","130 307","ĠMn Cl","................ .......","CG H","CG V","Gly Ala","sÄĳ AB","sÄĳ AC","Ġ400 000","Ġmax g","Ġmin f","BP E","CT A","HN I","kh x","kh ac","kh Ã´nglÃł","khi cos","CP N","EBC F","cÃ¢ y","Ãº tgá»įn","ĠL B","ĠL K","ĠL og","ĠABM vÃł","QP N","Ġ? ??","^{* },","Ġ67 24","ĠABH vÃł","OQ M","}}, (\\","ABN D","ĠAP H","abcde f","ĠsÄĳ AB","ĠsÄĳ AD","ĠsÄĳ CE","035 2","NI O","CAH OF","Min y","Ġcd a","BQ H","BQ K","BQ R","Ã© p","1010 101","1006 009","ĠIE O","IF O","Ġ600 1","Ġ600 000","ĠHA J","ĠSi F","trong gÃ³c","trong cÃ¹ngph","áº§ n","vá»Ľi áº¡",")! }{",")! .(","HBr O","Li AlH","sd IC","sd AP","{... }{","}.... ...\\","}.... ..\\","ĠcÄĥn x","Ġ89 55","Ġ273 3212496","CQ K","CQ N","ns t","Ġba z","023 8","600 9","KF M","not hing","Ġ............ .......","Max A","PH Q","aO d","xC y","thÃ¬ P","thÃ¬ m",")// (\\","AL K","AL M","GF N","cung MN","tá» Ń","tá» ķng","NE P","glu coz","sa otá»«","sa oláº¡i","sa upu","var nothing","ĠJ N","ĠJ PG","Ġbn v","arc tan","Æ°á»Ŀ ichá»ī","Ax etilen","DQ K","cÄĥn xy","sp rt","Ã£ n","ABF P","ĠOOC C","ĠOOC CH","** *\\","065 2","GT LN","HQ K","Pd CO","dp dd","nÃªn a","ĠMin P","};... ;","//// ///\\",",... ,","PF CD","nha n","nha u","tin h","|}{| (\\","Ġo h","Ġth áº±ng","ĠEN MF","ÄĲK XD","luÃ´nÄĳÃºng vÃ¬a","do k","nl Æ°á»£","nl áº»","(. )","710 35","An col","BL A","váºŃy P","Ġcp w","ĠAMN cÃ¢n","suyra a","suyra Äĳc","cotA cotB","ctu ongung","iá»ģu kiá»ĩ","áº£i jup","Cd SO","TÃŃnh V","bu tan","go ctuongung","ru a","ru ou","vs x","}}... {.","Ġ1600 000","ĠgÃ³c BAC","ĠgÃ³c nhá»įn","Ġsá»ĳ Äĳáº§u","(* )(","(* );(","EQ B","yta g","Ġcung PC","16289 292","ngh Ä©","can bachai","lÃłm cÃ¢u","lÃłt iap","lÃłt iaphÃ¢ngiÃ¡c","iá»ĩ ntÃŃch","nguyÃªn thÃ¬","áº¥y bÃ¡","á»ıamÃ£ n","Ank an","!! !","As O","Glu cozo","SAB GE","The opt","ix er","tÃŃnh nhÃ©","}........ \\","Ġha igÃ³c","igi Ã¡","igi Ã¡trá»ĭ","ing Æ°á»Ŀichá»ī","ole um","985 26","ĠvuÃ´ng ABC","ĠvuÃ´ng BHM","vuÃ´nggÃ³c AB","588 6","975 95","CPQ D","Ma xy","SLT AB","kim loai","ká»ģ bÃ¹","xO k","xo z","Ġ9999 3","á»£ p","the o","thá»ıamÃ£ n","ĠABCvuÃ´ng cÃ¢n","''' }","Äĳá»ģ rá»ĵi","00000000 00000000","lÃłsá»ĳ chÃŃnh","áº£m Ã£n","bÃłi ratacÃ³","iaphÃ¢ngiÃ¡c cá»§a","náº¿u x","(@ )","Bu tan","CÃ³ M","Tal et","Tal es","nn Ã³Äĳivá»Ľ","á»Ń a","trÃªnt ia","Ġ20038 005","Ġ20038 007","chi ax","nhÆ° váºŃy","nhÆ° tháº¿áº¡","Ġthu c","??? )","loáº¡ivÃ¬ khÃ´nglÃł","chuvi OAB","(.. )","IEF J","MV B","Táº¡i saotá»«","ZT I","clo rua","cÃ¡ ch","cÃ´ng thá»©c","cáº¡nh huyá»ģn","cÃ²nl áº¡i","gl ixer","hq BC","hÆ°Æ¡ng trÃ¬nh","kot h","láº¡icÃ³ thá»ĥ","láº¥y Äĳiá»ĥm","sol etrong","vt pt","{? }{\\","Ġoverset t","han ol","haigÃ³c trongcÃ¹ngph","Ġchi a","Ġ577 8","Ġtá»± lÃłm","tho áº£mÃ£n","giÃºpm Ã¬nh","ÄĲá»ĥ A","ChÆ° abiáº¿t","TÃŃnhgiÃ¡trá»ĭ cá»§a","ÄĳÆ°á»ĿngtrÃ² n","vá»Ľimá»į ix","áº£mÆ¡n nhiá»ģu","Sá»ĳHS cÃ²nláº¡i","nÃło cá»§ax","cháº¯n cung","báºŃc bacá»§","21212 121","31313 131","615 384","Anh áº¥ybÃ¡","BÄĲ T","Crac king","CÃ¢ u","CÄĥn x","FOH F","QUO TE","SABE G","TZ I","Xx Yx","cáº· p","dáº¥ ungoáº·","fmá»į ingÆ°á»Ŀichá»ī","lá» Ĺi","lÃº c","met hanol","mon osac","oon up","tÄĥ ngBBT","vin yl","vol y","váº ½","}//////// ///////\\","âĤ ¬","âĶ Ĥ","^{... ^{","Ġxáº£ yra","})...... (","Ġ55555 7","Ġmetyl but","Ġ919 08","Ġ949 05000","Ġ965 00","rightharp oonup","Ġ2068 77","ĠCÄĥn báºŃcbacá»§","1196 9","mant ozo","2709 1","Ġglu tamic","trÆ°á»Ŀng há»£","DEMNH K","Ġ............................ ...","Äĳáº¡ t","2658 2","Ġaxeta t","amgiÃ¡c ABC","cháºµ nláº»","enlu lozo","ĠThe opt","puvs A","sá»ĳsá»ĳ háº¡ng","Ġmathbb Z","giÃ¹ m","lÃłtrung Äĳiá»ĥm","vÃ¬cÃ¹ngphá»¥ vá»Ľi","mikvs nha","nlÆ°á»£ t","suyraÄĳc nhÆ°tháº¿áº¡","áº£ijup mikvsnha","lÃłmcÃ¢u fmá»įingÆ°á»Ŀichá»ī","lÃłsá»ĳchÃŃnh phÆ°Æ¡ng","nnÃ³Äĳivá»Ľ igiÃ¡","loáº¡ivÃ¬khÃ´nglÃł sá»ĳnguyÃªntá»ĳ","glixer ol","láº¡icÃ³thá»ĥ suyraÄĳcnhÆ°tháº¿áº¡","haigÃ³ctrongcÃ¹ngph ÃŃa","ChÆ°abiáº¿t lÃłmcÃ¢ufmá»įingÆ°á»Ŀichá»ī","Anháº¥ybÃ¡ nnÃ³Äĳivá»ĽigiÃ¡","XxYx Z","dáº¥ungoáº· c","tÄĥngBBT f","ĠCÄĥnbáºŃcbacá»§ a","ChÆ°abiáº¿tlÃłmcÃ¢ufmá»įingÆ°á»Ŀichá»ī giÃ¹m","! :","! })","! }(","! }.","! )}","! .\\","! }{(","! )}{(","% ),\\","( ...","( ;\\","( )\\","( ^{-","( ???)",") },",") })_{",") ....",") ).",") )(\\",") );",") }.(",") }}}{",") }^{-",") )}{\\",") })(\\",") )}}",") })}{(",") ):(",") )((",") .......",") ......",") ....\\",") }.((","* ,","* ;","* })","* )\\","* ):","* **)","+ \\","+ }}}{",", _{",", },",", )\\","- \\","- }^{",". )(","/ ^{","0 17","0 99","0 21","0 33","0 98","0 90","0 79","0 135","0 224","0 204","0 787","0 199819981998","1 160","2 100","2 2018","2 2011","2 1000","2 160","2 197","2 123","2 199","2 202","3 100","3 25","3 19","3 14","3 21","3 96","3 85","3 150","3 144","3 136","3 131","4 10","4 15","4 11","4 18","4 13","4 33","4 26","4 125","4 39","4 78","4 79","4 224","4 243","4 142","4 808","4 343","4 20000","5 16","5 11","5 19","5 24","5 21","5 36","5 32","5 56","5 26","5 48","5 37","5 125","5 85","5 38","5 300","5 130","5 145","5 404","5 146","5 985","5 227","6 22","6 24","6 30","6 50","6 36","6 64","6 80","6 98","6 95","6 97","6 74","6 008","6 224","6 501","6 138","6 186","6 306","6 102000","6 565","7 12","7 200","7 30","7 27","7 36","7 35","7 40","7 26","7 98","7 48","7 06","7 37","7 34","7 70","7 46","7 88","7 38","7 0000","7 404","7 408","7 644","7 400000","8 20","8 12","8 15","8 16","8 18","8 13","8 14","8 60","8 21","8 50","8 35","8 45","8 29","8 65","8 90","8 55","8 51","8 85","8 41","8 78","8 92","8 62","8 67","8 73","8 126","8 133","8 224","8 565","9 30","9 21","9 36","9 28","9 56","9 26","9 03","9 04","9 48","9 120","9 000","9 42","9 51","9 46","9 38","9 300","9 0000","9 187","9 1800",": }",": _{",": ((","; ,","; /","; {\\","; }\\","; ;^{","; ..{.","< }","= }(\\","? \\","? }","@ )","@ @","A R","A U","A Y","A b","A d","A i","A p","A t","A xy","A AD","A OA","A vÃł","A SC","A khi","A XE","B U","B X","B t","B z","B cos","B xy","B NO","B IB","B GA","B PQ","B GD","B SC","B GM","B PM","B JA","B Ã¬nh","B ÃĢ","C Y","C e","C s","C NO","C CM","C ox","C GA","C CHO","C IM","C SA","C nH","C Si","C hi","C Ã´","C SB","C Ã´ng","C PM","C CHCH","C QP","C QM","C xH","C dO","C Ã²nl","C acbon","C tháº³nghÃłng","C chÃŃnh","C áº£mÆ¡nnhiá»ģu","D R","D S","D Y","D x","D OH","D ot","D pcm","D PT","D IH","D OF","D PC","D PM","D PN","D QM","D ddH","D JB","D TE","D áº¥u","D XF","D lá»Ĺi","E E","E T","E a","E b","E t","E tan","E MI","E MD","E GC","E NC","E SB","E HK","E KI","E PA","E KM","E OQ","E JB","E til","E saocho","E acO","E AgBr","F P","F R","F X","F t","F Cl","F MB","F MA","F OC","F MC","F BE","F AI","F DB","F IB","F OM","F EB","F AG","F CK","F HD","F DK","F HA","F BO","F IK","F MG","F NB","F NA","F AQ","F DO","F KI","F MQ","F OK","F OHB","F XD","G J","G a","G e","G h","G i","G CO","G BC","G AH","G CA","G pt","G BE","G DE","G IB","G DM","G HF","G DF","G OF","G KB","G Ã³c","G TN","H T","H OH","H pt","H OA","H IB","H MD","H vÃł","H NC","H GB","H MP","H MO","H IJ","H PC","H QC","H QM","H co","H JA","H so","H Ã£","I R","I Z","I x","I Cl","I MA","I AN","I HO","I HD","I HA","I FC","I OP","I FB","I PA","I ABK","I QA","I HCE","I VN","J G","J I","J NO","J CD","J ABC","J MN","J IA","J EF","J BK","J MO","J IK","J FC","J KI","J FB","J KN","J PG","J IL","K T","K b","K c","K h","K k","K m","K DE","K AF","K IA","K AO","K ED","K BF","K DH","K ID","K HO","K OI","K IE","K AA","K OF","K CrO","K NA","K EH","K DI","K áº¿","K PC","K MgCl","K QC","K OQ","K PF","K QO","K hÃ´ng","K ST","L E","L H","L J","L R","L a","L x","L in","L CH","L AC","L NC","L EA","L CI","L OE","L KH","L ÄĲ","L áº¥y","M R","M Y","M Z","M c","M y","M Ã","M ABC","M PO","M ACB","M HNO","M NaCl","M SC","M khi","M chung","M JC","M Ã¬nh","M JB","M JK","M kc","M va","M saocho","M ÃŃn","M tháº³nghÃłng","M LQ","M RK","M hhY","M lÃłtrungÄĳiá»ĥm","N L","N S","N h","N o","N x","N Cl","N AD","N BD","N BA","N AN","N AI","N IB","N Br","N IC","N ilon","N MD","N BK","N BI","N ED","N ME","N DK","N DF","N IH","N FE","N FC","N KB"]}}